#version: 0.2
Ġ Ġ
ä ¸
ï ¼
ï¼ Į
ã Ģ
ç ļ
çļ Ħ
ĠĠ ĠĠ
ä º
Ġ t
æ ľ
å ı
ãĢ Ĥ
i n
å ħ
h e
Ġ a
ä »
å ¤
r e
o n
å Ī
å ®
ãĢ ģ
e r
è ¿
ä ½
å ľ
ç Ķ
å Ĳ
a t
Ġt he
å Ĭ
æ ĺ
Ġ s
ç »
ĠĠĠĠ ĠĠĠĠ
â Ģ
e n
o r
å Ľ
æ Ī
æ ĸ
å ¹
e s
ä ¼
ä ¹
Ġ c
æ Ĺ
i s
è ®
ä¸ Ģ
i t
Ġ o
a l
a n
å °
è ¯
å Ń
å į
æĺ ¯
åľ ¨
Ġ w
Ġ p
Ġ f
å ·
æ Ŀ
æľ ī
å ¸
e d
a r
é ĩ
å Į
å º
in g
äº º
Ġ b
ä¸ Ń
l e
Ġa n
i on
æ ī
Ġo f
å ¼
è ¡
å Ĩ
é Ģ
å Ĵ
Ġ in
è Ģ
r o
å ¾
ä¸ į
å ĩ
i c
ä¸ º
åĴ Į
Ġ m
Ġ d
æ ķ
ç Ľ
ç §
æ Ĭ
å ±
å ¯
äº Ĩ
ĥ ½
Ġt o
è µ
æ ł
å¹ ´
è ´
å¤ §
o u
åĽ ½
è §
ç ī
Ċ ĠĠĠĠĠĠĠĠ
ä¸ ļ
Ġan d
a s
e l
ä» ¥
ç İ
æ Ģ
æ °
é Ļ
æ Ķ
çĶ Ł
åŃ ¦
a c
ç Ĳ
en t
å ¥
e t
s t
ç º
âĢ ľ
è ĩ
âĢ Ŀ
åı ĳ
æ ³
2 0
å ½
çĶ ¨
ä¼ ļ
Ġ \
å ¿
å İ
ä¸ Ĭ
ç Ń
æ Ń
ä ¿
¦ ģ
Ġ =
å ĳ
é Ĺ
ä¸ ª
æ µ
è ĥ½
è ¦ģ
æ İ
æĹ ¶
é Ŀ
å· ¥
Ġ n
o m
ä½ ľ
Ġt h
Ġ h
æ ŀ
i l
è¡ Į
æĪ Ĳ
å ĵ
äº İ
e c
è¿ Ļ
Ċ Ċ
æ ²
Ġ re
i m
æĪ ĳ
é ¢
åı ¯
Ġ e
æ ¯
Ġ l
å Ł
åĪ °
æ ĭ
u t
é ĺ
è ¾
åĩ º
åħ ¬
å¯ ¹
Ġ is
åĪ Ĩ
æĿ ¥
è ½
å® ¶
o l
å ī
æ Į
åľ °
äº §
çĲ Ĩ
u s
o t
i d
a m
å¤ ļ
æ ±
é «
æ ĥ
ç ľ
é« ĺ
Ċ ĠĠĠĠ
çŃ ī
i g
ç «
ä» ¬
æĸ ¹
Ġ T
æĸ °
at ion
åĮ ĸ
ç ®
åĬ ¨
è Ĥ
ä¸ İ
v e
æ Ħ
0 0
ç ½
æ ¸
ä ¾
æ ´
èĩ ª
è¿ Ľ
é ¡
ç ¨
ç» ı
æ ¬
è¿ ĩ
æĹ ¥
u n
u r
åħ ¨
çİ °
Ġ S
ä½ ĵ
æľ º
åĲ Ī
a d
Ġ g
åĲ İ
åĬ Ľ
å¸ Ĥ
ä¸ ĭ
ç ¬
ä» ĸ
é ĥ
å »
é ķ
o w
Ġ 1
æ Ľ
ï¼ ļ
ä¹ Ł
å® ŀ
åĵ ģ
åĲ Į
æľ ¬
u l
å¼ Ģ
æ ı
é ģ
è ģ
Ġf or
å ¦
Ġ A
ï¼ ī
æľ Ī
å® ļ
æ³ ķ
ï¼ Ī
Ġ $
ä¹ ĭ
ç Ļ
å± ķ
æĢ §
è® ¾
åı Ĭ
åħ ¶
ä¸ »
Ġ C
é £
o d
c e
i f
éĥ ¨
Ġ (
å¾ Ĺ
i r
å° ±
éĿ ¢
çĶ µ
l y
v er
å» º
è ¶
åĬ ł
Ġs t
èĢ Į
èĢ ħ
s e
å ¢
é Ľ
c t
å ģ
åľ º
åº ¦
è ī
æ į
u m
åħ ³
éĩ į
ç Ĥ
ç¬ ¬
çī ©
æ Ļ
åĬ ¡
æī Ģ
å¿ ĥ
ç ¤
åī į
éĢ ļ
éķ ¿
è ·
ç Ł
q u
æĸ ĩ
å° Ĩ
Ġb e
åº Ķ
æ° ´
c h
åĨ ħ
ç ł
æı Ĳ
Ġth at
åĪ ¶
Ġ on
a y
èµ Ħ
a g
éĩ ı
åŃ Ĳ
ç ¾
Ġ I
å¦ Ĥ
at e
åĮ º
è °
it h
å¥ ½
ç ©
ç ³
es t
çĽ ®
æ ¶
åı ¸
æĬ Ģ
äº ĭ
Ġ y
æľ Ģ
ç® ¡
è Ĭ
ç¨ ĭ
éĹ ´
ç§ į
å Ŀ
æ¯ Ķ
ä½ į
æķ Ļ
t er
ç ĸ
ç§ ĳ
é ĥ½
é ļ
å Ģ
ç ķ
è® ¡
Ġc on
Ġa s
el f
åĳ ĺ
ä¿ Ŀ
Ġ -
æľ Ł
ãĢ ĭ
æķ °
ãĢ Ĭ
ï¼ Ľ
æľ ¯
åħ¬ åı¸
ç Ŀ
å¹ ¶
è Ĳ
a p
Ġp ro
å §
ç Ĺ
a b
çĽ ¸
å¤ ĸ
åħ ¥
åĽ ł
è¡ ¨
ç³ »
æĽ ´
éĩ ĳ
ç ±
å° ı
ç Ħ
is t
é ľ
æ ģ
åĲ į
e m
r i
æĥ ħ
Ġa re
å¤ ©
Ġ P
h t
é Ķ
ä¸ ī
é ħ
å½ ĵ
re s
çĤ ¹
o s
ec t
Ġ v
æ Ł
ä¿ ¡
åĪ ©
ç ĥ
20 1
r ac
he r
e x
- -
æĪĳ ä»¬
ä¸ ĵ
çī ¹
æĪ ĸ
ä¼ ģ
Ġ M
a in
æ¬ ¡
Ġw ith
ä» İ
å¹ ³
ĠĠ Ġ
ä½ ¿
ä¸Ń åĽ½
åħ ĥ
è´ ¨
o p
éģ ĵ
è¿ ĺ
è¯ ´
ç ¡
er s
o c
å® ī
ĊĠĠĠĠĠĠĠĠ ĠĠĠĠ
æ´ »
æĦ ı
åŁ º
Ġa l
æŃ ¤
é ¦
å·¥ ä½ľ
æĶ ¿
ç ²
é¡ ¹
ĊĠĠĠĠĠĠĠĠ ĠĠĠĠĠĠĠĠ
åıĳ å±ķ
çĲ ĥ
ro m
è ĭ
t h
åı¯ ä»¥
Ġ or
é ĵ
ĠT he
å¸ ¸
Ġw e
ä» £
ç ´
å¼ ı
Ĥ £
ç¾ İ
p l
çĦ ¶
: :
Ġ +
Ġ it
ç½ ĳ
ä¼ģ ä¸ļ
å¾ Ī
æĹ ł
u b
æŀ ľ
èµ Ľ
æį ®
ä½ Ĩ
ä¸Ģ ä¸ª
es s
æĺ İ
( )
i v
an d
éĻ ¢
ç ¥
æ° ĳ
æł ĩ
u p
çł Ķ
è§ Ħ
çĿ Ģ
Ġw h
Ġ r
è į
ou r
å ķ
o re
Ġe x
èµ ·
æ ·
è ĥ
é Ĵ
Ġ B
æľ į
/ /
or t
é£ İ
è½ ¦
k e
æ ¡
æ º
Ġ {
çĶ ±
éĩ Į
å £
åĪ Ľ
ç ¼
å ŀ
åĲ Ħ
æĮ ģ
n t
ä» ¶
æŃ £
è ¢
è Ī
äº Ľ
Ġ 2
it y
ç» Ł
è§ £
m ent
ä¸ ĩ
è İ
å¢ ŀ
å¤ Ħ
Ġ D
éľ Ģ
1 0
åħ ·
å¼ º
éĺ Ł
èģ Ķ
Ċ ĠĠĠ
Ġc om
éĢ ł
il l
åķ Ĩ
å· ²
äº Į
æĬĢ æľ¯
ç» ĵ
è¿ Ĳ
æĬ ¥
u e
æİ ¥
è ¥
Ġ R
èĩ ³
ä½ ł
äº ¤
ç» Ħ
s elf
æ° Ķ
è¥ ¿
Ġ W
ä» »
o g
è Į
Ġ F
çĹ ħ
} {
ç ģ
Ġ H
æµ ģ
Ġb y
Ġ E
çľ ĭ
i es
è¢ «
e w
åį ķ
åį ģ
Ġ us
é¢ ĺ
æĶ ¶
å¯ ¼
f rac
æµ ·
Ġd e
* *
é ª
æ± Ĥ
ä¼ ł
æī ĭ
an g
ç« ĭ
èĤ ²
ig ht
å¤ ĩ
ç Ī
çº §
ä¸ ĸ
é ©
u re
è· ¯
éĹ ¨
i ve
an t
æł ¼
æ² »
æĢ »
Ġ N
åı Ĺ
Ġ he
å½ ±
âĢ Ļ
è º
am e
éĽ Ĩ
åĮ »
åŀ ĭ
åİ Ł
d e
i z
è £
Ġc an
èī ²
çŁ ¥
p t
æĦ Ł
åĲ ĳ
çº ¿
æ »
ä¾ Ľ
æĸ Ļ
æľį åĬ¡
æł ¡
as s
ä¸ ¤
çİ ¯
Ġ\ (
ç®¡ çĲĨ
æł ·
è¾ ¾
ç± »
ä¸ ľ
ç ¦
å ĸ
l d
ç¤ ¾
èº «
Ġ "
å Ļ
i al
çĻ ½
ul t
en d
è Ħ
æº Ĳ
Ġa t
æķ Ī
Ġf rom
Ġ L
ar t
å¹ ¿
åİ »
éĹ ®
åı ĺ
æ £
é¢ Ĩ
çľ ģ
çķ Į
ä¹ Ī
in e
) ,
è¿Ľ è¡Į
æĸ ¯
è¯ ģ
å± ±
åį Ĺ
åħ ±
èĬ Ĥ
ç¤ º
æ² ¡
a ve
äº§ åĵģ
ä¼ ĺ
Ġ G
åŁ İ
åģ ļ
p e
æĥ ³
ä» ·
åĻ ¨
æĬ ķ
p ort
å¸ Ī
èĲ ¥
åħ Ī
å· ±
å¸ ĥ
in d
Ġ le
æģ ¯
Ġn ot
åĮ Ĺ
in t
æĿ ¡
è® ¤
åĽ½ å®¶
éĢ ī
æŀ Ħ
Ġc h
ç© ¶
c l
å ²
æ ¼
åı °
åı ĸ
å® Į
èĢ ĥ
al l
èĩª å·±
å½ ¢
é »
# #
è® ©
åĽ ¢
æ ®
ä¹ ¦
è° ĥ
ion s
ag e
è¾ ĥ
æİ ¨
Ġ 3
åĩ Ĩ
å Ķ
å° ĳ
åı ª
1 9
ç² ¾
T he
è Ļ
Ġ un
åı £
æ³ ¨
æĮ ĩ
é Ĥ£
åĪ «
è¯ ¥
1 2
) .
æĪ ·
åĮ ħ
æ¯ ı
åĬ ŀ
n d
éĻ ħ
f or
æĸ ½
a re
åħ ī
20 2
æĶ ¹
è´ ¹
éĿ ŀ
åĽ ŀ
Ġ im
çłĶ ç©¶
åı Ĥ
çĥ Ń
u d
ä½¿ çĶ¨
ex t
å¸ ¦
æĶ ¯
Ġth is
å® ¹
ï¼ Ł
Ġw as
çĽ ´
å° Ķ
u st
æ· ±
è¿ ĳ
çĸ Ĺ
è§ Ĥ
ç ħ
t o
æĶ ¾
èİ ·
åĽ Ľ
æ ¨
ĉ ĉ
ou t
å¸Ĥ åľº
ä» Ĭ
é¡¹ çĽ®
è§ Ĩ
Ġy ou
Ġ O
åĨ ³
å¢ ĥ
æ ¢
i p
20 0
æĪ ĺ
ç» Ń
èĢ ģ
å® ĥ
ç© º
åĬ ©
Ġh ave
Ġ 0
è® °
u g
æĹ¶ éĹ´
é£ Ł
éĻ Ĳ
ç Ĭ
o st
ç¡ ®
æķ ´
on e
Ġ k
âĢ Ķ
é Ł
e re
æī į
æī ĵ
è¯ ķ
å¤ į
om e
éĢļ è¿ĩ
æ¸ ¸
è£ ħ
å® ¢
å¾ ·
èģ Į
çİ ĩ
_ _
ä½ İ
Ġs h
éª Į
Ġs e
æĺ ĵ
p er
æ Ĥ
ic h
åĬ Ł
è½ ¬
ic al
Ġt r
1 1
æŃ ¥
å± Ģ
çĶŁ äº§
æ²¡ æľī
è ±
éĺ ²
åı ·
ç¥ ŀ
éĢ Ł
ä¹ Ĳ
æĬ ¤
æķĻ èĤ²
é¦ ĸ
ç» Ļ
çº ¦
f f
ç§ °
ar d
åį İ
æ¶ Ī
ä¸ĵ ä¸ļ
at ed
åĳ Ĭ
ç» ´
i b
è¶ ħ
an s
æľ ª
é ¥
è® º
æ¸ ħ
æµ ĭ
è¯ ·
i le
å»º è®¾
æµ İ
æıĲ ä¾Ľ
æĿ Ĳ
ç§ ¯
ä»ĸ ä»¬
äº ¿
at a
è® ®
å¿ «
åĨ į
ac t
el l
) :
æ¨ ¡
ç´ ł
åį ĩ
è®¾ è®¡
æł ¹
è§ ģ
le t
ä¸ĸ çķĮ
åĪ Ĵ
åħ »
å· ŀ
å ¡
éĹ® é¢ĺ
éľĢ è¦ģ
Ġ [
c on
b er
å§ Ķ
Ġ en
å¤ ´
\ [
äº ļ
æĿ ĥ
è¶ Ĭ
åĢ ¼
as t
çľ Ł
å¼ ķ
Ġ U
ç³» ç»Ł
ä¿¡ æģ¯
åŁ Ł
å·¥ ç¨ĭ
åİ Ĩ
Ġp l
è¯ Ĩ
ac k
Ġw or
ç« Ļ
d er
æ ¹
é© ¬
è¶ ³
ä¸» è¦ģ
ç¤¾ ä¼ļ
åĵ į
å¥ ³
ab le
å£ «
è´ £
æİ §
èĩ ´
æ¡ Ī
æŁ ¥
é¢ Ħ
æŀ ģ
ç»ı æµİ
ä½ ķ
äº Ķ
å§ ĭ
a k
Ġre s
æĢ ģ
ou ld
. .
t r
åĳ ¨
çĶŁ æ´»
id e
Ġs p
æİ Ĵ
Ġ j
t her
l o
çī ĩ
å¤§ åŃ¦
åĪ Ļ
Ġa b
i re
çĪ ±
éĩ ĩ
ac h
ä»¥ åıĬ
ä¸ Ķ
a v
èĤ ¡
5 0
c c
ct ion
Ġw he
ĊĊ ĠĠĠĠ
ç ĭ
åħ ĭ
p s
æ¸ ©
åĨ ľ
Ġ 4
åĨ µ
å°± æĺ¯
-- --
åĪ Ĺ
ic e
æĺ ¾
èĬ ±
åı į
ç± ³
æ ĳ
ar g
è¡Į ä¸ļ
åį ı
Ġal l
èī º
åŃ ĺ
o k
st r
at h
æ£ Ģ
éĻ ¤
Ġn e
ä¼ Ĺ
i a
æ Ĥ£
èĮ ĥ
å¿ ħ
Ġwh ich
èį ¯
åĽ ¾
æĸ Ń
æ¼ Ķ
) ;
è ĳ
ï¼ ģ
ç ¢
ä¹ ł
ur n
Ġ '
æĪ ¿
è ŀ
as e
ation s
å± ŀ
âĢĿ ï¼Į
åŃ Ĺ
å¦Ĥ æŀľ
ou nt
im e
c om
Ġa d
res s
Ġ J
éħ į
d u
3 0
éĶ Ģ
ent s
åº ľ
éļ ¾
æ± Ł
} $
æĸĩ åĮĸ
çħ §
çļĦ äºº
åİ ĭ
çĬ ¶
å®ī åħ¨
Ġcom p
on g
æ´» åĬ¨
' s
Ġcon t
an ce
çİ¯ å¢ĥ
éĢ Ĥ
æĬ Ĭ
åģ ¥
ĠI n
åı Ī
` `
è¯ Ń
for m
Ġw ill
åĲĮ æĹ¶
éĩį è¦ģ
éļ ı
\ ]
åĽ½ éĻħ
åŃ £
çļ ®
f t
æĸ¹ éĿ¢
å½± åĵį
è ı
al ue
åı¯ èĥ½
æ ħ
ç ª
äº ¬
y pe
æ² ¹
ç» ĩ
ä¾ ĭ
ç ı
ç¦ »
åĬ ¿
è ħ
ç» Ĩ
åħ ļ
æĻ ¯
ig n
åį ³
ar y
è¿ ŀ
s o
00 0
æĻ º
ãĢĤ âĢĿ
åĽł ä¸º
ä» Ģ
æĢ Ŀ
r t
æľ Ľ
å Ħ
è®¾ å¤ĩ
ä¹ ī
æĭ ī
" "
ä¸Ń å¿ĥ
è¯ Ħ
æĪĲ ä¸º
æŀ Ĺ
å ĭ
Ġp er
è¯ Ŀ
çĽ¸ åħ³
Ġthe ir
u al
ä» ½
æ Ĵ
æ ļ
ou s
ĠT h
åħ· æľī
Ġ$ \
åĩ ł
Ġn um
æ²» çĸĹ
æ» ¡
è® ¸
é ¾
Ġs elf
Ġh as
Ġd o
äº§ ä¸ļ
p ro
en s
æķ° æį®
éĻ į
Ġc l
èĭ ±
åº ·
il d
åĽ Ń
it e
e ar
è¿Ļ ä¸ª
en ce
Ġy our
æ® µ
Ġ x
ç½ ®
çŁ ³
1 5
ä¾ Ŀ
åĳ ½
æī ¿
çī Į
æĺ¯ ä¸Ģ
æĶ¿ åºľ
ac e
a il
it ion
ä» ħ
éŁ ³
us e
å¥ ¹
ä»Ģ ä¹Ī
ä¾ ¿
å¹ ²
æĬķ èµĦ
çļĦ ä¸Ģ
ã ģ
è´ Ł
ä½ľ ä¸º
ç Į
åĦ ¿
åĶ ®
å¥ ĸ
çĻ ¾
çĽ ĳ
èĥ½ åĬĽ
åı ²
èŀ į
æł ¸
1 8
1 6
ç§ĳ æĬĢ
éĿ Ĵ
" ,
æĥħ åĨµ
åİ ¿
åħ¶ ä»ĸ
æĿ ¿
å ĥ
çĽ Ĭ
ç® Ĺ
åĩ ı
a ke
iz e
or d
è± ¡
ä¸į åĲĮ
at er
er t
Â ·
å± Ĥ
Ġa p
ç½ Ĺ
äºº åĳĺ
è ¨
åĢ Ļ
æĿ ĳ
èĲ ½
r y
^ {
è¦ģ æ±Ĥ
å¤ ª
e p
å·² ç»ı
re t
åĿ ĩ
de f
j ect
è¨ Ģ
å® ¤
æĮ ī
æĭ ¬
ä¿ ®
åŁ ¹
ro w
ä¸Ń çļĦ
Ġ V
ĠĠĠĠĠĠĠĠ ĠĠĠĠĠĠĠĠ
ç»Ħ ç»ĩ
å¼ ł
Ġon e
åĪĽ æĸ°
od e
çŃ ĸ
Ġthe y
ç¬¬ ä¸Ģ
v el
è´¨ éĩı
( "
æĺ Ł
åĨ Ľ
åħ į
ä½ ı
è¿Ļ äºĽ
æ¬ ¾
Ġd is
å¾ Ģ
ä¸ ¾
b o
é Ĥ
å¤ ±
g e
å¤Ħ çĲĨ
p le
u ch
éĵ ¶
çİ ĭ
Ġm ore
ç§ĳ åŃ¦
å¥½ çļĦ
Ġm an
åºĶ çĶ¨
or y
åĥ ı
çĽ® åīį
çĶ ³
ä¸ ¥
åĮħ æĭ¬
ç» Ī
Ġst r
e g
çŃ ĳ
çº ¢
Ġo ut
åŃ¦ çĶŁ
å¤§ çļĦ
å¢ŀ éķ¿
m s
éĺ ³
åĪ ĩ
å¾ ®
o ver
åį ļ
åĽ ´
Ġo ther
å ¨
çģ «
æĤ£ èĢħ
åĲ «
Ġ qu
åħ¶ ä¸Ń
æł¹ æį®
äºº çļĦ
åľ Ł
å¤ Ł
äº Ĵ
æ² ³
2 5
t ext
æľī éĻĲ
åı ĭ
Ġ up
èİ· å¾Ĺ
$ ,
æīĢ ä»¥
èµ °
è¯ ¾
äºº æ°ĳ
åı ¤
å® ¡
åįķ ä½į
1 4
åŁİ å¸Ĥ
Ġin t
ow n
æĻ ®
or s
åħ ħ
Ġ &
å¼Ģ å§ĭ
p ut
æ Ĳ
r a
k s
ç® Ģ
Ġs o
Ġ **
âĢĿ ãĢĤ
ã ĥ
Ġ1 9
åĲĪ ä½ľ
ä»¥ ä¸Ĭ
å¯ Į
è¿ ľ
éĥ¨ åĪĨ
Ġ 5
Ġb ut
Ġ K
_ {
åı Į
æłĩ åĩĨ
1 3
äº ī
Ġ âĢľ
g et
å· ´
åĸ Ħ
å¿ µ
åĩº çİ°
éĿŀ å¸¸
æĭ ©
ĠS t
ç¨ İ
å®ŀ çİ°
å¾Ī å¤ļ
Ġs c
å¯¹ äºİ
éĻ ©
6 0
åħ¨ åĽ½
å»º çŃĳ
çº ³
æĿĲ æĸĻ
éħ Ĵ
è¡ Ģ
èī ¯
' ,
æ± ½
åĪ Ŀ
æĹ ©
Ġwe re
åŃ¦ æł¡
er v
å½ ķ
è§ Ĵ
p ub
y s
æĸ¹ å¼ı
çī Ī
åį Ĭ
o int
Ġal so
å¯ Ĩ
æķ ħ
) )
Ġ ro
ç¾ ¤
éĽĨ åĽ¢
å¾ ĭ
ä¹Ł æĺ¯
Ġ *
re f
I n
un d
é» Ħ
åŃ¦ ä¹ł
å£ °
Ġm e
1 7
el y
i e
è¡¨ ç¤º
é¦ Ļ
éĢī æĭ©
ç¦ ı
l ow
i ent
æ¸ ¯
è§Ħ å®ļ
æĭ Ľ
ou nd
ä¸ª äºº
åĿ ļ
æĹ ħ
åħ °
è¿ĩ ç¨ĭ
ic t
éĴ ¢
Ġe v
çĻ½ çĻ
: //
å± ħ
åħ ´
ľ é£İ
re e
ay s
ĊĠĠĠĠĠĠĠĠĠĠĠĠĠĠĠĠ ĠĠĠĠ
è§ ī
çĻ½çĻ ľé£İ
ir st
æıĲ é«ĺ
çĶ »
re d
Ġcom m
o od
åĽł æŃ¤
æī ¹
åī §
o se
è¿Ļ æł·
ç¾İ åĽ½
ç ¯
Ġp art
è´ ¢
åį «
è½ »
å ł
ãĢ Ģ
ç» ľ
ä¸Ģ äºĽ
é¢Ĩ åŁŁ
o b
åį ¡
ç¼ ĸ
if f
at es
éĵ ģ
n ame
æ ¥
é¾ Ļ
æŃ ¢
Ġ\ )
åİ Ĥ
è´ Ń
å¿ Ĺ
åį ł
èĮ ¶
æľīéĻĲ åħ¬åı¸
Ġ if
et h
] (
a x
äº¿ åħĥ
å¸ Į
ing s
æŁ ĵ
çĭ ¬
è® Ń
åģ¥ åº·
w e
æĺ ¥
æľº æŀĦ
on d
é¡ »
é¢ Ŀ
s q
å° ½
è¾ ¹
å¤§ å®¶
åŃ¦ éĻ¢
éĺ ¿
æĪĸ èĢħ
c es
Ġ <
æĸ¹ æ³ķ
å¼Ģ åıĳ
å·¥ ä¸ļ
Ġs y
èĩªå·± çļĦ
åº ķ
èµĦ æºĲ
éĥ¨ éĹ¨
o ve
æ³ ¢
åŁº ç¡
ver s
æ ¿
åĪ° äºĨ
çº ª
ä¸į æĺ¯
æ¬ §
åŁºç¡ Ģ
çļĦ æĺ¯
åĮĹ äº¬
è® ²
ç« ŀ
åį ´
2 4
åıĳ çĶŁ
æĭ ħ
ri b
Ġa r
èĪ ¬
Ġnum ber
Ġin to
åį °
æī §
åľ° åĮº
202 2
ä½Ĩ æĺ¯
Ġst ud
ç¨ ³
åĳ ³
èģ ļ
ï¼ļ âĢľ
åĨ Ļ
æĹ¶ åĢĻ
ç ĵ
ä½ Ļ
ä» ĭ
å¹´ çļĦ
è¾ ĵ
èĥ½ å¤Ł
æĤ ¨
r ight
p h
ä½ľ çĶ¨
ä¸į æĸŃ
æĪ ı
è Ĵ
sq rt
çĸ «
åĨħ å®¹
Ġ- >
çķ Ļ
å¹³ åı°
é¡ µ
æ¬ ¢
ä¸Ģ å®ļ
å° ¼
ç» §
ç¬¬ äºĮ
æ¯Ķ èµĽ
æīĢ æľī
Ġt w
$ .
Ġe qu
i o
oc k
åı ¦
æ¿ Ģ
ç½ĳ ç»ľ
å®Į æĪĲ
Ġth an
Ġus e
er m
æ ¦
èĪ ª
åī Ĥ
åŃ ©
é ²
äº ĳ
å¥ ¥
è¯ »
åº Ĺ
çĶ³ è¯·
Ġne ed
202 1
le ct
Ġwhe n
æ ¤
å® ³
çī Ľ
åĨ ł
Ċ ĉĉ
r or
ã Ĥ
r ap
im es
= =
çı Ń
åĲ ¸
l l
åī ¯
ĠTh is
æ ĵ
o ol
åĸ ľ
ä¸ ´
çł ´
çİ° åľ¨
re at
3 2
äºĨ è§£
ç» ¼
è¡ ¥
Ġex p
Ġb ec
åĬŁ èĥ½
è®¡ åĪĴ
æ±½ è½¦
åħ¨ çĲĥ
å Ĥ
çĶ± äºİ
Ġim port
æľī åħ³
Ġp os
éļ ľ
is h
Ġp e
è´ §
æ¹ ĸ
pt ion
äº «
å² ģ
æĿ İ
Ġt ime
Ġc ol
Ċ ĊĠĠĠĠĠĠĠĠ
8 0
æ ½
çª ģ
ang e
éħ ¸
çľ ¼
if ic
ht t
åħ Ń
ret urn
Ġab out
æĽ ¾
p ar
Ġn ew
åĵģ çīĮ
çķ ¥
ï¼ī ï¼Į
çĹ ĩ
ĠC h
ç Ĩ
åº §
çĻ »
éĢ ģ
c he
éĴ Ł
å® £
o ok
å®¢ æĪ·
re n
ver y
å¸ ®
æ± ¡
äº ²
Ġk n
it s
Ġ 6
p r
ter n
Ġcon s
åĬ ³
ç ¿
l es
æĭ ¥
4 0
ĠI t
éĥ½ æĺ¯
i an
å® ĺ
ä¸ļ åĬ¡
r it
åıĳ çİ°
st em
on s
åĮ» éĻ¢
æ´ ²
r am
åĽ½ åĨħ
Ġf ind
Ġwor k
ä¹ ¡
ä¼ ¤
n ing
Ġthe se
Ġwh o
åİĨ åı²
åº ı
ç» ¿
ke y
å¾ ģ
è®¤ ä¸º
% ï¼Į
Ċ ĠĠ
éľĢ æ±Ĥ
Ġg et
è¿Ļ ç§į
é» ĳ
r ic
å· ®
ç £
èĥ ľ
æĪĳ åĽ½
Ġd iff
ot h
æĹ ı
çĶµ åŃĲ
åĩ »
åĪ¶ éĢł
Ġthe re
æĶ¿ çŃĸ
ä¿Ŀ æĬ¤
æŀ Ĳ
f rom
Ġb et
Ġ `
ç« ł
iv en
æ¶ ²
éķ ĩ
T h
æİ§ åĪ¶
od el
ç» ©
is s
æį ¢
ç²¾ ç¥ŀ
Ġfor m
å¼ Ĥ
Ġl i
ç« ¯
è½ ½
1 00
æľª æĿ¥
åį ĥ
èīº æľ¯
è½ ®
å¢ŀ åĬł
% ãĢĤ
èĭ ı
çĸ ¾
ä¹ĭ åĲİ
ä¸į èĥ½
é¦ Ĩ
çĶ ·
ä»£ è¡¨
en er
åĲ ĥ
æıĲ åįĩ
Ġ âĢ
Ġ1 0
ç»ĵ æŀĦ
ar k
å° Ħ
Ġm ay
Ġh is
é¢ ĳ
ug h
Ġit s
Ġh ow
Ġf irst
Ġs et
Ġa cc
c k
èĻ ½
ä¹ĭ ä¸Ģ
å± Ĭ
Ġtw o
Ġy ear
Ġa ct
ç ĩ
a w
ä¸ °
e f
æľ ¨
æĻº èĥ½
èĩª çĦ¶
Ġs up
ç»ı èĲ¥
x ed
Ġo b
o v
æĶ¯ æĮģ
a use
ç»¼ åĲĪ
c ess
ä» ¤
è¿ĺ æĺ¯
å¼Ģ å±ķ
ä¸į ä¼ļ
ç§ Ģ
Ġad d
Ġp r
å ©
Ġa g
éĿ ©
ä¸Ģ æŃ¥
al ly
i ed
rac t
op le
æĬ Ĺ
c re
ol og
ä¸Ģ èĪ¬
i el
l og
æĴ Ń
å¥ ĩ
èĳ Ĺ
åĨ ·
æİ Ī
ec h
åĲ ¦
20 20
ä» į
Ġthe m
Ġs ome
å¸Į æľĽ
Ġan y
ï¼Į âĢľ
Ġ |
è§£ åĨ³
å¾ ħ
ç§¯ æŀģ
2 3
Ġp re
å® Ŀ
9 0
åıĳ å¸ĥ
æĸ° çļĦ
in ce
Ġo ver
åĪ© çĶ¨
ä¿ ĥ
èģĮ ä¸ļ
è´Ł è´£
ç§ »
ar s
è¿Ļ ä¸Ģ
ĊĠĠĠĠĠĠĠĠĠĠĠĠĠĠĠĠ ĠĠĠĠĠĠĠĠ
ä¸º äºĨ
è¿ °
at ch
æ°´ å¹³
æĮģ ç»Ń
ä¸Ĭ æµ·
çŁ Ń
ar i
n g
é ¸
Ġs uch
ç´ ¢
v al
æī ¾
çŁ¥ è¯Ĩ
æĭ¥ æľī
è½ ¯
æ¯Ķ è¾ĥ
Ġs ol
Ġe ach
f ig
ib le
é£ ŀ
c d
( '
Ġ Y
ç» Ŀ
b le
æķĻ åŃ¦
ä¸Ĭ çļĦ
ap p
Ġin d
ir c
S t
Ġd es
éĶĢ åĶ®
t est
ang le
ä¸ĩ åħĥ
åĪĨ æŀĲ
çĶ¨ äºİ
`` `
æį Ł
ic k
9 9
è Ĺ
2 2
Ġn o
å¿ħ é¡»
ç¥ ¨
u ct
âĢĶ âĢĶ
Ġbe en
åħ ¸
æĽ´ å¤ļ
Ġ 201
Ġre g
---- ----
is e
" )
ç¬¬ ä¸ī
č Ċ
æī ĺ
\ )
Ġre l
çĶ¨ æĪ·
æ¶Ī è´¹
ou g
äº§ çĶŁ
åĩ Ģ
Ġun der
Ġf un
åĲĦ ç§į
ut ion
i ew
( &
en c
åĲ ¬
d s
ä¹ °
è¡Į æĶ¿
è¿ĺ æľī
å®ŀ æĸ½
Ġs ub
å ³
ä»Ĭ å¹´
æĦ ¿
Ġ 7
éĩĩ çĶ¨
å ª
æĿ¡ ä»¶
s h
Ġd ata
n e
Ġp oint
çĶ ²
å¦Ĥ ä½ķ
ä¼ł ç»Ł
è¾¾ åĪ°
in k
Ġas s
åĽ º
æŁ Ĳ
è´£ ä»»
æľī æķĪ
åħ «
åıĤ åĬł
t ype
ig h
åħ³ ç³»
Ġe m
é Ĩ
ä»· æł¼
s s
u es
// /
æł ĳ
p os
åŃ© åŃĲ
äºĨ ä¸Ģ
éļı çĿĢ
èĢĮ ä¸Ķ
d ata
åģ ľ
2 6
ment s
èģĶ ç½ĳ
è¿Ļ æĺ¯
å¯¼ èĩ´
it ies
Ġ 8
htt ps
çĽ® æłĩ
ul ar
vel op
ut e
re ad
è¯ ī
Ġsp ec
è Ĩ
at ive
åŁº æľ¬
è¶ħ è¿ĩ
ro ugh
ç» ĥ
at ing
il ity
Ġpe ople
èĥ½ æºĲ
ä½ Ľ
åĪ »
æĶ »
ç³» åĪĹ
éĤ£ ä¹Ī
Ġus ed
æ¢ °
f ter
å¯ Ł
é¥ ®
Ġin ter
2 7
åıĸ å¾Ĺ
" :
ç´ §
åħ³ äºİ
åº ĵ
"" "
ic s
Ġon ly
Ġa m
Ġt est
åĵ ª
éĢ Ĳ
çŁ¥ éģĵ
Ġpro du
Ġre m
ç¼ º
Ġin cl
çĮ ®
æ¯ Ĵ
en g
æ¯ ķ
å¸® åĬ©
he d
åŃĺ åľ¨
2 8
æ³¨ æĦı
æĿ ¯
C on
æ¯ į
èĻ½ çĦ¶
Ġf e
åıĤ ä¸İ
Ġw ould
Ġm ost
éĩį çĤ¹
æĸ¹ æ¡Ī
çĶŁ çī©
äº Ī
æİ ¢
éģ ĩ
Ġo ur
æ¥ ¼
æĿ¥ çļĦ
å½¢ æĪĲ
è¿ ½
ĊĠĠĠĠ Ġ
= "
éĩĳ èŀį
éĢ ı
è¿Ľ åħ¥
è¿ İ
ad e
ä» ĺ
åª Ĵ
æ± ī
æ¸¸ æĪı
t he
ä»» ä½ķ
Ġman y
çī¹ åĪ«
çĸ¾ çĹħ
Ġv alue
ation al
é¡µ ç¬¬
ä½ ³
æĽ ²
Ġs im
ä» ª
åº Ń
æī ©
å¤ «
èį ī
ä¸į ä»ħ
ç» į
bo xed
ä¸Ģ èµ·
æ¤ į
ass ert
cd ot
æĪĲ åĬŁ
çŃ ¾
åĨ Į
æĬ¥ åĳĬ
åĪĨ éĴŁ
è§Ħ åĪĴ
Ġh ad
èį £
åģ ĩ
æŃ ¦
6 4
ä¹ĭ éĹ´
201 9
ä»¥ ä¸ĭ
or k
ä»· åĢ¼
æŃ »
é ¼
Ġdiff ere
s c
çİ° ä»£
èĭ ¥
çĽ ĸ
âĢ ¦
å¾Ĺ åĪ°
æĿ¥ è¯´
è¡ Ĺ
æĶ¶ åħ¥
Ġre c
æ° §
çłĶ åıĳ
i x
äºº æīį
ar ch
ç»§ ç»Ń
å® ģ
2 1
Ġpro v
äºº ä»¬
ro und
å½ ©
è¿Ľ ä¸ĢæŃ¥
al th
çĶ ļ
åı ¶
s et
æŃ Į
å¤ ı
ä»ĸ çļĦ
v ent
åŁº éĩĳ
Ġth rough
ä¸ ĥ
åľ° æĸ¹
in al
v alue
Ġch ild
ä½ľ åĵģ
åºĶ è¯¥
l ine
ä¼ ¼
Ġre qu
Ġd i
æĹ¥ æľ¬
å§Ķ åĳĺ
æĹħ æ¸¸
Ġwhe re
ff ect
ï¼ī ãĢĤ
ä¼ļ è®®
éĺ ¶
çĽ´ æİ¥
è§Ħ æ¨¡
åĽ °
è®¸ å¤ļ
Ġwh at
Ġ /
we en
ĠU n
è ĵ
æĻ ļ
O N
æĪĲ ç«ĭ
çģ µ
} \
} ,
n ew
å®ŀ éĻħ
ag es
çł ģ
æĮ ¥
Ġde f
å® Ī
ä½ĵ ç³»
u c
åĳ ¢
å¥ Ĺ
Ġhe l
éĽ ¶
eth od
Ġd ec
p on
éĻ Ħ
3 5
Ġb u
Ġs ec
è¿Ĳ åĬ¨
åĨ ²
Ġthe n
æĽ´ åĬł
äº¤ éĢļ
å· ¦
åĲ ¯
èĮĥ åĽ´
m er
u res
æ¶ ¦
ä¹ ħ
Ġt e
ä¸Ģ çĽ´
åĪ ¤
æıĲ åĩº
æĺ¾ ç¤º
æĪĳä»¬ çļĦ
æľŁ éĹ´
ä¿Ŀ æĮģ
p ect
æ¨¡ å¼ı
å» ¶
è¯ ¢
è Ľ
æ³ Ľ
Ġd ist
è® ¯
åı ³
ç»ĵ åĲĪ
ä»ĭ ç»į
Ġf ol
å»º ç«ĭ
é º
é¡ º
çĶµ å½±
æĵ į
é£Ł åĵģ
in s
f ul
## ##
éĢł æĪĲ
y p
Ġv al
{ \
æĿ Ĥ
éĵ ¾
åħ¨ éĿ¢
' :
if y
ä¹ Ŀ
è· Ł
éĶ Ļ
id ent
ç² ī
æľº æ¢°
è® ¢
æĮī çħ§
æľĢ åĲİ
or m
t e
Ġbet ween
éĻ Ī
Ġ 9
åĽ¢ éĺŁ
Ġat t
Ġp ar
åĬ ª
ç½ĳ ç«Ļ
è®¡ ç®Ĺ
ro up
al s
å¨ ģ
ist s
åºĶ å½ĵ
è´ µ
m ut
è¡Į ä¸º
å ĺ
le ft
éĽ ¨
èı ľ
Ġtr ans
çļĦ æĹ¶åĢĻ
p ath
am ple
Ġo p
éĴ Ī
] ,
æĹ¶ ä»£
çļĦ åıĳå±ķ
è Ń
# [
åĤ ¨
åį ±
åĬł å¼º
éĢ Ģ
é¥ °
ç»ĵ æŀľ
7 0
åħ¬ å¼Ģ
Ġsy stem
åİŁ åĽł
èĥ Į
èĢ Ĳ
pl ic
å®¹ æĺĵ
he n
é Ń
ä¼ĺ åĬ¿
ç« ¥
at ure
æĭ ¿
æ³ķ å¾ĭ
ub l
ç»ı éªĮ
åº Ł
å¸ Ń
in es
æ£ ®
Ġ i
Ġp h
åľ £
ĠP ro
ç¬ ¦
Ġb l
Ġs m
2 9
an n
æİ¨ åĬ¨
ow er
al c
Ġres ult
æİ ª
å¹ ħ
éģ ¿
as ed
åĪĨ åĪ«
ref ore
æķĪ æŀľ
Ġs a
Ġde velop
æĢ ¥
s er
è° Ī
åº Ĩ
éĵ¶ è¡Į
åħ± åĲĮ
ur ing
æķ £
åĿ Ĺ
éĿ¢ ç§¯
æĢ İ
ä¹ İ
t en
f ile
éģ Ĺ
æĿ ¾
ä¸ĵ å®¶
201 8
èĥ ŀ
åĲĮ æ¯Ķ
èŃ ¦
è¯ Ĺ
ä»¥ æĿ¥
Ġli ke
èĦ ĳ
t t
æĢ§ çļĦ
çĿ £
æ° ¸
çĶļ èĩ³
ç©º éĹ´
ç¯ ®
åĩı å°ĳ
Ġf n
çļĦ å¤§
èº« ä½ĵ
è¿ĩç¨ĭ ä¸Ń
æ´ Ĺ
äº¤ æĺĵ
ç ĳ
Ġsh ould
ç¨³ å®ļ
çĪ ¶
éĽ ·
åŁ¹ åħ»
åĨ³ å®ļ
t al
åĬª åĬĽ
ç¾İ åħĥ
éĿ ł
E r
our ce
é ½
ä¿Ŀ éļľ
è° ¢
èĤ ¤
å¤ ®
Ġ @
èĹ ı
ä¸¤ ä¸ª
çĨ Ł
è ĸ
é¢Ĩ å¯¼
åº Ĭ
åıª æľī
åĮ» çĸĹ
èĩª åĬ¨
Ġd et
a ult
è® ¿
t ing
ä¸ ½
4 5
ic es
å¡ ĳ
æ£Ģ æµĭ
ä¸Ģ ç§į
æĹł æ³ķ
Ġc re
ce pt
éĹ »
çİ ©
Ġc o
åĪ ĺ
è¡¨ çİ°
E R
Ġof f
at or
Ġ 200
æ² Ļ
èĦ ±
I N
æ ¾
æķĻ å¸Ī
Ġa c
åĢ Ł
éĶ ®
ĠC on
et s
åŁ¹ è®Ń
ç¬ Ķ
ire ct
ä½ĵ èĤ²
ä¿ĥ è¿Ľ
n ce
Ġm ake
åĪ ļ
æī§ è¡Į
Ġm in
ĠN one
' )
Ġ= >
å¸ ģ
i ous
() ;
çĲĥ éĺŁ
ä¸į è¿ĩ
Ġn ame
å° ¤
Ġ >
ç»ı è¿ĩ
} }
Ġp ol
h at
Ġin f
ect ion
as h
e qu
ĊĊ Ċ
åĳĺ å·¥
å¹´ æĿ¥
ä¸¥ éĩį
f n
å½ Ĵ
è´ ¸
æ¡ ¥
æĢ§ èĥ½
er n
Ġc or
é¡ ¾
iel d
åıĺ åĮĸ
ãĢĭ ï¼Į
çŁ ¿
ç«ŀ äºī
t imes
æĺ¯ä¸Ģ ç§į
å² Ľ
ĠâĢ ĵ
a z
éĴ ±
as es
åĵ Ī
ä¸° å¯Į
æĳ Ħ
é¡ ¶
Ġfol low
çĶ °
ĠW e
ar n
S T
æ³¨ åĨĮ
æ¸ Ĳ
ç»Ĩ èĥŀ
æ± ł
éŁ³ ä¹Ĳ
å¡ Ķ
Ġkn ow
è¯ Ĭ
åħ· ä½ĵ
¤ Ĳ
äº ®
æľ ĭ
æĭ į
ĠH e
} )
è¯¾ ç¨ĭ
åıĹ åĪ°
Ġ= =
å® Ĺ
è¿ Ŀ
å¹¿ æ³Ľ
åĨľ ä¸ļ
èµĽ åŃ£
ĠI f
å®ŀ éªĮ
y n
ĊĠĠĠĠ ĠĠ
æ¶ ī
æħ ¢
form ation
åİ ħ
å¹¶ ä¸Ķ
Ġb oth
æĽ ¼
åĿļ æĮģ
[ '
æŀ ¶
ä¼ĺ ç§Ģ
åĬ³ åĬ¨
äº¤ æµģ
Ã ©
ç¤ ¼
çĶŁ æĢģ
re nt
() ,
æĪĲ æľ¬
w n
t y
åıĬ æĹ¶
oug h
ere d
åĬł å·¥
è¯ º
æİ¥ åıĹ
è®¾ æĸ½
Ġp ers
! (
éľ ²
æĪĺ çķ¥
Ġpro ble
è· Ŀ
Ġ1 8
ä¸Ģ æł·
Ġc ent
æĪĳ çļĦ
s on
èĻ ĳ
äºĭ ä¸ļ
Ġl ist
Ġ 20
è® ¨
Ġst ate
ä¸Ģ æ¬¡
è¯ ļ
ç¢ ³
æİ¨ è¿Ľ
Ġus ing
é¦Ļ æ¸¯
æł¸ å¿ĥ
if e
Ġin st
å· ¨
èĤ ī
ol d
3 3
o y
éĻ¤ äºĨ
an c
g an
èģĶ åĲĪ
çĻ £
çĽ Ł
id es
Ġg iven
æķħ äºĭ
æķ° åŃĹ
Ġw ater
ant s
< /
å· Ŀ
è ¸
Ġg r
s p
åį« çĶŁ
Ġf l
Ġfun ction
çĩ ĥ
con t
Ġhel p
æĸ½ å·¥
Ġs ur
æķ ĳ
al ity
e ver
å¿« éĢŁ
Ġin v
æĺ¯ åĲ¦
è§ ¦
ç´ ¯
èµĦ éĩĳ
è¯ į
èı Į
çīĽ çļ®
e v
éĺ¶ æ®µ
i ence
l ed
æ³ °
æŃ£ åľ¨
ç ¦ģ
u de
res ent
çĤ İ
çĽ ĺ
çļĦ é«ĺ
é ¹
æ¢ ¦
ad d
201 7
ut h
æ£Ģ æŁ¥
er g
ä½į äºİ
åĪ ¸
al se
åįı ä¼ļ
ot her
ä¼ ĳ
éĩ Ĭ
ä¸ Ŀ
iv es
æĶ¹ éĿ©
åĪ¶ åº¦
è ª
a ir
è· µ
Ġc all
çİ° åľº
æľĭ åıĭ
Ġj it
Ġ her
åĲ Ĺ
Ġyear s
oc i
å° ļ
r ite
w w
alc ul
èĻ ļ
é ¤Ĳ
r on
çīĽçļ® çĻ£
åĽł ç´ł
å° ģ
$ $
éĿ Ļ
Ġm ust
çĲĥ åĳĺ
Ġg o
åĮĸ åŃ¦
æ¯ķ ä¸ļ
åĮº åŁŁ
3 6
åĲĪ åĲĮ
Ġc he
åªĴ ä½ĵ
åıĳå±ķ çļĦ
od y
å¹´ åº¦
Ġc ount
Ġ ed
Ġg ener
c ent
éŁ ©
çľĭ åĪ°
åİ ļ
çļ® èĤ¤
èĢĥ è¯ķ
ĠC om
æĪĲ ç»©
ä¼ °
c ol
' ]
æľº åħ³
Ġa fter
e ad
æĿ¥ èĩª
æ±¡ æŁĵ
b ers
æĺ¯ åľ¨
Er ror
åħ³ æ³¨
Ġto tal
Th is
ĠF or
il y
çĸ ĳ
Ġbec ause
æ¦ Ĥ
iz ed
æĪ ª
el se
Ġs ame
èĭ ¦
Ġr ight
ä¼ ¦
Ġ z
b y
ech n
å±ŀ äºİ
ä¸į è¦ģ
ç¡ ¬
Ġw ell
å¡ ŀ
æĵį ä½ľ
è¶ £
p i
b r
00 00
Ġh igh
æīį èĥ½
å½¢ å¼ı
ä¸ĭ éĻį
ç Ĵ
ï¼ī ãĢģ
å®¶ åºŃ
re qu
äºĴ èģĶç½ĳ
Ġs k
èĥ ¶
æľº ä¼ļ
è ľ
Ġdiffere nt
éĻ Ĩ
æľī çļĦ
æĺ ł
ur al
Ġ #
Ġpro cess
èģ ĺ
åħ¬ åħ±
çŃ Ķ
å¯ »
å¤ ľ
}$ .
Ġl arg
d d
åł Ĥ
æ· ·
m in
Ġdo es
çĽ Ľ
æ´ ģ
Ġre f
Ġin cre
åķĨ ä¸ļ
ow s
3 1
ul l
å§Ķåĳĺ ä¼ļ
ä¿Ŀ è¯ģ
æĥ ł
æĢ Ģ
ur rent
s l
æİª æĸ½
è¾ Ĩ
è¿Ļ éĩĮ
eng th
Ġf ound
201 6
åĨ ¬
ä¸Ń åįİ
åį Ī
è®° èĢħ
åħ¶ å®ŀ
f un
åĲ ī
åı ¥
å³ °
å»º è®®
æŃ£ å¼ı
Ġc ould
ä¼ ´
çī© è´¨
f e
çĹ Ľ
æ± ĩ
Ġs he
åĪ¶ ä½ľ
à ½
èĪ ¹
è°ĥ æķ´
() .
è Ķ
Ġ end
ä¸į åı¯
åĬ ±
æļ ĸ
èµ· æĿ¥
æŃ¤ å¤ĸ
** :
R E
çī Ļ
Ġb r
éª ¨
é£İ éĻ©
Ġs ign
ç®Ģ åįķ
é² ľ
è§ Ī
Ġs u
äº ¦
åħ³ éĶ®
Ġ ent
åĲ ¨
è¿Ĳ è¡Į
æĺ¯ ä¸Ģä¸ª
al e
ir on
çļĦ æĸ°
i er
çĥ Ī
Ġv ari
æ¹ ¾
ç¯ ĩ
Ġf act
t s
p end
Ġev en
æĮĩ å¯¼
ä¹ĭ åīį
éķ¿ æľŁ
åĩº äºĨ
g ram
ain s
im pl
Ġre ad
it ions
ual ly
èµĦ æĸĻ
Ġm od
Ġse e
æĸĩ ä»¶
çĸ« æĥħ
Ġp at
çİ¯ ä¿Ŀ
s w
Ġcl ass
æ´ ¾
Ġm ed
çĥ Ł
éĩı çļĦ
Ġl oc
.. .
ch ool
å® ľ
ç§ Ł
çģ ¯
Ġt ri
æ»¡ è¶³
è¿Ĳ èĲ¥
it ed
åĪ º
ical ly
èĲ ¨
å² Ĺ
m a
æĹ ¢
7 5
æĭ Ł
æľ «
w ard
ç¼ ©
çº ¸
Ġstud ents
æĸ Ĺ
éĻį ä½İ
å¸¦ æĿ¥
ç® ±
Ġhe alth
æĿ Ģ
ç¡® å®ļ
å®Į åħ¨
æľĢ ç»Ī
A C
ç¬¦ åĲĪ
ä¸į å¾Ĺ
cl ass
åĪĽ éĢł
è¿ ª
åıĳ æĮ¥
ç§ ģ
åİĭ åĬĽ
æĸ¹ åĲĳ
è´ ¥
è ļ
olog y
èµĦ æł¼
ç¨ĭ åºı
èĪ ŀ
çĶŁ åĳ½
ä½ł çļĦ
å°ı æĹ¶
an y
pr int
ä¸¾ åĬŀ
éģ¿ åħį
æĢĿ æĥ³
is m
Ġincl ud
åľ Ĩ
éĽ Ħ
± ä¹Ĳ
Ġpos s
èĦ ļ
8 8
ä»» åĬ¡
Ġex per
Ġre t
ä¸Ń å¤®
id er
åģļ å¥½
ä¸įåĲĮ çļĦ
æ» ĳ
as k
åĸľ æ¬¢
ä¹Ł æľī
æľ Ŀ
Ġt ype
Ġequ ation
æ´ Ľ
ç½ ļ
Ġb el
çĦ¶ åĲİ
åħĪ è¿Ľ
ãĢģ âĢľ
éļ Ķ
ak ing
Ġm ethod
åħħ åĪĨ
æķĻ æİĪ
çĬ¶ æĢģ
ĠR es
è· ¨
æĮ ĳ
Ġe very
um ent
ä¸» é¢ĺ
ot s
å ´
ä»Ĭ å¤©
èİ ±
çī¹ èī²
èµĦ äº§
Ġst art
éĢ Ķ
é«ĺ çļĦ
Ġl ine
å¹ ¸
è¶Ĭ æĿ¥
Ġle t
s in
çĲĨ è®º
Ġl ong
å·¥ èīº
Ġs er
ä»İ èĢĮ
èĽ ĭ
èĦ Ĥ
M E
è¶ĬæĿ¥ è¶Ĭ
et y
æħ §
ain ing
èª ī
èĤ¡ ä»½
il es
åĳ Ī
æĿ Ł
å¹ ķ
åĴ ¨
ar m
3 4
Ċ ĉ
arg s
ç ĺ
çī© æµģ
å®ŀ è·µ
åĦ¿ ç«¥
Ġm on
èĨ ľ
æģ ©
Ġcon d
Ġdis c
ter s
è´ ¡
at ic
æĶ¹ åıĺ
ä»İ äºĭ
éĩįè¦ģ çļĦ
ãĢĤ âĢľ
19 9
å© ļ
Ġsec ond
è½¯ ä»¶
n ess
Ġbe ing
ç»Ħ æĪĲ
b in
æīĵ éĢł
è¿ĩ åİ»
åĲ §
ot e
éĩĳ å±ŀ
er y
è¿ ·
è¯ ¯
pon se
ĠT r
æĺİ æĺ¾
im port
3 8
çĶµ è§Ĩ
it er
æĢİ ä¹Ī
åĩº çļĦ
Ġb o
ĠA n
A S
äºº ç±»
æ´ ĭ
å± ĭ
éĩ İ
è¯Ń è¨Ģ
å¼Ģ æĶ¾
ç¨ĭ åº¦
Ġw ay
åĴ¨ è¯¢
åį ĸ
æ¡ £
ç»¿ èī²
èĢģ å¸Ī
çĽ® çļĦ
å± ĳ
d ate
and s
é ±
åĬŀ åħ¬
æĦı è§ģ
Ġm odel
ire d
os s
Ġre se
ç© ¿
Ġb ack
== ==
ç³ ĸ
çļĦ éĩįè¦ģ
Ġin formation
è§Ħ èĮĥ
æ¶ Ĥ
çĬ ¯
çļĦ äºĭ
é½ Ĳ
__ __
i k
ä¸Ĭ å¸Ĥ
Ġj ust
éĺ µ
Ġa v
c ri
å®£ ä¼ł
é± ¼
å®ī è£ħ
ä¼ Ĭ
å½ĵ åľ°
çļĦ å·¥ä½ľ
rap h
éĥ½ æľī
Ġsm all
ç½ ª
åŁº åľ°
çħ ¤
am es
è´ ´
å®Į åĸĦ
çļ ĩ
ĠH ow
çī¹ çĤ¹
Ġs um
æĳ ĺ
Ġ er
å§ Ĩ
åįģ åĪĨ
at t
çĵ ¦
Ġc ar
æĪĲ æŀľ
èģĶ ç³»
éĩį å¤§
ar row
ress ion
Ġe ffect
ä¹ Ļ
å¼ķ èµ·
ç½ ²
ç¼ ĵ
åĮĸ çļĦ
em ent
Ġs erv
v iew
## #
ĊĠĠĠĠĠĠĠĠĠĠĠĠĠĠĠĠ ĠĠĠĠĠĠĠĠĠĠĠĠĠĠĠĠ
æ¯ Ľ
åĮ» åŃ¦
åĿ Ĳ
åı «
éĽ ª
åĨł åĨĽ
v iron
Ġchild ren
å°± ä¼ļ
r ay
A T
) $
e e
Ġ :
Ġ1 2
ä¸¾ è¡Į
èĢĥ èĻĳ
st it
èĲ½ å®ŀ
p y
he s
ç¡® ä¿Ŀ
201 5
en se
ubl ic
Ġwor ld
æĿ ¨
5 00
el s
t a
ĠS ome
4 8
if ied
c ed
ç¿ »
éĽ ħ
m e
æķ´ ä½ĵ
E x
å® ½
ä¸ª æľĪ
w are
pl es
æİ Į
3 7
at her
Ġa rt
ent ial
æ® Ĭ
6 6
æķ´ ä¸ª
æŃ£ å¸¸
é² ģ
Ġe ar
" .
Ġ u
( \
å¹³ æĸ¹
è¿Ĳ è¾ĵ
æĿ °
Ġex t
Ġv is
åŃ Ķ
çĻ» è®°
æĦı ä¹ī
å½ĵ æĹ¶
åĩº åı£
å¸ Ŀ
æĺİ ç¡®
: **
å¹¶ ä¸į
æĿ¥ çľĭ
æĻ® éĢļ
çĦ ¦
åĢ į
çĹĩ çĬ¶
æı ¡
č ĊĠĠĠĠ
èĵ Ŀ
è°ĥ æŁ¥
æº ¶
5 5
æīĭ æľº
æ¸© åº¦
èĢ ³
åĢ º
æī ¬
çļĦ æĥħåĨµ
Ġ .
å® «
i vers
lo ad
I D
æ¾ ³
çļĦ éĹ®é¢ĺ
mer ic
Ġc r
an k
Ġsup port
ç§ ĭ
R es
ä¾Ľ åºĶ
Ġre p
æģ ¶
å¿ĥ çĲĨ
Ġd iv
ç§ĳ çłĶ
Ġpers on
å°¤ åħ¶
éĺ »
åĨ °
ĠĠ Ċ
f ore
æ¢ ħ
æµ Ļ
å·¦ åı³
ç§ ĺ
at us
it ive
é¡ ¿
A R
èĳ £
Ġm y
åľ Ī
çĲĨ å¿µ
" ]
éĢļ çŁ¥
Ġm ain
çĥ §
åľ ³
Ġpart ic
L E
n er
Ġare a
T o
Ġg roup
Ġ\ ]
çİ »
èģĶ èµĽ
æ¶ ¨
æ·± åľ³
è¡Į åĬ¨
3 9
Ġ very
è´ ·
Ġm ut
ä½ĵ éªĮ
W e
åıª æĺ¯
Ġle ad
éĺ ħ
å¾ Ħ
çĦ¶ èĢĮ
ä¸» ä»»
Ġt echn
æµĭ è¯ķ
P ro
å¤ļ ä¸ª
Ġd own
Ġo wn
æ°§ åĮĸ
Ġcomm on
åĶ ±
æ°ĳ æĹı
b l
è´¡ çĮ®
é¾ Ħ
åħ· å¤ĩ
éĤ ®
ol v
ä¹ Į
è ¦
åĲİ çļĦ
c os
å±± ä¸ľ
ver t
Ã ¤
æ³ ¡
ĠA l
æ² ī
ĠA r
f o
. âĢĿ
åĿ ı
æĬ¥ åĲį
Ġm uch
æ¹ ¿
å®ĥ ä»¬
æ´ ¥
å¥ ĭ
è´ Ŀ
Ġint eg
é£Ł çī©
è° ·
Ġc irc
ç»Ł è®¡
m et
åĭ ĩ
ç»´ æĬ¤
ç»ı å¸¸
çĴ ĥ
ç¤¾ åĮº
åħ¬ éĩĮ
æľº åĻ¨
è£ ģ
ç¬ ĳ
æĮ ¯
ç©º æ°Ķ
åı¦ å¤ĸ
ak es
ab ility
Ġth ree
éĢŁ åº¦
åħ¬ å¸ĥ
Ġsa id
çģ ¾
åĲĪ çĲĨ
com m
Ġm et
çĪ Ĩ
ä¹ ĺ
èĴ Ļ
Ġh um
æ ĩ
Ġ }
æķĪ çİĩ
Ġf ile
ĠC l
éĴĪ å¯¹
çİ ī
Ġimport ant
Ġpro per
å¹¿ ä¸ľ
éĥ½ ä¼ļ
åĢ Ĵ
Ġp ass
éķ ľ
åĳ ¼
Ġap pro
æµ ĵ
èµ ¢
l ist
é¢Ĩ åħĪ
N A
ou se
Ġ\ ).
w ork
æĦı è¯Ĩ
he re
è¦ Ĩ
é¼ ĵ
S tr
. _
èī¯ å¥½çļĦ
lo b
åĪĽ ä¸ļ
å¹¿ å·ŀ
ri v
ä½ĵ çļĦ
èĢ Ĺ
åģ ı
è¶ ĭ
åĬĽ çļĦ
èĩª èº«
ĠThe y
Ġ %
çĳ ŀ
æĹ §
Ġt er
æĭ ĵ
å¤ º
ï¼ İ
çľŁ æŃ£
ä¸į å°ĳ
çİ» çĴĥ
ith ub
ĠE x
åķĨ åĵģ
åĩĨ å¤ĩ
æľ¬ æĸĩ
æľº åĪ¶
åĪ Ĭ
çº ·
m d
o f
çĽĳ çĿ£
çĲĨ è§£
Ġf am
p ly
åĵģ è´¨
T r
æĬ¥ éģĵ
å¦Ĥ æŃ¤
Ġm em
Ġ key
åĬŀ æ³ķ
éļ Ĳ
è´ ¯
m an
çĶŁ çļĦ
Ġ1 5
d ir
} }{
I T
4 4
æĮĩ åĩº
Ġth ose
i qu
Ġcomm un
è¡¨ éĿ¢
å½ »
æ·± åħ¥
éĵ Ŀ
viron ment
Ġproble m
æ½ ľ
è§Ĩ é¢ĳ
åıį åºĶ
ä¾ĭ å¦Ĥ
æĻº æħ§
ur s
æ¯Ķ å¦Ĥ
st and
åĬł åħ¥
æĬ ĵ
Ġs om
è¿Ļæł· çļĦ
æľī ä¸Ģ
e y
å¦ Ī
6 5
è´ «
æĤ ī
éĿ¢ å¯¹
ĠA meric
ç¼ ĺ
è¡ £
ï ½
o h
æ¬§ æ´²
åĪ© æ¶¦
çĻ Į
åı ¬
Ġbe fore
èĭ± åĽ½
è´¹ çĶ¨
ä¾ §
it t
ä»ĸä»¬ çļĦ
Ð ¾
n ot
èį¯ çī©
d oc
C om
A B
åħ¨ éĥ¨
a it
Ġle vel
èĤ ¥
Ġin s
å¼ ±
enc y
åĵ ¥
çº ¯
Ġprodu ct
æ¶Īè´¹ èĢħ
æ½ ®
å¾ ª
ä¸ĸ çºª
ä¿ Ħ
g ithub
æ² ¿
ä¸ ¹
è¾ ĳ
è¯ ¦
Ġc ap
g er
Ġl ife
l and
ä¸» ä¹ī
Ġd uring
é¦ĸ åħĪ
d ay
åįļ å£«
æµ ª
ä¼ Ł
h ip
C l
Ġ X
Ġl ess
Ġ _
è¡ ¡
o in
æĲ Ń
u le
æ² Ł
are d
æİĴ åĲį
Ġ Q
æĹł è®º
ĠA s
Ġd irect
æĸ ĳ
æ¬¢ è¿İ
åĭ Ĵ
m l
åĩ Ŀ
ç ¹
iz ation
è¿ŀ ç»Ń
re ct
w ith
ä¼ ¯
ä¼ Ļ
åĬĽ éĩı
å¤ļ ç§į
) ]
åĽ° éļ¾
æŃ¤ æ¬¡
over n
æĹ Ĺ
Ġ est
åİ» å¹´
åĪ¶ å®ļ
Ġs l
at s
ar ning
in put
str ing
Ġ- -
Ġn ow
. ,
le q
! [
ç¹ ģ
åĿ Ģ
n um
m od
c irc
8 5
ç¬¬ åĽĽ
ä¹Ł ä¸į
èĤ ł
åĬ¨ åĬĽ
Ġstr uct
Ġl ook
æķ ı
ou n
O R
ä¸ ģ
) ^
åĪĽ ä½ľ
çĶµ æ±ł
Ġ\ \
I S
Ġr un
Ġ ident
æĬĢ èĥ½
ag s
Ġs qu
æ¦ ľ
å¼ ĥ
éĢļ å¸¸
ç¾¤ ä¼Ĺ
éĵ¶ å±ĳ
èħ Ĳ
ĠS c
âĢĿ ãĢģâĢľ
æı ı
å¤ļ çļĦ
æĪĲ åĳĺ
t on
èİ «
åŃ¦ ç§ĳ
w rap
us er
éĵ¶å±ĳ çĹħ
éģ į
Ġf ood
åľŁ åľ°
é¢Ħ è®¡
å¤§ åĪ©
Ġpl an
m at
æ¤į çī©
ç£ ¨
us s
èĩª çĶ±
åĶ Ĳ
æĹ¥ å¸¸
b e
Ġbu ild
Ġm ade
æģ Ĵ
Ġex ample
ect ed
åŃ Ļ
ff ic
æĶ¹ åĸĦ
ä¹Ł ä¼ļ
å® ĩ
è¯ ĳ
a j
éĿĴ å¹´
çī¹ æ®Ĭ
æķ° éĩı
4 9
æģ ¢
Ġan sw
çļĦ æľĢ
r al
f l
æ¼ «
è¾ ħ
ro ss
æ¶ī åıĬ
Ġor ig
ä¸Ģ ä¸ĭ
éĢĤ åĲĪ
D E
Ġwh ile
æĶ¿ æ²»
| |
åĨħ çļĦ
å¢ Ļ
Ġ1 6
Ġs pe
åħ ¼
å¹³ åĿĩ
æµĻ æ±Ł
æ¶Ī æģ¯
Ġt yp
é© ¶
åŃ¦ æľ¯
Ġt ake
Ġ __
Ġ çļĦ
par am
é¢ ľ
Ġm ult
åĲ ´
t es
Ġ ke
åĨį æ¬¡
ä¸¥ æł¼
Ġob ject
201 4
ä¿Ŀ éĻ©
Ġg ood
åį ·
ç±» åŀĭ
ä¸º ä¸»
æľī äºĽ
æľ¬ æ¬¡
202 3
æ® ĭ
ç»Ł ä¸Ģ
s ize
è´¸ æĺĵ
è¯ģ æĺİ
Ġd ay
æĦŁ æŁĵ
å¢ ¨
æı ´
en ing
ro l
Ġo cc
Ġc ost
å¢ŀ å¼º
ç¬¬ åįģ
ion al
å®ī æİĴ
l ab
arg et
åĶ ¯
å¾· åĽ½
) ï¼Į
Ġg row
Ġr is
A N
æĸ° éĹ»
å¤§ åŀĭ
ç» ķ
ap e
ĊĊ ĠĠĠ
Ġs chool
çļĦ è¯Ŀ
4 7
Ġ$ (
ang u
éħĴ åºĹ
' t
ç»ı åİĨ
ç»ı çĲĨ
æĥ Ĭ
åĪĨ ä¸º
m ap
qu ad
æĽ ¿
rib ut
t ime
i or
Ġag ain
ç¥ ĸ
b u
æĬ ĺ
o id
è· ĳ
æĹ¶ æľŁ
å± ı
åıª è¦ģ
8 6
åĨ³ èµĽ
Ġpro ject
ç ŀ
éĽĨ ä¸Ń
}$ ,
éľ ĩ
ra w
ol s
Ġc le
Ġact iv
è§ī å¾Ĺ
è¯´ æĺİ
çĽ¸ å¯¹
ĠS p
æĪĲ éķ¿
å°± ä¸ļ
çª Ĺ
è®¤ è¯Ĩ
è®¤ è¯ģ
st ate
Ġp ower
() )
å±ķ å¼Ģ
æģ¢ å¤į
ç»ĵ æĿŁ
æ³ ¥
åĨľ æĿĳ
ph a
éĩĩ åıĸ
æĦŁ è§ī
Ġof ten
č ĊĠĠĠĠĠĠĠĠ
ä»į çĦ¶
ĠI nd
in it
è¯ģ åĪ¸
ç§° ä¸º
åĲĦ ç±»
om en
Ġw rit
æĬķ åħ¥
å¯ ¿
c ount
çŃ ¹
åĩº çīĪ
S E
ç² Ĵ
ä¸ĭ çļĦ
Ġd r
ro p
åĺ ī
Ġm at
ä¼ĺ è´¨
w ays
vers ion
Ġt em
æ¯ı ä¸ª
w ord
ä¼ģä¸ļ çļĦ
C E
erg y
èĲ¥ åħ»
Ġr ange
é«ĺ æł¡
g r
æĮĳ æĪĺ
ĠY ou
ä¸ľ è¥¿
åĬ¨ çī©
Ġposs ible
Ġval ues
Ġch ange
æİ ī
åº Ħ
n et
èĻ «
Ġpro gram
èµ ı
20 00
è¿ ħ
Ġar g
èĬĤ èĥ½
ac ter
Ġp op
is hed
b ug
âĢ ĺ
ä¹¦ è®°
åķĨ æłĩ
éĶ ħ
çļĦ å½±åĵį
å¤§ å¤ļ
Ġ et
é© ¾
èĤ ¯
å·¥ åħ·
ä½į ç½®
us h
m odel
-------- --------
Ġor gan
Ġpro t
form at
right arrow
__ (
æ¢ ģ
åİŁ åĪĻ
im um
çĽ Ĳ
Ġstud y
C O
çĽ¸ ä¿¡
r ation
æļ ´
å¦ ĩ
è´Ń ä¹°
å®ĥ çļĦ
ç« Ł
y stem
Ġnum bers
çĽ¸ å½ĵ
id ed
çļĦ å°ı
ä¾Ŀ æ³ķ
" >
åĪ ·
éĶ ĭ
æľ Ĺ
Ġex pl
re g
æī¿ æĭħ
Ġh ist
Ġ ì
çĶµ è¯Ŀ
åħ¬åı¸ çļĦ
åıĮ æĸ¹
con fig
å½ĵ çĦ¶
l en
è´ ¦
åĩ Ń
Ġan al
Ã ¶
å¡ «
Ġqu est
it al
e q
åĵª äºĽ
å¹´ è½»
ï¼Į ãĢĬ
æ±Ł èĭı
ind ex
å°Ĩ åľ¨
Ġa round
æľī æīĢ
Ġe le
éĹ Ń
F or
åĮĸ å·¥
C h
un wrap
us ion
Ġn on
re am
ä¸ĸçķĮ æĿ¯
å±ķ ç¤º
Ġc alcul
åĬł å¿«
A P
f il
æĳĺ è¦ģ
äº ¡
æł· çļĦ
æľī æľº
åįĩ çº§
Ġre port
Ġg re
åħ¬ åĳĬ
ãĢģ ãĢĬ
å «
s erv
9 5
ere st
Ġl ength
éĢĲ æ¸Ĳ
è¿Ľè¡Į äºĨ
åĩ ¡
è¿ Ķ
l oc
Ċĉĉ ĉ
è± ª
oc ial
å²Ĺ ä½į
è´¢ æĶ¿
Ġpl ay
Ġg u
Ġh and
éĢ Ĵ
are nt
æİ¨ å¹¿
çªģ çł´
u x
a h
æ´ ŀ
Ġl og
ä¸Ģ å¹´
Ġ ec
èĳ£ äºĭ
åŃ£ åº¦
å·¥ä½ľ çļĦ
å¹³æĸ¹ ç±³
æĳ ©
è° ĵ
y m
é¸ ¡
iv ely
âĢ ĵ
æ³ķ éĻ¢
The refore
Ġ3 0
æ ©
6 7
èŀį åĲĪ
ĠN ew
æĬ ¢
ç¥ Ŀ
D ata
ĊĠĠĠĠĠĠĠĠĠĠĠĠĠĠĠĠĠĠĠĠĠĠĠĠ ĠĠĠĠ
æķ ¬
ess age
æĸĩ æĺİ
åĲĮ åŃ¦
æĸ¹ ä¾¿
è·Ŀ ç¦»
åĪĨ åŃĲ
l i
è± Ĩ
a us
= '
æĶ¯ ä»ĺ
åħ¬ è·¯
æľĢ é«ĺ
ĠS elf
ç§» åĬ¨
é«ĺ éĢŁ
éģĵ è·¯
Ġwith in
in ed
Ġl o
Ġc urrent
our ces
èĭ Ĺ
å¤§ ä¼ļ
æĸ¹éĿ¢ çļĦ
çĽ¸ æ¯Ķ
å¤§ éĩı
éĥ ĳ
å° Ĭ
Ġwith out
è¯Ħ ä¼°
åŀ ĥ
è¿ ¹
åľ ¾
ä» ģ
m ed
åŀĥ åľ¾
Ġret urn
äº§åĵģ çļĦ
ri es
èµĦ æľ¬
è½ ´
äº¿ ç¾İåħĥ
è¯ ¸
å¹¿ åĳĬ
Ġhe ad
åĩº æĿ¥
is ion
Ġsy m
åı¯èĥ½ ä¼ļ
æ· »
ord ing
å¤į æĿĤ
ain ed
Ġdes ign
äºĮ åįģ
æ° ı
on om
éŁ© åĽ½
é© ±
éĺ ´
æĥ³ è¦ģ
Ġbe h
åįı è®®
éĩį è§Ĩ
ol ution
å¯ Ĵ
èĥ ĥ
am ples
æ¥ ļ
æļ Ĥ
Ġch ang
am p
w ay
] )
ç¢ į
å¿ħ è¦ģ
le x
che s
åı¦ ä¸Ģ
æĬ ½
Ġre al
i um
str uct
Ġsh ow
ere nce
Ġo per
éģ Ń
ä¸º ä»Ģä¹Ī
f ace
Ġansw er
èĢħ çļĦ
o le
ater ial
ul ation
åľ° äº§
æĬ µ
ãĢ Ĳ
å¿ ĺ
çĶ¨ çļĦ
Ġs ide
åĢ¼ å¾Ĺ
åıĬ åħ¶
åĩ ¯
Ġw ant
Ġc are
ple ment
èĴ Ĥ
over rightarrow
åħ¬ åĽŃ
Ġ\ ),
ivers ity
åľ¨ çº¿
f lo
Ġ es
Ġcomp let
ãĢ ĳ
â Ħ
ç¡ ķ
201 0
èĢĮ æĺ¯
Ġt reat
c ode
4 6
è®¡ç®Ĺ æľº
çİ° è±¡
Ġfollow ing
æ¯ı å¤©
ä¸» ç®¡
åıĳ è¡¨
} ;
I t
s ub
æī© å¤§
åĲ¸ å¼ķ
ex p
ate g
æ¯ «
äºº åı£
åħ µ
her s
èµ ŀ
ç» ª
é» ĺ
çĭ¬ ç«ĭ
é¥ Ń
im ate
çļĦ æĹ¶éĹ´
3 00
at ely
7 7
å±ħ æ°ĳ
æī ¶
Ġan g
0 1
å¤ª éĺ³
å¤Ħ äºİ
as on
ic ro
Ġb ody
uth or
åĪĨ äº«
cc ess
ä¹ ±
éĨ Ĵ
æ¯ı å¹´
è®¾ ç½®
ä¼ į
ï½ ŀ
id s
ä»¤ äºº
æ²³ åįĹ
éĤ Ģ
Ġkn own
çŁ¥ åĲį
åĲĦ åľ°
æ³ ī
å° ĺ
Ġc our
éº ¦
åģļ åĪ°
èĤ ¿
op y
k en
åħļ åĳĺ
èº« ä»½
b f
Ġre du
Ġrese arch
plic ation
ç£ ģ
æľĢ å¤§çļĦ
æĹ ¦
æĥ ¯
ä¸ī ä¸ª
äºº å£«
åĸ Ŀ
è° ģ
åľº æ¯ĶèµĽ
ä¸ĵ åĪ©
ä¾ µ
èĽĭ çĻ½
ĠT o
ä¸į åĪ°
al pha
å¹¿ å¤§
éĩį æĸ°
ä¹Ł åı¯ä»¥
Ġe lect
çĽĳ æµĭ
Ġt erm
ä¹ĭéĹ´ çļĦ
æ¯Ķ ä¾ĭ
åģ ¿
Ġd on
et er
æŀĦ å»º
A n
éĤ£ äºĽ
i od
Ġle ft
Ġ1 00
æ³ķ åĽ½
Ġg overn
u ro
Ġim p
æĻ ¶
åŃ¦ ä¼ļ
Ġd em
ç² ®
Ġh tt
Ġd id
æī¾ åĪ°
çı į
åĿ Ľ
æ³ ½
è¶ĭ åĬ¿
Ġcont in
Ġen vironment
Ġpoint s
è¯ģ ä¹¦
è§Ĥ ä¼Ĺ
res ult
åĨħ éĥ¨
¡ èĲ
Ġin it
æŁ ±
éļ Ĩ
> ,
æľĪ ä»½
çļĦ æĸ¹å¼ı
éĢĤ åºĶ
äºĭ ä»¶
Ġc ell
è¯Ħ ä»·
æľ¬ ç§ĳ
Ġ Ð
iv id
åĪ ĳ
act ion
åĬŀ çĲĨ
ãĢĭ ï¼Ī
Ġh im
é«ĺ åº¦
é¢Ħ éĺ²
Ġinclud ing
èĪª ç©º
I f
èį Ĳ
em s
æ± ¤
æľī çĿĢ
åĿ ¡
ä¸ĭ æĿ¥
è¦Ĩ çĽĸ
Ġcall ed
å± ¥
Ġcre ate
Ġcon st
Ġunder stand
ä¸´ åºĬ
é ī
éī ´
è®¤ çľŁ
è¡¨ è¾¾
çº ¤
8 9
æĪª èĩ³
çĶµ åĬĽ
T ype
201 2
åŁ ĥ
æĢ ķ
è®° å½ķ
ä¿ Ĺ
{ (
l er
çĹħ æ¯Ĵ
åĲĮæ¯Ķ å¢ŀéķ¿
int o
åŁº äºİ
æĭ ľ
å®ŀéªĮ å®¤
ä¼ĺ åĮĸ
Ġe as
Ġd ig
å§ ĵ
o x
é¥® é£Ł
æ¶ µ
è¶³ çĲĥ
åıª èĥ½
201 3
å¦Ĥ ä»Ĭ
è®Ń ç»ĥ
çĽĳ ç®¡
çĶ ĺ
Ġlarg e
è¯ķ éªĮ
åħĪ çĶŁ
æĻ ĭ
äºĨ ä¸Ģä¸ª
äºº å·¥
Ġde v
å¿ Ĩ
è´· æ¬¾
Ġl ast
æĺ¯ ä»Ģä¹Ī
c er
è½¦ è¾Ĩ
çļĦ ä¸»è¦ģ
. "
æĭħ ä»»
åħį è´¹
ition al
å¸¸ è§ģ
Ġ Z
æĦ Ī
Ġh our
Ġp ublic
å¹ ¼
Ġdet erm
èĲ¥ ä¸ļ
åĮ» çĶŁ
æľĢ å¤§
Ġb re
æİ¢ ç´¢
-- -
Ġf r
âĦ ĥ
ail able
çĽ¸ åºĶ
T est
èĦ ī
pl ay
æĮ Ĥ
å¹´ ä»£
æľī äºº
m ax
èį ·
è¾ Ľ
ç®Ģ ç§°
çı ł
æİ¨ åĩº
åĮ» èį¯
um e
è¿ ģ
angu age
æĢ§ åĴĮ
Ġl ab
Ġb ook
çļĦ ä¼ģä¸ļ
[ "
1 000
å°½ ç®¡
ur l
çļĦ äº§åĵģ
as ter
v en
ĠP l
% ï¼Ľ
Ġam ount
å² ¸
å· §
Ġf our
Ġhum an
âĢ¦ âĢ¦
Ġm ax
çļĦ æ²»çĸĹ
N one
Ġme ans
ä½ı æĪ¿
ç½Ĺ æĸ¯
al k
ä½ľ èĢħ
Ġm ark
åħ» èĢģ
ug g
ĠA nd
æĭĽ æłĩ
æİ¥ è§¦
Ġg reat
åĽ½ åĬ¡
çĤ ¼
Ġp res
Ġp ot
A L
Ġpro f
âĢĿ âĢľ
or g
Ã ¡
è¿ŀ æİ¥
lo od
ial ly
Ġm ove
in a
m ath
çĥ ¯
8 7
é¦ĸ æ¬¡
å®ŀ åĬĽ
æĪĲ éĥ½
ä¹ĭ å¤ĸ
il ar
æ° ¨
p ass
Ġint erest
è° ±
çĤ ī
ä¿ ±ä¹Ĳ
Ġin c
4 2
çĿ ¡
Ġb as
r c
æľ¬æĸĩ æĳĺè¦ģ
èĪ Ĵ
åıĳ çĶµ
å® ĭ
ä¿±ä¹Ĳ éĥ¨
éº »
èĳĹ åĲį
Ġpl ace
è®º æĸĩ
Ġs ince
re m
æļ Ĺ
åĲĦ é¡¹
éĶ ¦
è®¾ ç«ĭ
éĩį åºĨ
Ð °
è´Łè´£ äºº
Ġo ld
å® ¾
p oint
éĢļ ä¿¡
çİ° å®ŀ
è¿ «
ä¸Ģå®ļ è¦ģ
Ġpro b
Ġis s
æľī äºĨ
æĹ ¨
Ġter ms
Ġcon n
æ³ķ è§Ħ
è¿Ľ åı£
åŃ¦ ä½į
ä»¥ åĲİ
A D
Ġp ath
n s
è· Į
ĠA p
æĹ¥ èµ·
ç§ Ĵ
åĳĬ è¯ī
ä¼ł æĴŃ
it le
æľº åľº
w rite
and ard
çļĦ çĶŁæ´»
g en
äººæ°ĳ æĶ¿åºľ
op t
, âĢĿ
æ±¡ æ°´
è¿ĳ æĹ¥
ä¸į è¶³
ä¸Ģ ä½ĵ
å®ĺ æĸ¹
pl oy
çŃī çŃī
åĽ½åĬ¡ éĻ¢
iv ed
é«ĺ æķĪ
å¼ ¹
æĿ Ĩ
fun c
å¾Ģ å¾Ģ
0 5
çĻ¾ åĪĨ
Ġor der
ç¤º èĮĥ
ĠW hat
æĸĩ ç«ł
æĿ¥ æºĲ
l ib
ãĥ ¼
æŃ£ ç¡®
äº« åıĹ
éģ µ
åķĨ åĬ¡
Ġr ad
ä¸Ĭ åįĩ
èĩª ä¸»
éĿ¢ ä¸´
è½ ¨
Ġl a
çĬ¶ åĨµ
ir d
åħĥ ç´ł
Ġst ill
Ġdevelop ment
æ¨ ª
å¥ ¶
ac he
è§£åĨ³ æĸ¹æ¡Ī
Ġen ergy
ĠThe re
Ġl ight
ĠB ut
ĠS h
U R
Ġto p
l ish
7 6
I P
çĭ¬ çī¹
èĢĥ çĶŁ
æī İ
A M
è®© äºº
çĹħ æĥħ
ac es
ä¹ ³
å§ĭ ç»Ī
å½¢ è±¡
Ġch o
5 6
ĠThe se
æľĢ ä½³
è¿ĳ å¹´æĿ¥
éĵ ľ
åĲ¯ åĬ¨
æ· ¡
æį ·
é«ĺ è´¨éĩı
å² ©
çī© çĲĨ
or ies
Ġtr ue
ç± į
ab les
æľ ±
é¡º åĪ©
èĩ´ åĬĽ
åľ¨ ä¸ŃåĽ½
ä¼ ı
Ġt imes
iss ion
èģĮ å·¥
ä¸» æĮģ
it her
E N
Ġ å¹´
åĩł ä¹İ
in c
äºļ æ´²
Ġm ight
åĴĮ åĽ½
Ġp resent
å° ¾
c le
Ġcor rect
æŀĦ æĪĲ
å¾ Ĳ
çļĦ åŁºç¡Ģ
å£ ģ
r ist
op e
ur y
ert ain
å¤© çĦ¶
L et
in ess
æİĴ æĶ¾
å£ ®
id d
i ents
Ġdis e
Ġle arning
ç¼ ´
ut il
æĺ¯ æĮĩ
e k
æī¹ åĩĨ
ä¾Ŀ æį®
Ġl im
åĳĪ çİ°
Ġme as
æĭ Ĵ
çº ½
äº ķ
ç´ «
å®ļ çļĦ
a f
Str ing
äºĭ å®ŀ
Ġg en
Ġb en
Ġp ract
çľŁ çļĦ
ä¸Ĭ è¿°
æĿ ľ
åįļ çī©
æĽ´ æĸ°
èĢĮ è¨Ģ
å¯¹ è±¡
â ĳ
ĠW hen
ç» ĺ
ĠâĢ ĺ
ç² ĺ
åľ¨ è¿Ļ
å¾ ½
ãĢĭ ãĢĬ
ä¹ ı
æĺ Į
it es
æĪ ´
or th
Ġ Ã
201 1
Ġan other
er c
Ġop en
Ġacc ess
Ġad v
Ð µ
æ® ĸ
å½ĵ åīį
Ġb ro
b ack
æĸ° èĥ½æºĲ
æĲ ľ
å¼º çļĦ
ä¸ī åĪĨ
æĸĩ åŃ¦
Ġ1 1
æĽ´ å¥½
at ural
.. ..
ĠC ol
out put
çĽ¸ åĲĮ
æĹ ĭ
l ess
ivid ual
ä½ ©
åĽĽ å·Ŀ
çĶµ åĬ¨
Ġsqu are
å¼ Ł
åħļ å§Ķ
å¥³ æĢ§
çľŁ å®ŀ
é¢ Ĺ
è¿ħ éĢŁ
åħį çĸ«
æĮĩ æķ°
con st
ill ion
ĠD e
æĥħ ç»ª
èĥĮ æĻ¯
å®£ å¸ĥ
é» İ
é£İ æł¼
è¾ ī
ww w
ç¯® æĿ¿
èĲ¥ éĶĢ
åıĺ å¾Ĺ
å¹´ åīį
è ķ
G iven
è£ Ĥ
è¡¨ æĺİ
éĿ¢ çļĦ
æİĮ æı¡
å¹² éĥ¨
åĲį ç§°
in ation
C T
Ġ el
ä¸Ģå®ļ çļĦ
åĵģ ç§į
ï¼ ħ
¡èĲ Ħ
Ġris k
æĭĽ çĶŁ
ä¹ł æĥ¯
èĳ ¡èĲĦ
éĹ ²
ĠW h
Ġm aterial
w h
ä½ĵ çİ°
éĺħ è¯»
ä¸ĩ åĲ¨
ãĢĭ ãĢģãĢĬ
æĻ ĵ
s um
Ġch ar
Ġhe re
he ad
æ¡ ĥ
S S
Ġ else
iv ing
èµ ĸ
è¿Ĳ çĶ¨
ore d
äºº çĶŁ
é«ĺ çŃī
åĪĨ å¸ĥ
åħ´ è¶£
å·ŀ å¸Ĥ
å¾ª çİ¯
éĻ¢ æł¡
en ces
8 4
aj or
Ġincl ude
Ġ{ }
ç»ı åħ¸
ä¸Ń å°ı
æ¦Ĥ å¿µ
9 6
è½¬ åŀĭ
èı ²
ç´ł è´¨
or n
å²ģ çļĦ
èĦ ¸
ĠS ince
äº§ æĿĥ
Ġb est
æĺ Ĩ
å® ı
ĠHow ever
èļ Ģ
Ġed uc
åĸ ·
Ġp ost
èī ¾
ou th
å°Ĩ äºİ
è¿Ľ æŃ¥
d a
B C
åĿ ¦
Ġd el
Ġd en
v ar
çĪ¶ æ¯į
ific ation
çŁ³ æ²¹
æ¼ ı
Ġle arn
æ¸ ł
å¹´ é¾Ħ
é© »
è· ³
é«ĺ çº§
Ġme an
åĭ ¤
å±ķ çİ°
ut ure
è ²
éĨ ĩ
ç¥ŀ ç»ı
ç§ ¦
ĠE n
å¼º è°ĥ
èµ µ
èī¯ å¥½
åĮħ åĲ«
Ġle g
å¼º åº¦
æľĢ è¿ĳ
åıĳ çĹħ
å¹¸ ç¦ı
æĽ´å¤ļ çļĦ
æµ ®
æľº çļĦ
æİ¨ èįĲ
åħĪ åĲİ
Ġd ays
ä¸°å¯Į çļĦ
er ing
å°Ĩ ä¼ļ
ot al
ãĢĤ ï¼Ī
p re
Ġl and
åĶ¯ ä¸Ģ
è§Ĥ å¯Ł
ar c
æĺ¯ çĶ±
åį³ ä½¿
çĶŁæ´» ä¸Ń
éĻĲ åĪ¶
åĪ© çĽĬ
çļĦ ä¸Ģä¸ª
Ġph ys
ç«ŀ èµĽ
èĩ³ ä»Ĭ
çģ Ń
om s
} +
ä¸» åĬ¨
Ġre ce
ä¸Ģ ä½į
Ġs ocial
èĸ Ħ
æĲ º
åħħ æ»¡
åħļ çļĦ
æıĲä¾Ľ äºĨ
åĪ Ģ
çķ ħ
S ince
Ġ ide
åįĬ å¹´
an ces
Ġc ase
4 3
ap t
Ġt ext
Ġper form
å¦Ĥ ä¸ĭ
èĩª æĪĳ
åı¬ å¼Ģ
è¿½ æ±Ĥ
Ġle ast
Ġth ink
m p
æĮĩ æłĩ
ç»Ļ äºĪ
200 8
æķĻ ç»ĥ
^ \
P C
av ing
çĲĨ æĥ³
9 7
èĥ ¡
ot t
è®¨ è®º
èĬĤ çĽ®
è· ĥ
l u
å°ı ç»Ħ
å¼ Ĺ
Ġf ew
ict ion
cl usion
æ» ¤
æĶ¶ éĽĨ
æ²Ł éĢļ
æĴ ĳ
æĬķ æłĩ
åħ¬ ä¼Ĺ
Ġper cent
ĠR e
Ġn p
ä¸Ģ åĪĩ
P S
iqu e
æĩ Ĥ
oug ht
å¸Ĥåľº çļĦ
ãĢĭ ãĢĤ
çŃī å¥ĸ
Ġp ur
åĲ« æľī
Ġres p
du ct
æ²» çĲĨ
Ġl ow
c o
èĤ º
åıĳ è¡Į
çļĦ å¿ĥ
Ċ ĊĠĠĠĠĠĠĠĠĠĠĠĠ
4 1
æī £
ä¿Ħ ç½Ĺæĸ¯
ĠS o
äºº ä½ĵ
å¡ĳ æĸĻ
lob al
Ġen g
ĠE ng
Ġv ol
if t
r ate
Ġv iew
åĲĪ æł¼
9 8
Ġ åľ¨
Ġl aw
äºĭ æĥħ
å¥ ı
Ġind ividual
Ġcons ider
èħ ¾
éħį åĲĪ
Ġf in
Ġw omen
é¼ĵ åĬ±
K ey
ys is
åĵ ²
] .
B A
çĺ ¤
æĦŁ åĪ°
å°ĳ å¹´
Ġcon f
ĠUn iversity
èī² çļĦ
Ġbe g
èĢ ¶
Ġan im
åŃ ķ
y le
çĮ ª
Ġn ec
Ġrequ est
æĬ ĳ
çļĦ æĬĢæľ¯
ust om
Ġal ways
em ber
å®ŀ è¡Į
åľ° ä½į
le ction
åĪĽ å»º
å¾Ī å¤§
os p
Ġa ut
åĮħ è£ħ
æĦı å¤§åĪ©
æĹ¥ èĩ³
d es
Ġ ĉĉ
è§Ĵ åº¦
Ġall ow
å®Į æķ´
çļĦ åľ°æĸ¹
d f
åįļçī© é¦Ĩ
Ġim pro
a ut
Ġbel ie
æĺ¾ èĳĹ
éĺŁ ä¼į
æĦı åĳ³
è¿Ļ ä¹Ī
it or
æĶ¶ çĽĬ
Ġm us
7 8
Ġtri angle
Ġc ult
éĵģ è·¯
çº¿ ä¸Ĭ
çº ¹
ent al
Ð¾ Ð
å°¤åħ¶ æĺ¯
å¼º åĮĸ
æµ ¦
éĻ ·
åįı è°ĥ
Ġrep resent
èĭ± è¯Ń
æŁ Ķ
ent ion
al le
é ŀ
èĴ ¸
éĩĮ çļĦ
çī¹ å¾ģ
æĪĲ äºĨ
Ġn ext
et a
åħ± åĴĮåĽ½
æĽ´ æĺ¯
er r
b s
åĲ Ľ
è´¯ å½»
ag ement
çī© çļĦ
Ġb ased
p ec
Ġpos itive
åĲĮ æł·
t x
def ault
Ġcon fig
å¤§ éĥ¨åĪĨ
M T
A l
Ġ Ċ
ç´¯ è®¡
ge q
N ow
iel ds
ç¦» å¼Ģ
ip le
å°± åı¯ä»¥
å¤§å¤ļ æķ°
çĶ ľ
Ã ³
S ub
) ãĢĤ
oh n
ç¦» åŃĲ
ill s
\ ).
U n
ç¡ķ å£«
èĤ¡ ä¸ľ
æµ· å¤ĸ
ect or
æľ¬ èº«
å° º
ä¼Ĺ å¤ļ
} ^{
u ction
èĬ ¯
æīĢ åľ¨
Ġc aus
5 8
äºº åľ¨
è¯¦ ç»Ĩ
èŀ º
ent ly
4 00
åı° æ¹¾
çī© èģĶç½ĳ
åĪº æ¿Ģ
ĠCom m
è´¢ åĬ¡
åĲĦ ä¸ª
ĠThe refore
ä¸ļ ç»©
èµ «
Ġin put
Ġresult s
Ġap pe
åĩĨ ç¡®
ä¸Ģ çĤ¹
å® ħ
ĠĠĠĠ Ġ
å§Ķ ä¼ļ
Ġ1 7
Ġav ailable
requ est
oc us
am b
çĻ½çĻľé£İ çļĦ
ĠP h
as ing
an e
è§Ħå®ļ çļĦ
ind ows
Ġ âĢĶ
val id
çİ¯ èĬĤ
åģ ¶
è¿Ļ æ¬¡
i ans
æ¸¸ å®¢
ä½¿ å¾Ĺ
t ies
E T
çļĦä¸Ģ ç§į
éĺ² æŃ¢
ic le
5 7
ä¹¡ æĿĳ
æµģ ç¨ĭ
Ġh ig
å® ¿
çļĦ çłĶç©¶
Ġke ep
åĬ© æĶ»
Ġh ome
S o
åĩł ä¸ª
åıĤ èĢĥ
æĶ¹ éĢł
Ġex ist
Tr ue
æ» ¨
ç¾ Ĭ
çĤ Ń
ä¸Ģ å®¶
W hat
åįģ äºĮ
ä¿¡ åı·
éĻ ¶
or ld
Ġper iod
æĬ¤ çĲĨ
en ame
M A
Ġ 50
çİ© å®¶
äºĭ é¡¹
æĸ° åŀĭ
6 8
è£ħ ç½®
ul es
æ¬ £
å¤ļ å°ĳ
cri pt
ĠG od
æī «
Ġp ain
in fo
m y
C D
èĸ ª
æĪ¿ åľ°äº§
çļ Ĩ
- \
Ġass oci
çľģ çº§
al f
v ious
5 2
Ġagain st
éļľ ç¢į
Ġm ajor
æ°Ķ åĢĻ
Ġo pt
x y
èħ ¹
v es
Ġbec ome
å¤ļ å¹´
æī °
å° Ŀ
Ġt urn
htt p
æ¼Ķ åĳĺ
èĩª æ²»
Ġto o
Ġf inal
p ack
éĺŁ çļĦ
çĶŁ ç´ł
E S
0 2
Ġprov ide
è§£ éĩĬ
è¿ĺ è¦ģ
ä¹ ĥ
Ġus er
æĽ¾ ç»ı
å¹¶ åľ¨
æĸ° æĬĢæľ¯
eg in
èĤ¡ ç¥¨
ä¼ĺ æĥł
un g
5 9
æĬķèµĦ èĢħ
èģĶ çĽŁ
v ed
åĬŀåħ¬ å®¤
éĶ ģ
æĻ ¨
åĲİ æĿ¥
å½ ¼
T ext
ä¼Ļ ä¼´
æĻ¯ åĮº
ft ware
Ġ1 3
Ġg l
æ² ĥ
U T
flo at
èĦ ı
c rib
æł¹ æľ¬
çģ °
æ° ¢
Ġs ize
at ures
d is
#### ####
åħ± äº«
æ´ ª
æł ı
Ġb us
ing le
P I
Ġche ck
çĩ ¥
è¡Ģ ç®¡
Ġcont rol
è£ħ å¤ĩ
å¿ĥ çļĦ
t ri
Ġcond itions
åĲ¸ æĶ¶
äºİ æĺ¯
Ġmon th
æ¹ĸ åįĹ
th on
Ġd at
m m
å¦ »
å» ī
æ¬ ²
F I
Ġc y
Ġs ource
Ġspec ific
Ġcirc le
ä»ª åĻ¨
ç¾İ ä¸½
éĥ½ åľ¨
d ated
! ("
Ġf ield
m atch
åĽŀ åºĶ
æīĢ å¾Ĺ
ä¹Ł å°±æĺ¯
æĪĲ å°±
on es
ob ject
æĭ ¼
åŃ¦ åİĨ
Ġd oc
er ror
200 7
èĤ Į
Ġan t
Ġgovern ment
Ġequ al
end s
Ġs at
I d
åİĤ å®¶
éĽ ķ
ä¼ļ ä¸Ĭ
å¯ ¸
Ġam ong
ç¬¬ äºĶ
V alue
cri ption
pl it
ãĢĤ ãĢĬ
å±ķ è§Ī
ä¼ ¸
ap er
ul a
çĶŁ éķ¿
åĬ ²
Ġa ir
Ġfam ily
è§Ĵ èī²
ail s
ä»£ çĲĨ
å¸ĥ å±Ģ
ur ation
è¾ ĸ
å¾ Ĵ
Ġc ode
è¡Įä¸ļ çļĦ
ure d
og n
åº¦ çļĦ
æĦıåĳ³ çĿĢ
èĶ ¬
ĠS tr
åĲ« éĩı
åŃĲ çļĦ
Ġre st
æĪĲ çĨŁ
ä¼ļ æľī
éŃ Ķ
åºĶçĶ¨ äºİ
le ase
åį ĵ
t il
? ;
é©¾ é©¶
éģĩ åĪ°
æįŁ å¤±
Ġev ent
åıį æĺł
åģļ åĩº
æķ° åŃ¦
ur ther
om ain
in st
èĩ´åĬĽ äºİ
çļĦæĥħåĨµ ä¸ĭ
Ġdist ance
Ġh app
Ġm en
çº¤ ç»´
å¥¥ è¿Ĳ
æĦŁ è°¢
èĪ į
æĭ Ķ
Ġc ause
èĤ¡ä»½ æľīéĻĲåħ¬åı¸
Ġbet ter
åĽ´ ç»ķ
éĩĩ è´Ń
Ġse ver
og le
eth ing
æĶ¯ æĴĳ
åįģ å¹´
æ° Ľ
æ¸ħ æ´ģ
ä¸ĭ éĿ¢
ĠTr ue
Th us
çĵ ľ
200 9
çļĦ åĲĮæĹ¶
çī¹åĪ« æĺ¯
çªģ åĩº
Ġneed s
çĪ± æĥħ
è¿Ļ ä½į
Ġ ess
é¢ĨåŁŁ çļĦ
im age
} .
R eg
æ°Ķ ä½ĵ
å¤ļ æ¬¡
ä» ĵ
j son
Ġab ove
å½ĵ ä¸Ń
æĪĲ åĪĨ
è Ŀ
Ġ id
Ġde p
ex pect
éĢı è¿ĩ
åĬł ä¸Ĭ
Ġloc al
è´§ å¸ģ
ock er
ä¸» å¸Ń
Ġb lood
ĠUn ited
å¦Ĥæŀľ ä½ł
äº ©
çļĦ æĸ¹æ³ķ
Ð ¸
ä»ĸ åľ¨
çŃī æĸ¹éĿ¢
è¾ ½
M P
èĤ Ŀ
äºº æķ°
is ed
ä¸»è¦ģ æĺ¯
ap s
ä¸ĭ åįĪ
é¸ Ł
Ġ\( \
çļĦ æľįåĬ¡
O S
æħ Ī
äºĭ æķħ
äº§ éĩı
è¯ ŀ
æ£® æŀĹ
æŃ¦ æ±ī
ç»´ ä¿®
åĢ ¾
çºª å½ķ
pl ace
C ol
Ġear ly
æĭĽ èģĺ
å½± çīĩ
is ter
æ §
} =
ĠO r
çłĶç©¶ çĶŁ
Ġs ides
y d
å¥ ī
ä¸Ńåįİ äººæ°ĳ
ä¼¼ ä¹İ
ĠSt ates
ç³»ç»Ł çļĦ
Ġcount ry
å¥¹ çļĦ
Ġpl ant
æĢ» ç»ĵ
éħ ¯
ä¼ļ åĳĺ
ic ation
Ġc ertain
z ure
ä¸Ńåįİäººæ°ĳ åħ±åĴĮåĽ½
å¨ ±ä¹Ĳ
æĢĿ èĢĥ
åįı åĬ©
un e
Ġp ut
éĢĲ æŃ¥
åĽ¾ ä¹¦
ht ml
åĩº çĶŁ
å¹ »
æĭį æĳĦ
åı¯ä»¥ åľ¨
Ġare as
åı¯ éĿł
M L
orm al
con n
å¸¦ é¢Ĩ
æĹ¶ çļĦ
A p
Ġstr ing
op er
s a
) (
åĩ ½
à ¤
ĠS e
O T
éļ¾ ä»¥
Ġse qu
æº ª
æĸĩ åŃĹ
åĲĮ æľŁ
bo ok
æıĲ äº¤
å¤§ åĬĽ
in ter
Ġspe ed
Ġcond ition
\ ),
æĭĴ ç»Ŀ
å®¶ éķ¿
åĩ ī
olog ical
Ġin tern
Ġf ore
å±¥ è¡Į
èĤ¯ å®ļ
æĤ£èĢħ çļĦ
ce ption
a i
ver age
å¯¹ å¤ĸ
ac y
æľī å¾Īå¤ļ
ä» ¿
ĠAmeric an
æĢģ åº¦
ir t
ç¨ ¿
å¯¹ æĸ¹
ä¸Ģ åĲį
éħį å¥Ĺ
ä¹Ł åľ¨
é¢ ģ
éĻ ķ
Ġm ov
fun ction
Ġacc ount
å¿ ½
à ¼
è² Į
ä¸¤ ç§į
cont ent
Ġcomp ut
Ġn et
Ġa ffect
he l
çļĦ ä½ľçĶ¨
6 9
" );
æĳ Ĩ
og raph
Ġ2 5
çĸ Ĩ
Ġre d
Ġs w
i ver
æ¯ķä¸ļ çĶŁ
ç»´ çĶŁç´ł
è®¤ åı¯
åºĶ æĢ¥
äºĳ åįĹ
åĪ¶ åĵģ
==== ====
Ġinv olv
Ġ[ ]
æ·± åº¦
ay er
l n
è£ħ é¥°
çī §
0 8
ä¸ĵä¸ļ çļĦ
æĦŁ åıĹ
æŃ£ æĺ¯
ä½ľ åĩº
A r
Ġec onom
rib ute
åĽŀ æĶ¶
ä½ł ä»¬
o ogle
æłĩ å¿Ĺ
ri x
åľº æīĢ
å° ĸ
åĭ Ł
è§Ħ åĪĻ
æĽ´ å¥½çļĦ
Ġpartic ular
Ġab le
ĠG erm
å¤© æ´¥
åĲį åįķ
ä¸» åĬŀ
æķ ¢
( (
Ċĉĉ ĉĉ
é¢Ħ æµĭ
æµĭ éĩı
rac e
åı¯ æĮģç»Ń
æĹ¶ åĪ»
ä¸į åĨį
Ġp o
Ñ Ĥ
Ġadd ress
éĤ ¦
è®¸ åı¯
å¼ķ å¯¼
éĿ¢ åĲĳ
æı Ĵ
Ġe ither
åĴĮ åħ¶ä»ĸ
app end
7 9
Ġsever al
åĽ½åĨħ å¤ĸ
ail ed
æĿ Ń
Ġen s
ag n
çİ° æľī
om et
æĬ ±
t ain
Ġdise ase
éĢĤ çĶ¨äºİ
Ġl anguage
Ġn atural
åĨ Ĵ
ed u
åľ¨ äºİ
Ġpos ition
æĤ¨ çļĦ
7 2
Ġtyp es
åĪ© äºİ
O k
ä¸ī å¹´
ou d
p or
Ġen c
end ed
çĪ¶ äº²
éļı åĲİ
Ġw ar
0 6
Ġrel ations
è° ĭ
ĠA d
ic ense
b egin
å© ´
æ¡Ī ä»¶
em pt
æģ Ĳ
å»º æĪĲ
åĲĪ æĪĲ
5 4
read y
åĪ¶éĢł ä¸ļ
ĠO n
ĠC ent
ro ll
. __
Ġnec ess
get her
de v
æ³ µ
Ġto gether
èİ· åıĸ
Ġm aking
çļĦ åīį
æ¸ł éģĵ
tr y
å·¥ä½ľ äººåĳĺ
Ñ Ģ
é©± åĬ¨
æĶ¿åºľ ä¿¡æģ¯
çĶµ èĦĳ
H ow
A s
Ġne g
Ġst andard
å° ¿
Ġ 60
Ġorig inal
Ġsim ilar
Ġwor ds
èĻ İ
å¤§ èµĽ
ä¹ Ķ
' '
Ġsom ething
Ġsu ccess
æī¿ åĮħ
N ode
Ġbeh av
åľ° çĲĥ
ç½ĳ ä¸Ĭ
å®ļ æľŁ
Ġhist ory
åį± å®³
ç¡® è®¤
ä¸» ä½ĵ
B y
æĹ© å·²
ä¸ĩ äºº
å¯ º
on t
Ġexp ression
Ġsc ient
åľ° åĿĢ
f act
0 3
è¿Ŀ æ³ķ
Ġsim pl
åİŁ æĸĻ
æīĭ æ®µ
èĩ³ å°ĳ
Ġl ater
ec ut
Ġth ings
ä¸Ģ èĩ´
8 2
Ġne ar
å°± åĥı
ä»¥ åīį
æķ ¦
al es
Ġs ay
Ġrequ ired
åĳ¨ æľŁ
tr ans
åĪ« äºº
éĥ ģ
åħ¨ ä½ĵ
Ġh ard
å¿ §
å¤§ å¤§
ic y
Ġa ge
5 3
æ¹ĸ åĮĹ
å±Ĥ æ¬¡
Ġres pect
æ´» æĢ§
at ors
m ark
j oin
æ¸ħ æ¥ļ
ä¸ĵ éĹ¨
Ġt re
0 4
ffic ient
æł¡ åĽŃ
éĥ Ń
n o
b re
Ġ 2021
ç¿» è¯ĳ
Ġli k
ff er
éĺ² æİ§
ct ions
èĤ ¾
er o
æŃ¤ åīį
æį Ĳ
çĻ¾åĪĨ çĤ¹
æ£Ģ éªĮ
éĶ Ī
å¿ Ļ
æĢĿ ç»´
Ġtr y
çĽ¸ äºĴ
Ġd ue
è¯ ±
è¿ Ī
5 1
é»ĳ èī²
ĠU S
çłĶç©¶ éĻ¢
æ» ´
æİ ĺ
ç¢ İ
è½¬ åĮĸ
ç±» ä¼¼
éĥ¨ ç½²
ä¸Ĭ æ¶¨
ä» Ļ
e le
itt le
è¡¥ åħħ
å¤§ å¹ħ
æ·· åĲĪ
åħ ģ
Ġ !
Ġsol ution
che ck
ight s
ä¸ĵ é¡¹
éĥ¨ ä»¶
äºº åĬĽ
Ġsh ort
ut es
çļĦ å¥½
I ON
Ġhour s
åı¥ è¯Ŀ
yn c
éħį ç½®
æĶ¾ åľ¨
ç²¾ å½©
Ġ ĉ
æľĢ æĸ°
id th
Ġm atch
è ¹
r s
çĵ ·
è®© æĪĳä»¬
ä½ľ ä¸ļ
å¤§ çº¦
Ġimp act
éĤĢ è¯·
çĶ³ æĬ¥
åĽŃ åĮº
Ġcon c
éĺ Ķ
b b
Ġ ver
Ġcont ain
ĠL et
() );
éĵ º
æĺ¯ ä¸į
å¹³ è¡¡
çī ¢
Ġp ress
Ġo s
ä¸Ģ æĿ¡
Ġer ror
Ġsign ific
Ġind ust
å®¤ åĨħ
Ġd og
Ġf il
Ġ ï¼Į
Ġfe el
çĵ ¶
ç»Ħ åĲĪ
çļĦ ä¸Ń
p ose
è¡Ĺ éģĵ
ä¾Ŀ çĦ¶
èĢģ å¹´
ĠE r
æ¸ħ æ´Ĺ
ä¸Ĭ åįĪ
Ġ1 4
åİ ¦
R O
Ġincre ase
ç¾İ æľ¯
èµĦ è´¨
çĶµ åķĨ
Ġf ocus
åħ ¹
s ing
çŁ¥è¯Ĩ äº§æĿĥ
èİ·å¾Ĺ äºĨ
ä¸Ģä¸ª äºº
æľŁ å¾ħ
ĠA ss
ä¸Ģ æĹ¦
g ing
çļĦäºĭ æĥħ
å¼ķ åıĳ
ä¼ĺ åħĪ
æĬĢæľ¯ çļĦ
Ġal ong
e ps
Ġte am
æŃ» äº¡
æķĪ çĽĬ
stit ute
Ġr ate
åĪĨ ç±»
è¡Į çļĦ
th ough
æĭ Ĩ
I C
ç»´ æĮģ
ĠL e
å¾® ä¿¡
ç¢ ±
str uction
çĻ½ æĸĳ
Ġcan cer
rac k
å·¥ åİĤ
æĺ¯ ä¸ŃåĽ½
I m
å½ķ åıĸ
æĢ» ä½ĵ
Ġ2 4
æĹ¥ åīį
Ġw ays
re l
çļĦ çĥŃ
Ġben ef
æĤ ¬
åĽŀ åĪ°
ä¿Ŀ åģ¥
æı Ń
ä¸Ģ æ®µ
ä¸Ģ æµģ
t ings
æ²³ åĮĹ
å¾Ī éļ¾
9 3
) ãĢģ
Ġpot ential
éĽ¶ åĶ®
å¤į åĲĪ
å¯¼ æ¼Ķ
ĠF alse
å·¥ åķĨ
ä¸ª çĻ¾åĪĨçĤ¹
Ġs it
H E
uro pe
èµ¢ å¾Ĺ
å¾Īå¤ļ äºº
å®¡ æŁ¥
}{ \
ç¡ ħ
Ġs ays
ç¬¬ä¸Ģ æ¬¡
æķĻèĤ² éĥ¨
Ġtr ad
Ġim age
ial ize
n p
W h
Ġhtt ps
æ·» åĬł
éĤ »
um n
1 50
èĥ½ éĩı
d b
é¢ľ èī²
æīĭ æľ¯
å®ī å¾½
çº º
Ġchang es
èħ º
æĿĥ åĪ©
:: {
ä¹ĭ ä¸Ń
çļĦ æ°´
{ }
Ġother s
ar ray
Ġf ull
åľ¨ æŃ¤
à¼ ĭ
ãĥ¼ ãĥ
èĩªåĬ¨ åĮĸ
é£Ł çĶ¨
to ols
å¦ Ļ
st atus
Ġf ree
èī °
Ġt arget
Ġsp ace
æĻ® éģį
æ¨¡ åŀĭ
cl one
å¾Ī å¤§çļĦ
ç« ¹
çļĦ ä¸į
av es
æĤ ²
çĲ ´
æ° ¯
Ġm ar
Ġf low
Ġp arent
Ġ ë
åį± éĻ©
ic ult
Ġp ort
å¿Ĺ æĦ¿
åľº æĻ¯
æĢ ª
å¹² çĩ¥
ĠB y
l ing
d own
ugg est
ä½¿çĶ¨ çļĦ
Ġcom e
åĬł å¤§
re c
Ġpar am
å¤© æ°Ķ
G B
èĭ ¹
åħ¬ çĽĬ
å¥ ĳ
èµ ¶
Ġf ac
it ch
ip s
çĪ ¸
è¯´ éģĵ
æĽ´ ä¸º
æīĢ è°ĵ
ut ions
å¤§ ä¼Ĺ
z e
i us
1 20
åį³ åı¯
æĪ¿ å±ĭ
Ġ4 0
Ġg ives
Ġinv est
é«ĺ ç«¯
st art
èĳ£äºĭ éķ¿
çŃĸ çķ¥
ard s
Ġval id
éĢĤ å½ĵ
è¿Ľ çĲĥ
ä»¥ ä¸º
ä½İ äºİ
n ow
Res ult
ç¼º ä¹ı
çĶ³è¯· äºº
æĹ© æľŁ
pro cess
con text
æ·± åĪ»
èµĽ äºĭ
éĩĳ é¢Ŀ
çļĦ è¦ģæ±Ĥ
p ed
Ġquest ion
Ġpol it
èŀį èµĦ
å¿« ä¹Ĳ
æģ ĭ
) $,
Ġ ĊĊ
çĭ Ĥ
ach ine
ĠM ar
ç§į æ¤į
Ġw rite
n al
a u
èĶ¬ èıľ
æĢ» æĺ¯
P l
ound s
äººæ°ĳ å¸ģ
å¤ļ åħĥ
èħĲ èļĢ
åºŁ æ°´
Ġspec ies
æĿ¡ ä¾ĭ
ab ly
é«ĺ æ¸©
å¯¹ æīĭ
Ġb ase
Ġproble ms
æĢ» ç»ıçĲĨ
ä¸ĵ æ³¨
éľ į
d at
NA ME
éĻ¢ éķ¿
ä¸»ç®¡ éĥ¨éĹ¨
è¿ĳ æľŁ
ä¿¡ å¿ĥ
çĦ Ĭ
å» ·
æľī ä¸Ģä¸ª
d ict
åĪĻ æĺ¯
é¡¹çĽ® çļĦ
ç®¡ éģĵ
çĽ Ī
éĿ© åĳ½
å·® å¼Ĥ
com p
ç¾İ çļĦ
éĶ ¡
åĲį ä¸º
æ¸ Ĺ
å¿ ł
èµ ĭ
èĭ¹ æŀľ
åĨľ æ°ĳ
Ġst ep
0 9
åł Ĩ
éģĵ å¾·
ä¸ Ļ
i res
P ar
Ġpre vent
cl ient
åĻ¨ çļĦ
çºª å¿µ
ear ch
Ġst d
éĢ Ĩ
7 3
å¯¿ åĳ½
é½ ¿
av a
æĮ ĸ
om in
is on
t itle
Ġserv ice
ĠRes ult
å¯» æī¾
è®¾å¤ĩ çļĦ
çĥ ¦
ug ht
Ġcan not
ĠE urope
éĵ ¸
Ġpro m
ä»ĸ äºº
Ġp riv
åį µ
6 3
çĮ «
è¯Ĩ åĪ«
ç¡ «
ĠA ll
æķ Į
è®º åĿĽ
Ġun til
The re
å¤Ħ ç½ļ
ĠP art
åŃ¦ èĢħ
O C
èį£ èİ·
Ġ\ ):
Ġp i
s y
c y
> >
Ġdef ault
æ¡ ĳ
è¾ ŀ
Ġl en
ä¸Ģ åľº
Ġcour se
åŁ¹ èĤ²
Ġde pend
ĠA t
åĲĪ éĩĳ
l s
\ _
S h
the ta
å¼ķ é¢Ĩ
åĪĽ æĦı
ä¼ļ çļĦ
Ġexp ress
let e
Ġcom bin
å®ļ ä½į
åĨ »
čĊ čĊ
ĠM an
ur ity
æĿ¥ åĪ°
Ġc rit
åĽ½å®¶ çº§
èĥ İ
æ¶Ĥ æĸĻ
å¹¶ æ²¡æľī
åľ° çĤ¹
çī µ
b it
è¯Ĭ æĸŃ
å£° éŁ³
.. /
èĥ Ĩ
åľ° çĲĨ
æĹ ģ
éĻķ è¥¿
è¿ĺ åı¯ä»¥
Ġa ction
u it
å¹¿ä¸ľ çľģ
çĬ¯ ç½ª
Ġrequ ire
ä¸Ģ è·¯
Ġc ases
, "
ify ing
ak en
èĢĥ æł¸
å½± è§Ĩ
æĬ¥ èĢĥ
æĪĸ è®¸
å°ı çļĦ
éĺ Ģ
åĪ° çļĦ
lect ed
å£ ³
and om
om es
äººæ°ĳ æ³ķéĻ¢
åī ©
Ġp ast
is es
Ġs uggest
ì Ŀ
tri angle
ĠO ption
çĽ´ æĴŃ
çłĶç©¶ æīĢ
res p
ä¸ĭ äºĨ
å¸ ķ
äºĴ åĬ¨
ap i
èµĦ è®¯
ĠA dd
Â °
( -
èµ ł
æľī åı¯èĥ½
Ġwork ing
æĢ» é¢Ŀ
ç¼ Ŀ
æıĲ åīį
L ist
F l
B u
fil ename
èį£ èªī
Ġspec ial
éķ¿ çļĦ
çİ Ľ
Ġim plement
res ponse
éĶ Į
ä» Ķ
u ation
cre ate
åİŁ çĲĨ
Ġal ready
âĢ ¢
Ġocc ur
åĩĢ åĪ©æ¶¦
æĥħåĨµ ä¸ĭ
é¢Ħ ç®Ĺ
ä¸ĸçķĮ ä¸Ĭ
et ers
D e
ĠĠĠĠĠĠĠĠĠĠĠĠĠĠĠĠ ĠĠĠĠ
æ»¡ æĦı
ä¸ĭ è½½
çļĦ éľĢæ±Ĥ
6 2
led ge
Ġh ouse
er al
9 2
è¸ ª
ann el
Ġsol ve
è¥¿ å®ī
äºĭ åĬ¡
å¤§ æķ°æį®
8 3
) );
Ġ ve
éĺ³ åħī
Ġwh y
ag er
çł ĸ
å¸Ĥ æ°ĳ
Ġs ingle
lab el
æľºåĻ¨ äºº
å·´ é»İ
ĠB e
å°± èĥ½
Ġg ive
il t
W hen
Ġ â
ä¼¤ å®³
æµģ åĬ¨
åıĸå¾Ĺ äºĨ
pos ition
çīĪ æľ¬
æ³¨ éĩį
E D
9 4
ess ion
å®¶ çļĦ
åı¯ è§ģ
åĩ Į
r un
6 00
Ġac ross
æĻ¯ è§Ĥ
od es
æķ´ åĲĪ
éĴ Ļ
å½ ¹
èľ ľ
å§ Ĳ
åĮ ¹
Ġexper ience
Ġup dated
de pend
Ġus ize
ç² Ĺ
Ġl ittle
åĴĮ ç¤¾ä¼ļ
n ode
æ¢¦ æĥ³
è¸ ı
Ġwor ks
æĶ¯ åĩº
ĠF r
Ġl ib
éĻ µ
å· ¡
ä¸Ģ ä»£
m ethod
I V
Ġrelations hip
åįĬ åľº
ra ft
Ġ+ =
éĥ½ ä¸į
Ġb ig
æĺ ¨
l in
åĵ² åŃ¦
Ġcre ated
Ġrec ord
ach ing
è®° å¿Ĩ
ĠO ne
åħ± æľī
ç½ĳ åıĭ
Ġsub ject
åį³ å°Ĩ
id x
Ġl oss
O r
çł´ åĿı
Ġwhe ther
å°ı è¯´
éĽ ¾
Ġb i
ä¸Ģ æĺ¯
is f
c s
b ol
æ¶ ¯
åĽ½ å¤ĸ
åľ¨ ä¸Ģèµ·
D P
oci ety
çĽ¸åħ³ çļĦ
Ġab s
Ġyou ng
è®¤ å®ļ
çĶµ æ°Ķ
çº µ
çļĦ åİŁåĽł
Ġcle ar
ĠCh rist
çĸ« èĭĹ
åł ¡
Ġout put
èī² å½©
è° Ĳ
èĢĮ åľ¨
a im
èĥľ åĪ©
çĪ± çļĦ
çĸ ı
èĩª è¡Į
il ities
ä¸Ĭ äºĨ
è¡ °
C M
åĬł çĽŁ
æĥ ľ
o ff
o ad
Ġdeterm ine
Ġgener al
Ġte ac
çº³ ç¨İ
Ġap p
ä¿¡æģ¯ åĮĸ
æľŁ åĪĬ
ç¬¬ ä¸Ģä¸ª
ç¡® å®ŀ
200 6
æľŁ æľĽ
åĬł éĢŁ
Ġinteg er
Ġbr ain
æİĪ æĿĥ
Ġap plication
ãģ ®
èİ ²
å¾Ī å¥½çļĦ
ä»£ çłģ
åĮº çļĦ
æĸ° åĨł
é ¬
c f
åĮĹäº¬ æĹ¶éĹ´
Ġse g
åŁİ ä¹¡
éĽĨ ä½ĵ
ar r
u id
l im
A dd
A ll
Ġbus iness
å´ ĩ
ç»Ī äºİ
éĹ®é¢ĺ çļĦ
åķ Ĭ
å¹¶ ä¸įæĺ¯
çĲĨ äºĭ
I L
è§Ĩ è§ī
to ken
Ġto day
Ġd er
ro du
å¸ ħ
Ġo ption
ä¸Ģ å¤©
U S
7 4
idd le
åĩŃ åĢŁ
ĠW est
Ġh alf
U N
èĤ¿ çĺ¤
è¯ļ ä¿¡
Ġpr im
è½¬ åıĺ
æĪĸ æĺ¯
åĲĮ æĦı
æĸ° å¢ŀ
å·¥ èµĦ
S ome
åŁºç¡Ģ è®¾æĸ½
æ¯ı ä¸ªäºº
res h
Ġa way
çļĦ æķ°æį®
Ġlik ely
åĽº å®ļ
åŁº å±Ĥ
al ance
( |
Ġcell s
åĽ¢ ä½ĵ
Ġs ens
g es
ç¼ĸ åĪ¶
å®¡ è®¡
ĠF rom
ĠP r
åľ° ä¸ĭ
åĽ½ æľī
æĪĲç«ĭ äºİ
Ġtr ain
ĠE ar
å®ļ ä¹ī
ad r
as et
or der
Ġsignific ant
by tes
å®¡ æł¸
ä¿® æĶ¹
èħ Ķ
éĢĤ çĶ¨
è°ĥ èĬĤ
ĠW orld
Ġinst all
åĨ² åĩ»
æĦ¿ æĦı
Ġdes crib
ign ed
Ġcont ent
åı¯ æĺ¯
Ġp ack
Ġc ur
éĢļ è®¯
çļĦ æķħäºĭ
P h
å¼ķ è¿Ľ
è¡¨ æ¼Ķ
çł Ĥ
åħ¶ å®ĥ
åħ¨ çľģ
Ġa verage
h and
åĩł å¹´
é«ĺ ä¸Ń
il der
å¤§ éĩıçļĦ
Ġs ent
s ide
o ot
Ġ version
äººå·¥ æĻºèĥ½
æ¶Ī éĺ²
nd er
éĤ£ ä¸ª
æµ· æ´ĭ
æĦı æĢĿ
ä¼ļ åľ¨
åĩ ¤
Ġc over
çļĦ ä¸»
Ġang le
Ġtem per
ib ility
æ¡ Ĩ
om an
â Ķ
p ng
a e
UR L
ä¸Ĭå¸Ĥ åħ¬åı¸
Ġbel ow
çº¢ èī²
Ġcomp lex
op s
æĪĳä»¬ åľ¨
Ġtreat ment
æŁĲ äºĽ
Ġpr int
Ġstr ong
ä½ı å®ħ
è¾ĥ å¤§
å±± è¥¿
de bug
Ġin equ
f ield
F ile
æĺ¥ èĬĤ
åĦ¿ åŃĲ
çĽ´ åĪ°
èĢĮ ä¸į
Ġm akes
çĨŁ æĤī
æĲ ¬
æĸ¯ çī¹
um ents
å¯ Ħ
Ġf urther
Ġbeg in
Ġind ic
Ġk ind
ĠN ational
æĪĲ çļĦ
ä¸į éĶĻ
éĢ ĥ
S et
$ \
éĶĻ è¯¯
Ġdiff icult
æīĢæľī çļĦ
ĠA zure
ro ot
s up
ĠV ec
ä¹ī åĬ¡
çħ§ çīĩ
æµ· åįĹ
è® ¼
åĲ ¹
he ck
F F
å¦Ī å¦Ī
ç«ŀäºī åĬĽ
æ¼Ķ åĩº
åıĤ è§Ĥ
è¾ĥ ä¸º
Ġex act
th ing
åŁº åĽł
Ġm il
( [
å¾ĭ å¸Ī
åĽ¾ çīĩ
ac c
çļĦ åİĨåı²
Ġcons um
èģĮ è´£
èĢĥ å¯Ł
Ġwe ight
æĪĳ æł¡
å¹´ åºķ
æĬ «
çļĦ å¸Ĥåľº
è´µ å·ŀ
åĪ¤ æĸŃ
Ġim pl
ĠI nt
Ġm illion
æľī åĵªäºĽ
Ġf alse
è¿ Ł
äº Ń
0 7
æıı è¿°
æĭĵ å±ķ
éĻĦ è¿ĳ
æĿĥ çĽĬ
ï¼Ł âĢĿ
åıĤ èµĽ
åįĹ äº¬
æĹ¥ åľ¨
Ġf uture
Ġres ponse
æ· ĺ
åŃ ¤
åħ¸ åŀĭ
åīį å¾Ģ
å»º éĢł
ĊĊ ĉĉ
Ġphys ical
Ġchar acter
çī¹ æĢ§
å¤ļ æł·
I nd
) =
äºº çī©
ar ing
ed s
en e
å Ĺ
f s
è¯ī è®¼
åį° åĪ·
å±ħ ä½ı
å¤§åŃ¦ çĶŁ
ist ic
è¾ £
çĽ ¾
Ġs ure
I M
Ġcons id
æĺŁ æľŁ
æ¼ Ĩ
ä¼ł æī¿
ĠI s
æĸĩ çī©
å¾Ī å¥½
ä½¿ åĳ½
ol l
æĪ Ĵ
in ary
8 1
åĲį åŃĹ
æľĢ ä½İ
f r
äºĪ ä»¥
ç¼ĸ è¾ĳ
() :
ç¾İ å¥½
åĽ Ĭ
l ight
çŃ¾ è®¢
å§Ķ æīĺ
ç¥ ¥
æľĢ å¥½
D ef
Ġpat tern
ä»¥ä¸ĭ ç®Ģç§°
åĬ© åĬĽ
ä¸¤ å¹´
ĠM ed
å¯¹ æŃ¤
u ed
Ġcalcul ate
æ¬§ åħĥ
Ġne ver
ud io
åĲĪ æ³ķ
m on
Ġcommun ity
å¤± åİ»
å¾Ī å¿«
å¾Ĺ åĪ°äºĨ
èĮĥåĽ´ åĨħ
æĺ¯ä¸Ģ å®¶
ĠJ ohn
Ġk m
è§Ĥ çľĭ
Ġus ually
ag ed
ol der
ac ed
è¯¾ é¢ĺ
æīĵ å¼Ģ
æ¢ ¯
åĬĽ åº¦
åıĳ åĬ¨
ä¸į èī¯
Ġhig her
æ© ¡
ä»ª å¼ı
Ġsim ple
che d
é»Ħ éĩĳ
éĿĴ æĺ¥
å¸¦ æĿ¥çļĦ
æµ ¸
èĢ ķ
al t
m ost
Ġlevel s
sl ant
Ġsystem s
å¼Ĥ å¸¸
åĨ³ çŃĸ
æ£ Ĵ
iz ing
äºĮ æĺ¯
um p
ä¸Ń åĮ»
Ġa uthor
å¤ı å¤©
åģľ æŃ¢
ove red
text bf
åħ¨ å¸Ĥ
ol ve
Ñ ģ
æ¯į äº²
åī ĳ
è¦ģ æ³¨æĦı
çļĦ è®¾è®¡
í ķ
æ°¸ è¿ľ
ON G
çıŃ çīĻ
ä»¥ä¸Ĭ çļĦ
ĠĠĠĠĠĠĠĠĠĠĠĠĠĠĠĠ ĠĠĠĠĠĠĠĠ
è¥¿ çıŃçīĻ
æİ¥ è¿ĳ
åĲĦ çº§
ist ance
å°ı åŃ¦
èĬ ³
æ² Ī
åıĳ çļĦ
Ġcent er
çģ Į
åºĶ å¯¹
id ence
Ġf ive
at io
å·¥ç¨ĭ å¸Ī
åĽĽ ä¸ª
c i
6 1
Ġsequ ence
Ġinit ial
å¯Ĩ åĪĩ
ide o
å¢ŀ éĢŁ
ĠI m
Ġg e
åľ° çļĦ
Ġ vert
åħģ è®¸
Ġproper ties
Ġdisc uss
Ġcol or
éĥ½ èĥ½
èĩ Ń
â ĸ
Ð ½
cc ording
Ġen ough
ä¸ĵ ç§ĳ
ä¿¡ çĶ¨
æ°´ æŀľ
Ġf ar
çļĦ ä¸ĵä¸ļ
Ġhe art
oc ol
os ed
A nd
9 1
$ :
å©´ åĦ¿
sp ec
å¨ ľ
ĠW ith
åĿ Ĭ
se arch
åī ²
åħ¬ å®ī
Ġre ason
ec ond
èĩªæ²» åĮº
amb da
ĠS he
æ³ Į
P E
St ate
ç¢ ĳ
é«ĺ è¾¾
g ress
Con fig
çĶŁæ´» çļĦ
id ing
åĪĨ ç¦»
7 1
èĻļ æĭŁ
Ġatt ack
Ġem ploy
tr ain
ĠB l
çķ ª
åĪ° åºķ
è´ ¾
Ġd est
äºº ä¸º
Ġc reat
æ·± åĮĸ
è¥¿ éĥ¨
Ġwh ite
ch ie
æµ ©
éĻ ª
E qu
< '
Ġ ur
Ġeduc ation
çĽĳ æİ§
é¢Ħ æľŁ
æľĢ å¥½çļĦ
Ġon ce
at ter
çļĦ çĶŁäº§
é¬ ¼
Ġbec ame
w here
Ġcr ate
æĿĤ å¿Ĺ
å®ŀéĻħ ä¸Ĭ
æĶ¶ åĪ°
ä¸ī å¤§
ç§ ī
Ġinter s
Ġso il
end ing
æ» ĭ
æĹ º
äº§ä¸ļ éĵ¾
200 5
ç¤¾ äº¤
çĲĥ è¿·
ä¸ŃåĽ½ çļĦ
å¹¶ éĿŀ
çĤ ¸
æµ Ĩ
ä¸Ń æľī
Ġsat isf
Ġvari ous
alcul ate
ens ion
ä¼ł æĦŁ
ç¾ ½
ä¸» æ¼Ķ
é«ĺ äºİ
y thon
Ġconsid ered
èĪŀ åı°
å°½ éĩı
éĺ² æ²»
end er
um ber
Ġth ought
å¥ Ķ
ä¸į çŁ¥éģĵ
Ġp air
Ġhow ever
av el
è§Ĥ çĤ¹
å¸¦ åĬ¨
èµ ´
Ġp red
p ri
d o
b x
Ġ q
æĽ¼ èģĶ
Ġform ula
è®© æĪĳ
çĥ ĺ
åı¸ æ³ķ
Ġh ol
m t
i xed
i ol
g h
éĽĨ æĪĲ
æľº éģĩ
m ing
i et
çªģ çĦ¶
å¥³ åĦ¿
é¥ ±
è¯ķ çĤ¹
æĹ¥ æľŁ
ä¿ Ĭ
ä¸Ń åŃ¦
æ Ĩ
åį° åº¦
èĢģ äºº
åĬŀ åŃ¦
çĹħ äºº
æıĲ éĨĴ
Ġan n
Ġf requ
c m
Ċ Ġ
Ġmax imum
ann ot
ĠIn tern
èĥ Ģ
ĠM iss
ä¹Ł è®¸
å® Ļ
} -
F ind
ç£ ·
éĴ¢ éĵģ
éĿĴ å²Ľ
æĥ³ åĪ°
æĥħ æĦŁ
éĢļ éģĵ
æį ķ
S C
Ġest ab
åĳ¼ åĲ¸
Ġpr ice
Ġcl imate
ä¸¤ äºº
ç© Ĩ
ä¹Ł èĥ½
ä¸į ç®¡
on al
p art
n ces
f low
Ġresp ons
Ġtechn ology
çĶ· åŃĲ
ell ing
ĠP ar
Ġas k
éķ Ģ
çĶ¨ äºº
alle l
Ġpart s
é£İ æľº
k n
b or
Y ou
H T
äº§çĶŁ çļĦ
ç¦ı å»º
Ġres ources
åĬ¨ ä½ľ
" ;
loc al
åį± æľº
è¶Ĭ åįĹ
Ġde ath
] :
æħ İ
æŁ¥ è¯¢
ä¼ĺ èī¯
èĩ³ äºİ
åĬł æĭ¿
Ġmult iple
Ġcount ries
çĭ Ĺ
è¥¿ äºļ
æµ ħ
çĶ¨ æĿ¥
pec ially
è¡¥ è´´
èĭ± æĸĩ
ä¿Ŀ æ¸©
æ±¡æ°´ å¤ĦçĲĨ
å¸¸è§ģ çļĦ
Ġpop ulation
æīĭ è¡¨
èĮ ¨
ç® Ń
ec e
é£ŀ æľº
åįł åľ°
åĬ¨ çĶ»
ä¸Ń æĸĩ
c ing
å·¨ å¤§
è®¿ éĹ®
ç»Ŀ å¯¹
Ġpl ants
å¸¦ çĿĢ
äº¤ æį¢
è¿ĺ ä¼ļ
æľ¬ äºº
åĬ¨ æĢģ
ä¼ļ è®¡
èµ Ķ
Ġd one
ç¦ģ åĮº
éŃ Ĥ
ĠG MT
åĻ ª
æ· Ģ
åħ¨ åĬĽ
çĶŁ æ¶¯
Ġc ustom
ä» °
I R
Ġprob ability
Ġgo ing
æł¡ éķ¿
åįģ åĽĽ
åĢ ¡
] [
Ġprot ect
ç¨İ æĶ¶
Ġqu adr
æ¯ı ä¸Ģä¸ª
æĸ° çĸĨ
t op
t em
å®īåħ¨ çĶŁäº§
è¾ ©
Ġl ink
Ġ ill
"> </
è° ¨
ç¨ Ģ
æ¸ ¡
æĹ¶ å°ļ
ä¸Ĭ ä¸ĭ
Ġanal ysis
one y
our nal
åľ° éĵģ
ä¸Ģ ç³»åĪĹ
çļĦ åĨħå®¹
âĶ Ģ
Ġneed ed
ob j
Ġme et
çº¿ è·¯
æĢ§ è´¨
ad es
m b
I nt
Ġimpro ve
Ġcle an
ä¼ĳ éĹ²
Ġsup er
ĠF ind
è¢ ĭ
qu e
Ġp ay
æĸ ¤
A G
) ^{
bl ock
Ġbl ack
æĤ ¦
æ¼ Ĥ
è¾ Ĳ
éĹ ª
ä¸Ĭ å¹´
L ONG
äººåĬĽ èµĦæºĲ
è¿Ŀ åıį
equ est
Ġexp ected
ord in
åıĺ æĪĲ
ä½Ĩ åľ¨
ä¸» åľº
Ġm ot
åį ¢
Ġcent ury
Ġsc ience
çĮ Ľ
æ¡Ī ä¾ĭ
å¤ĸ è§Ĥ
Ġcon tr
ç¨ į
çľ ł
c all
Ġfe et
å¼Ģ åĲ¯
Ġm ind
æĺ¯ æľī
Ġpat ients
Ġg round
äº ı
F rom
Ġtest s
Ġqu ality
éĩĩ è®¿
åĪ© äºļ
èģ Ĭ
èĤ ĥ
æ² ¦
ĊĠĠĠĠĠĠĠĠ ĠĠ
Ġf und
is ing
éģĹ äº§
å³ ¡
æ±Ł è¥¿
åŃĺ åĤ¨
ĠN orth
ç© ·
ĠT est
Ġn ational
} (
å¹¼ åĦ¿
æĪª æŃ¢
å½¢ åĬ¿
å¹¿ åľº
éĿ¢ è¯ķ
è¾ ¨
a ff
å« Į
éŃ ħ
åŃ¦çĶŁ çļĦ
Ġh aving
Ġs on
] ;
åį° è±¡
Ġso ftware
ast ic
æĶ¾ å¼ĥ
çĿ Ľ
éĥ¨ ä½į
èĢ Ģ
ï¼ į
çİ°ä»£ åĮĸ
åĩºçİ° äºĨ
ä¹¦ æ³ķ
pt oms
åįģ ä¸ī
æľį è£ħ
ç§į ç±»
ç¬¬ åħŃ
æ³ķ äºº
å®¶ åħ·
u el
Ġassoci ated
Ġsur face
å®ŀçİ° äºĨ
bo x
iz er
ou ri
Ġf all
f er
èĮ¶ åı¶
ä¼ĺ çĤ¹
Ġex am
å°Ĩ åħ¶
Ġl ower
ĊĊ ĠĠ
å¾ ¡
a res
R e
Ġfact ors
è¶ħ çº§
å¸Ī èĮĥ
åŁİ éķĩ
çĶµ åĻ¨
Ġl ines
Ġp aper
Ġp ubl
è¾½ å®ģ
åĳ¨ å¹´
ç«ĭ åį³
è¿Ļ ä¹Łæĺ¯
æ³ ³
o res
è¾ħ åĬ©
Ġproduct s
è½» æĿ¾
ç²¾ åĩĨ
Ġv ec
ä¿Ŀ çķĻ
æĽ °
è¿Ļ å°±æĺ¯
åĮ Ģ
C H
æĹłè®º æĺ¯
å¿«éĢŁ å¢ŀéķ¿
è¶³ å¤Ł
æĿ¥ äºĨ
çŃ Ľ
å¿ į
å¤§ éĻĨ
Ġb ool
E n
) }
Ġreg ion
æ¯ı ä¸Ģ
ĠC M
æľ¬ ä¹¦
æľī ä»Ģä¹Ī
' .
Ġactiv ity
Ġgroup s
Ġart icle
Ġstud ent
æĺİ çĻ½
sc ri
æ¯ĶèµĽ ä¸Ń
Ġro le
ç¢ °
ĠD es
æīĢ éľĢ
å¤§ å¸Ī
å¼ ĺ
Ġs ite
O D
N ame
å°Ŀ è¯ķ
Ġeffect s
åĮĹäº¬ å¸Ĥ
éĺ² æĬ¤
éĩĮ éĿ¢
æĥħ å½¢
Ġl ive
s ource
Ġmodel s
Ġsk in
ç²ī ä¸Ŀ
Ġprov ided
åİĭ ç¼©
åĲĪ çī©
çŃī çº§
Ġre ally
le ment
Ã Ĺ
æ°Ľ åĽ´
Ġdiffere nce
èį¯ åĵģ
åĳ¨ åĽ´
Ġwor d
æĶ¹ è¿Ľ
åħ¶ æ¬¡
âĢĿ ï¼Ī
25 6
æī¿ è¯º
ç©º è°ĥ
ä¸ľ åĮĹ
ä¸ľ æĸ¹
ub e
Ġlist ening
æĻļ ä¸Ĭ
åĩĢ åĮĸ
å² Ń
èº« ä¸Ĭ
æľº ç»Ħ
æŀ Ŀ
çļĦ è§Ħå®ļ
æĦŁ æĥħ
å¤ĸ åĽ½
åĮº åĪ«
è¿Ľ å±ķ
ä¸ª ç¯®æĿ¿
æ³ Ħ
g roup
æıĲåĩº äºĨ
çĶ¨ éĢĶ
Ġf ri
Ġknow ledge
ä¸¥éĩį çļĦ
åŃ©åŃĲ ä»¬
åĲ¦ åĪĻ
åĤ ¬
åįł æ¯Ķ
ç¨İ åĬ¡
åĪĩ å®ŀ
ä¸ľ åįĹ
Ġ2 1
å¦ ¹
Ġe y
çĶŁ åŃĺ
Ġgre ater
Ġpartic ip
Ġbl ock
Ġqu e
æĴ ŀ
åįı åĲĮ
åı¯ä»¥ è¯´
å°± è¦ģ
è®¾ æľī
al y
m it
å®¶ äºº
æŀ ª
åİ ¨
æ° Ł
åľ¨ è¿Ļä¸ª
Ġa chie
ĠCon t
Ġdef in
ĠN e
ab ase
ä¹ĭ è·¯
Ġw ind
Ġes pecially
Ġmem bers
IN G
è¿ĲåĬ¨ åĳĺ
čĊ čĊĠĠĠĠ
åı¤ ä»£
åĭ ĥ
æĳ ĩ
æĤ Ł
å®Į ç¾İ
èµ· åĪ°
Ġr a
se qu
æĹ¥ åŃĲ
åĪ° è¾¾
ion e
ĠSt ate
ok en
Ġse par
éģ ¥
å¤ļ é¡¹
å½ °
ä¸ ¢
Ġbuild ing
____ ____
Ġprodu ction
Ġwho le
ç¢ §
åĳ¨ è¾¹
å¾Ī å®¹æĺĵ
ĠC ons
åħ¨ å¹´
åĩº æĿ¥çļĦ
æľī æĹ¶
Ġp age
s k
h ost
èĦĤ èĤ
èĦĤèĤ ª
Ġpre vious
è®² è¿°
ç»Ĩ èĬĤ
Ġcomp on
ag ing
Ġst ory
ĠC L
ig ure
le g
Ġp ri
èģĮä¸ļ æķĻèĤ²
åĬŁ çİĩ
ust er
Ġhe ight
æ¡ Į
iv ity
éĥ½ åı¯ä»¥
el ine
äºº ç¾¤
ĠCom p
é¸ £
æ¿Ģ åħī
ä¸ĭ åĪĹ
åĪĨ æ³Į
æĺ¯ ä¸ª
en n
æĿŃ å·ŀ
å®ĩ å®Ļ
Ġacc ording
æµģ éĩı
æ¡ ¶
å½ĵ å¹´
è¾ Ī
çļĦ èĥ½åĬĽ
v ing
Ġlim it
å°Ĭ éĩį
æ¸© æļĸ
æĢ» éĥ¨
ay out
re en
è¾Ĳ å°Ħ
çĥĪ çļĦ
è½¬ æį¢
her n
im ent
åľ¨ è¿ĻéĩĮ
R ead
Ġnecess ary
Ġdoc ument
Ġincre asing
plic ations
Ġind ex
æķ´ çĲĨ
æĪĺ äºī
Ġch all
ç§į åŃĲ
æĻ °
ĠS up
éĢ ¾
ä¸Ģ çº§
8 00
Ġinequ ality
éĶĢ éĩı
è¯ģ æį®
è·¯ çº¿
èĭ ¯
d frac
äºĭå®ŀ ä¸Ĭ
äºĭä¸ļ åįķä½į
Ġro ot
erv ice
å·´ è¥¿
ç§ĳåŃ¦ å®¶
é¢ Ī
im g
åħ Ħ
b eta
Ġbas ic
çĥŃ æĥħ
Ġde g
ĠD r
Ġit self
ĠC ar
æĮ ¡
ä¸Ĭ åįĬå¹´
åĴĮ è°Ĳ
Ġt aken
ï¼ Ĳ
b ody
åĲĮåŃ¦ ä»¬
æ¬§ åĨł
èŀį åħ¥
èĤ¡ æĿĥ
å¹³ æĹ¶
ect ions
åħ¬ æ°ĳ
åŁ ĭ
C L
Ġ row
æµĵ åº¦
å¯Ĩ åº¦
éĶ »
ĠS ub
Ġh old
åıĳ æĺİ
r ary
Ġproper ty
æľīæķĪ çļĦ
Ġob serv
Ġse en
çĬ ¹
åĮ» å¸Ī
åħ³ å¿ĥ
ä¹Ł å°Ĩ
ä¸ ²
Ã Ń
tools hed
æĹħ è¡Į
Ġcont ext
ps u
æ¡ Ĥ
å¤© çļĦ
qu ery
æľī åĬ©
Ġt akes
Ġent ire
è®² è§£
åıĸ æ¶Ī
å¼Ģ æĭĵ
æĹ¥ çļĦ
iss ions
åº· å¤į
ä»ĸ è¯´
åĪĨ æķ°
éĶĪ éĴ¢
Ġorig in
ä¾ĽåºĶ åķĨ
Ġche m
çĸ¾çĹħ çļĦ
ä¾¿ åĪ©
æĪĲä¸º äºĨ
åĩº åıĳ
Ġc ut
åı ł
çļĦ åŁºæľ¬
çļĦ ä¿¡æģ¯
ĠĠ Ċĉĉ
o ber
Con t
æĹł çº¿
T E
P O
èĪĴ éĢĤ
Ġj ob
äºĶ å¹´
éħ ±
éķ¿ æĹ¶éĹ´
å¤§ å°ı
c urrent
Ġsk ills
é¹ ı
ĠHe alth
Ġrel ig
éļı æĹ¶
ç§° åı·
ĠD ep
am ent
åħ¬ åĬ¡
S c
éŀ ĭ
Ġactiv ities
è¾ĥ é«ĺ
è½¦ ç«Ļ
Ġr ather
ä»£ è°¢
Ġg lobal
Ġd u
b on
Ġmin utes
åĪĨåĪ« ä¸º
Ġim m
ĠG e
åĲį çļĦ
ä¹Ł è¦ģ
å¤ļ å®¶
åĽ½ æ°ĳ
æĺ¯ ä»¥
Ġinf lu
çħ ®
å¤© ä¸ĭ
Ġc ity
ĠĠĠĠ ĠĠĠ
Ġreg ular
è¯Ħ å®¡
çī© ä¸ļ
æľ¬ èµĽåŃ£
b its
Ġfun ctions
å®ĺ ç½ĳ
å°¼ äºļ
æł¼ åħ°
Ġre v
ar ies
at ory
o es
I I
B ut
å¥ĭ æĸĹ
å·¨ å¤§çļĦ
ä¼łç»Ł çļĦ
èĪª å¤©
ä¿® å¤į
éħ ¶
Ġe ff
ç²® é£Ł
mat rix
ward s
Ġact ually
ĠTh us
æĤ ł
éª Ĺ
éĴ »
æĺ¯ åĽłä¸º
n ext
Ġmeas ure
é¡¾ å®¢
æµģ è¡Į
è¯´ çļĦ
è¿ĺ èĥ½
æĸ¹ ä½į
v ec
i ation
5 000
ron t
Ġadd ed
æĵ ¦
è®¤ çŁ¥
å°ı ç¼ĸ
æĮ ¤
åĩº å¸Ń
çº ł
éĢ Ĭ
èĬ¯ çīĩ
Ġgre en
è¡Ģ æ¶²
åĨį çĶŁ
up t
Ġwe ek
æ¯ ģ
el ves
Ġs ix
æĬĳ åĪ¶
ĠTh at
so ft
æĶ¶ è´¹
Ġst ates
im al
st d
è´ º
L O
èĽĭçĻ½ è´¨
IS O
èĵ Ħ
å¤Ħ ç½®
éĶ Ĥ
if ies
g round
3 000
) $.
éģĹ ä¼ł
Ġadd ition
åıį å¤į
è½¬ ç§»
æ°ĳ ä¼Ĺ
iv al
åĬł çĥŃ
ä¹ĭ ä¸ĭ
F alse
ç»ıæµİ åŃ¦
200 4
ĠH ist
Ġcon cept
éĹ´ çļĦ
ĠA m
am ed
ac count
w o
d ig
' ),
åĬłæĭ¿ å¤§
LE D
é¤Ĳ é¥®
^{ \
å§ ľ
çĶµ è·¯
it ude
is ual
Ġens ure
æĲľ ç´¢
åľ°åĮº çļĦ
æī§ æ³ķ
æĳ ¸
å¹¿ è¥¿
ex cept
åĨħ å¤ĸ
Ġa x
r m
çĭ¬çī¹ çļĦ
oun ter
çº· çº·
pos ed
enc ies
æĮĩ æĮ¥
æİ¥ ç§į
op h
çĶµ æºĲ
åľ° è´¨
p ing
D is
èĴĻ åı¤
Ġrese arc
åħĭ æĸ¯
Ġth ird
Ġ ï¼Ī
Ġprov ides
åĵª éĩĮ
å£° æĺİ
æİ§ èĤ¡
æĶ¯ éĥ¨
å°ĳ æķ°
çĻ½ èī²
èº« è¾¹
æ» ļ
çĶ± æŃ¤
up date
it em
or age
p en
% ãĢģ
æŁ ´
ĠC an
ĠA f
å¯ ĵ
ĠĠĠĠĠĠĠĠĠĠĠĠĠĠĠĠ ĠĠĠĠĠĠĠĠĠĠĠĠĠĠĠĠ
ãģ Ļ
åħ» æ®ĸ
å£ ¤
m essage
m ake
G et
ribut es
çľŁæŃ£ çļĦ
ĠW ar
åı ¹
Ġpolit ical
Ġdec re
åł ª
æĥ³ æ³ķ
éª ĳ
éĩĮ æĸ¯
æŁ ı
et urn
Ġcomplet e
Ġform at
çĭ ¼
éĢī æīĭ
åĪ© çİĩ
æľŁ éĻĲ
èĢĮ ä¸įæĺ¯
åĲĮ å¿Ĺ
N ot
æĳĦ å½±
çĻ½çĻľé£İ æĤ£èĢħ
row n
è¾¾ æĪĲ
// //
pl ied
åĴĮ æľįåĬ¡
le vel
ä¸Ģ çº¿
H O
Ġmod ern
èħ °
du c
ust ain
Ġun its
åĨ ¶
åı ī
u k
d ocker
ĠEng lish
Ġlo ad
Ġrel ated
çº³ åħ¥
ãģ Ħ
op en
em ic
æ¯Ķ åĪĨ
å®ļ åĪ¶
ä¸į éĶĪéĴ¢
åħ ½
i ke
Ġcont ains
è¿ĩ çļĦ
M I
é¼ »
åĽ¾ åĥı
ç§¯ ç´¯
æģ °
èĬ ¬
å°± åľ¨
åĲĪ éĢĤ
ĠStr ing
Ġele ment
å¾® åįļ
æĴ ¤
ï¼ģ âĢĿ
æ£ ĭ
å¢ŀ åĢ¼
çĶµ æľº
ï¼ī ï¼Ľ
ä¸ª æĢ§
Ġf lo
ä¸Ģ å¸¦
Ġwrit ing
Ġperson al
çĩ ķ
Ġcomm and
éħį å¤ĩ
Ġex c
ir us
æĪ Ī
Ġav oid
èĭ± éĽĦ
çİ¯å¢ĥ ä¿ĿæĬ¤
ç»Ļ äºĨ
æ® ¿
å¾Ī æľī
å½ĵ äºĭ
00 1
ä¸Ģ ä»½
ä¸ §
resp ond
åįĵ è¶Ĭ
Ġmark et
Ġet c
ä¹Ļ çĥ¯
Ġbo x
rib ution
ail y
æĬĬ æı¡
æīį æĺ¯
ĠG r
ri ed
èµĦ åĬ©
w ise
$ (
č ĊĠĠĠĠĠĠĠĠĠĠĠĠ
Ġstruct ure
æ¶Ī åĮĸ
åĽ½å®¶ çļĦ
ĠP er
èī ³
æĭ ¨
ä¸Ń è¶ħ
or ch
O ne
çļĦåŁºç¡Ģ ä¸Ĭ
Ġsym ptoms
Ġanal y
Ġins ide
å¤ı åŃ£
è¯¾ åłĤ
è¿ĺ åľ¨
åīį æĻ¯
çĶ¨ æ°´
Ġdiv is
Ġdevelop ed
çľ¼ çĿĽ
æĬ¥ å¯¼
åĬł éĩį
æĺ Ĥ
æķ°åŃĹ åĮĸ
// !
èį Ĵ
ain t
ä¸º å®¢æĪ·
å¼ ¯
en v
å¤ ¹
i ot
Ġunderstand ing
Ġquest ions
çĨ Ĭ
Ġstud ies
ç½Ĺ é©¬
æ¸ħ æĻ°
çļĦ ä½¿çĶ¨
d en
Ġmin imum
ç§ĳæĬĢ åĪĽæĸ°
è½¬ ä¼ļ
èĥ º
æĽ´ æľī
ç½ Ĳ
åī ª
Ġn ut
in line
D es
éĤ® ä»¶
ç»ıæµİ åıĳå±ķ
æĸ ľ
) }\
Ġpriv ate
Ġnet work
åĽ¾ä¹¦ é¦Ĩ
Ġiss ues
æħ¢ æĢ§
å®¡ æī¹
æĶ¶ è´Ń
èĥ ģ
Ġb ir
åŃ Ŀ
L T
Ġ! =
Ġwrit ten
æ·±åľ³ å¸Ĥ
Ġmethod s
èĳĹ ä½ľ
ç¾¤ ä½ĵ
Ġ3 1
ä¸ĩ å¹³æĸ¹ç±³
æŁ ³
ri ver
åħ¥ éĢī
çĸ ¼
ĠA fter
æ± Ĺ
Ġd am
ic a
åº Ļ
F irst
C C
äºĮ çº§
æĪĳä»¬ å°Ĩ
ac ro
ä»¥ å¤ĸ
A t
ä¼łæĦŁ åĻ¨
Ġbehav ior
è½¨ éģĵ
å±±ä¸ľ çľģ
çī¹ å®ļ
çĸ ²
el if
Ġm id
Ġw on
o ch
k w
b ut
F A
Ġpress ure
çĽ¸åºĶ çļĦ
åı¦ä¸Ģ æĸ¹éĿ¢
ç´§ å¼ł
äº§ä¸ļ åıĳå±ķ
le ep
Ġb it
F orm
çĶ¨äºº åįķä½į
ĠQ u
çĸ«æĥħ éĺ²æİ§
æįŁ å®³
è¡Ģ åİĭ
Ġint rodu
ä¾Ŀ çħ§
è§Ĥ å¿µ
æŃ£ è§Ħ
åıĳ åĩº
ä¸į å¥½
Ġmus ic
éģµ å®Ī
anc ed
ract ion
åĭ ĺ
æĸĩåĮĸ çļĦ
åŀ Ĥ
st atic
äºº æĸĩ
Ġeff ort
é«ĺè´¨éĩı åıĳå±ķ
Ġredu ce
çĩĥ æĸĻ
æĺİ æĺŁ
åĲĮ æŃ¥
åħ¨ æĸ°
ac hes
u ary
c rate
. )
ç¦ģ æŃ¢
æłĳ èĦĤ
å¥ĸ åĬ±
èĲ¥ éĢł
ä¼ł éĢĴ
é¦ Ī
çŃ ĭ
ä¸į çŁ¥
Ġvis ual
Ġexper i
Ġfact or
Ġup date
port un
çĹħ ä¾ĭ
æ°Ķ æ¸©
æĮģ æľī
å¾Ī é«ĺ
æĬ Ľ
åĲ Ĭ
f iles
Ġinst ance
æİ¢ è®¨
par se
Ġev ents
ä¾Ŀ èµĸ
æħ °
Ġab ility
çĶŁäº§ çļĦ
Ġus es
çľĭ æĿ¥
è¢ Ń
ç¼ Ĩ
Ġst ress
æĸ° åĮº
im ately
Ġth ough
ä¸ª ä½ĵ
kn own
çºº ç»ĩ
olv ing
Ġph ot
åįģ äºĶ
è§Ħ å¾ĭ
e vent
b ed
O n
icro soft
oun c
æ¾³ å¤§åĪ©
Ġrec ogn
Ġact ive
ĠM in
å» Ĭ
æĭ ĸ
å¹´ åĪĿ
~ ~
O b
æīĢå¾Ĺ ç¨İ
æµĻæ±Ł çľģ
éĿĴ å°ĳå¹´
åĪĨ éħį
è´ ¤
Ġ ,
Ġincre ased
Ġev al
åĬŁ æķĪ
é£ ĺ
åĲĮ ä¸Ģ
ä¹Ł æ²¡æľī
ad a
t ags
C P
åĨ¬ åŃ£
çĶ» éĿ¢
æłĩåĩĨ åĮĸ
ä»Ĭ æĹ¥
èĬ ½
éĥ¨ éķ¿
ä¸ĭ åİ»
å¼ ¥
æľ ´
çļĦ åħ³éĶ®
é ³
p ush
æ¾³å¤§åĪ© äºļ
Ġexact ly
åī§ æĥħ
ke ys
ist ry
ad ata
ve y
Ġre comm
Ġdev ice
çħ¤ çĤŃ
æĢİ æł·
ä½Ľ æķĻ
åŁİ åĮº
iz es
è½¦ åŀĭ
å·¥ä½ľ ä¸Ń
éĥ½ è¦ģ
åħ³ èĬĤ
ĠA PI
Ġth us
çĽ Ĩ
çļĦ ç®¡çĲĨ
g o
Ġstr ateg
æļ ĳ
éŁ ¦
åıĺ æĽ´
åıĹ çĲĨ
ang o
æĶ¶ èİ·
æĦı å¤ĸ
ĠA ct
è¿Ļ éĥ¨
Ġm ass
Ġc ame
on y
çļĦ æľºä¼ļ
å°º å¯¸
Ġfam il
Ġbu ilt
åį« æĺŁ
bo ard
æĸ° æĹ¶ä»£
h ib
èĬĤ çº¦
çľĭ è§ģ
éķ¿ æ±Ł
ig r
Ġm ag
ä¸į åĬ¨
åħ Ĩ
Ã §
æĶ¿åºľä¿¡æģ¯ åħ¬å¼Ģ
col or
Ġass ess
ne y
çĥŃ æ°´
å¸¸ è§Ħ
äº§ èĥ½
g ed
Ġiss ue
çļĦä¸Ģ äºĽ
art ment
å·² æľī
ä¸ĵ é¢ĺ
ä¸Ģ æī¹
çļĦ çİ¯å¢ĥ
Ġneg ative
sa fe
expect ed
åĺ ´
port s
ä¸ī è§Ĵ
ç½ ©
å¸ ½
åľ¨ ç¾İåĽ½
j s
æĮ¯ åħ´
è¸ ¢
æķ°æį® æĺ¾ç¤º
ĠU LONG
åĽ½å®¶ åĴĮ
ä¸ĵ çĶ¨
æ° ®
n a
Ġ util
æĹ¨ åľ¨
ç§Ł èµ
yp es
æĲ ŀ
å®ĥ æĺ¯
è¾ĥ ä½İ
è°ĥ çłĶ
åģļ äºĨ
Ġg raph
en ed
çļĦ è¿ĩç¨ĭä¸Ń
Â ł
p at
ç§Łèµ ģ
Ġeng ine
Ġprof ess
li ke
---------------- ----------------
ech an
åĨ· åį´
èµ° åĲĳ
Ġsh ows
ç®¡çĲĨ å±Ģ
æĹł äºº
æľ¬ åľ°
åĬĽ åĴĮ
ad o
æµ ı
åº ŀ
åħī ä¼ı
ĠD is
Ġst op
åĬł åĿ¡
or ks
F ield
åħħåĪĨ åıĳæĮ¥
Ġfollow s
Ġsa f
Ġtr aining
è®© ä½ł
å¼º å¤§çļĦ
ä¹Ł åı¯
Ġl ot
p ost
æ²¦ ä¸º
å°ļ æľª
è´¢ å¯Į
ãģ «
æļ ¨
é¦ĸ å¸Ń
for d
åħ± è®¡
ä¼ł è¾ĵ
è¿Ĳ ä½ľ
åĲĦ ä½į
Ġn ormal
Ġanim als
ç¡¬ ä»¶
æī© å±ķ
åİĨåı² ä¸Ĭ
å®ĮæĪĲ äºĨ
ãģ ¯
ä¿Ŀ åŃĺ
ä¼ Ĳ
" ),
Ġresearc hers
med i
åı¯èĥ½ æĺ¯
é¢ ĸ
ä¸į éľĢè¦ģ
åĲ Ĳ
æľ µ
çļĦ åºĶçĶ¨
ä¸ ĺ
ç¼ĵ è§£
min ist
å»ºç«ĭ äºĨ
Con clusion
ĠN o
ĠB r
å¹ ½
s ave
f ort
" ).
ä¼ĳ æģ¯
ãĥ ³
æīĭ ç»Ń
çľĭ çľĭ
ĠR eg
ri p
çĶµ ç«Ļ
å®ŀ ä½ĵ
Ġn ames
å¤§ è¿ŀ
t an
p m
l ength
Ġpr inc
è¾ĵ åĩº
æĭħ å¿ĥ
å¾· éĩĮ
Ġcom es
åıĬ ä»¥ä¸Ĭ
æ³ķ å®ļ
Ġl iving
çļĦ çĽ®æłĩ
p ress
Equ al
der ive
è¶ħ è¶Ĭ
æł¼ å±Ģ
çĪ ·
æľ¬ å±Ĭ
æĹ¥ çĽĬ
æĬ ¼
Ġm icro
æ²³åįĹ çľģ
ä¾ĽåºĶ éĵ¾
çĶµè§Ĩ åī§
equ iv
å»¶ éķ¿
Ġar ch
éĢł åŀĭ
æ¶ Į
å®ŀ åľ¨
å®¶ æĹı
å¯¹ åħ¶
ä¸º æĤ¨
Ġf ill
çļĦ ä»·æł¼
çļĦ ç²¾ç¥ŀ
T P
å®Ĺ æĹ¨
ild ren
åĽ¢ ç»ĵ
ect s
ĠC o
æĽ Ŀ
ä¸İ æŃ¤
Ġre le
ac hed
O P
ä¸ĩ ç¾İåħĥ
Ġ( \
å¯¹ éĺµ
le y
er a
in ct
ĠMiss ouri
Ã¶ r
Ġmed ical
çŃ¾ çº¦
ä¾Ŀ æīĺ
æĮĩ å®ļ
æĬķ è¯ī
åħ¬ å¹³
ut ing
å¤§ æ°Ķ
l ic
ä¸Ģä½ĵ åĮĸ
ĠInd ia
æĹĹ ä¸ĭ
itt ed
Ġeffect ive
Ġer r
Ġap ply
Ġcl os
åįģ åħ«
ĠP e
æľĪ åºķ
æĸ° åĬłåĿ¡
æĪĳ åľ¨
ĠEar th
å¥¥è¿Ĳ ä¼ļ
æĽ¿ ä»£
Ġop portun
ä¸Ĭæµ· å¸Ĥ
åĪĿ æŃ¥
Ġman agement
å¸¸ å¸¸
ä¹ĭ ä¸º
æĸ° åħ´
çĲĨ å·¥
ä¼ļ éķ¿
çļĦ çĽ¸åħ³
u fact
) \
ç»Ī ç«¯
æ¶Ī éĻ¤
æĪĺ æĸĹ
è¥¿ æĸ¹
oc ks
Ġn ode
as c
æĺ¯ éĿŀå¸¸
Ġt able
u ck
s rc
S er
= \
Ġ 90
åĢº åĪ¸
èº«ä½ĵ åģ¥åº·
æ¶Ī èĢĹ
ç®¡çĲĨ ä½ĵç³»
ĠN ot
æ°Ķ è±¡
èį ¡
ä¸į äºĨ
ä¸Ģ ä½ĵçļĦ
Ġc at
s plit
S elf
bu ild
æĢ» è£ģ
æĹł çĸĳ
os is
æľŁ è´§
un t
l ink
H e
Fl ags
Ġgrow th
Ġappro ach
æ·· åĩĿ
æħ¢ æħ¢
æ¯ķ ç«Ł
æĻºèĥ½ åĮĸ
æĿĲæĸĻ çļĦ
Ġsh are
åİŁ æľ¬
åĲĦ èĩª
ĠM ay
æĪĳä»¬ åı¯ä»¥
éĢļ çĶ¨
é«ĺ æĸ°æĬĢæľ¯
Ġc lo
m ain
b ased
M S
ounc il
Ġmean ing
æ±Łèĭı çľģ
å½¢æĪĲ äºĨ
Ġact ual
å·® è·Ŀ
å½¢ æĢģ
åİŁ æĿ¥
ĠB rit
èĥ ¸
ist ics
åħ¬ ç¤º
çº ²
y per
d iv
) ?;
æĸ°èĥ½æºĲ æ±½è½¦
Ġdoes n
éĢı éľ²
Ġcl aim
Ġdo ct
èħ Ĭ
è¯ķ ç®¡
Ġun ique
æľįåĬ¡ çļĦ
Ġr atio
éĩį çļĦ
ĠS im
èµ ¤
Ġs ound
çļĦ å®īåħ¨
r ing
éĢĢ ä¼ĳ
čĊ ĉ
èģļ çĦ¦
cl es
å·² æĪĲä¸º
åıĳ è¾¾
st e
re ed
[ :
M odel
ĠGerm an
è´¦ æĪ·
ribut ed
éĢĶ å¾Ħ
éĩĬ æĶ¾
çģµ æ´»
æŁĲ ç§į
åĿļ å®ļ
çģ« éĶħ
åĶ® åĲİ
æķ°æį® åºĵ
è®¾è®¡ çļĦ
æ¯ı æ¬¡
å½¢ çĬ¶
æĢ» å±Ģ
ew ork
æİ¥ ä¸ĭæĿ¥
é£İ æĻ¯
éľ ¸
æıĲ ç¤º
ic ial
g y
c ome
ĠAf ric
æľīåĬ© äºİ
æ¶µ çĽĸ
æ¶² ä½ĵ
200 3
èĮ ħ
éĺŁ ä»¥
Ġ2 3
èµ ļ
t arget
Ġparent s
ä¼¦ æķ¦
åĬ³åĬ¨ åĲĪåĲĮ
Ġrem ain
æħ ķ
cl ude
æ°´ æ³¥
æĻ Ĵ
ly ing
å®ŀ çĶ¨
p are
l oss
è¯» èĢħ
åı¦ ä¸Ģä¸ª
all s
ä¸ľ äº¬
:: <
å¸Ĥ æĶ¿åºľ
æł ĭ
é¢Ĺ ç²Ĵ
é¢ĳ çİĩ
åĽŀ çŃĶ
ç²¾ åº¦
ld ots
çķ ľ
åĨħ å¿ĥ
æ³ ª
åĴ ĸ
äºº åĴĮ
f ree
çĶ· æĢ§
cl ud
åĮĹ éĥ¨
ä¸¤ æ¬¡
æĽ´ é«ĺ
å§ »
æĹ¥ ä¸ĬåįĪ
am s
ä¸Ĭ æĺł
å¥ ł
å¥ Ī
è¡ Ķ
l ambda
å°½ å¿«
æīĵ åį°
åģļ çļĦ
ab led
Ġst atus
å¤ļ å¹´æĿ¥
çĽ ²
Ġt ell
éĺ¿ å°Ķ
è¢« ç§°ä¸º
èµ· éĩį
æĥ ĳ
åī Ĭ
Ġt ask
h ood
Ġmonth s
æĥ³ è±¡
ĠM on
am in
åĬ £
p g
å®Ĺ æķĻ
Ġsol d
çľĭ èµ·æĿ¥
f ect
Ġbl ue
Ġqu ick
åĳĬ çŁ¥
Ġsh own
åħ± äº§
æº ¢
é¦ ¨
èĥ½ åľ¨
èĩ £
T otal
Ġ ê
äººæīį åŁ¹åħ»
Ġcol lect
äºĴ çĽ¸
ä»Ĭ åĲİ
Ġun it
æķĪ åºĶ
ĠE d
åīį è¿Ľ
åīį çļĦ
çĲĨ çĶ±
im in
Ġf iles
an ch
S D
Q u
N o
Ġtemper ature
Ġmaterial s
éĢı æĺİ
åıĳå¸ĥ çļĦ
ä¾¿ æĺ¯
å½ĵ ä»£
çĤ Ĵ
å°± æľī
if ier
ä¸Ģ æĸ¹éĿ¢
o on
i ers
serv ice
Ġserv ices
Ġright s
Ġinst ead
ç§ĳæĬĢ æľīéĻĲåħ¬åı¸
åĽŃ æŀĹ
æ°´ çļĦ
éĩį å¤į
et erm
Ġt ax
è ©
p an
Ġpract ice
æ½ľ åĬĽ
Ġpat ient
Ġadd itional
æķħ éļľ
å¥³ åŃĲ
Ġ2 2
èĬ Ŀ
æĽ ¹
le ge
æľī åĪ©äºİ
Ġhtt p
Ġarg s
Ġrem ov
æłĳ ç«ĭ
Ġ201 6
ç¿ °
è´§ çī©
åģ¥ åħ¨
åĨľ èį¯
åĽŀ å½Ĵ
å¸Ī çĶŁ
åĲĦ åĽ½
ç¬¬ ä¸ĥ
æĸ° å»º
é¢ ĩ
ä¸į ä½Ĩ
éĢ »
å¼ Ħ
æ©¡ èĥ¶
åıĳåĬ¨ æľº
Ġcomput er
ç§ĺ ä¹¦
èľ Ĥ
ER S
åĦ Ĵ
åĵį åºĶ
æ°ĳ çĶŁ
æĽ´ æį¢
Ġb ar
m ission
Ġide a
Ġhist or
Ġhealth y
Ġprodu ce
åĲĪä½ľ ä¼Ļä¼´
çº¿ ä¸ĭ
pl ate
ç»ı è´¹
çŃī é¢ĨåŁŁ
Ġh ost
Ã £
P ath
è´« åĽ°
Ġlong er
tr a
å¯¼ å¸Ī
ĠD ec
èµ· äºĨ
ç¥ Ń
çĽ¸ ç»ĵåĲĪ
çĶ¨ åĵģ
ä¸į å¤Ł
å¥ī çĮ®
Ġinteg ers
irect ory
è¯» ä¹¦
çĻ¾ å¹´
ç¤¾ä¼ļ ä¸»ä¹ī
éĤ£ éĩĮ
åįģ å¤§
ĠF l
Ġcon duct
ac ity
P D
ĠRes earch
åİļ çļĦ
çĻ¾ å§ĵ
ç±³ åħ°
è£ħ ä¿®
å¾Ī å°ĳ
ab it
ĠA g
å¤ļ å¹´çļĦ
åŃ¦ çļĦ
ä¸į ä¹ħ
æĺ¯ å¯¹
b an
æĽ´å¥½ åľ°
Ġele ments
Ġmem ory
é¹ ¿
par ser
]( #
è¿Ļä¸ª éĹ®é¢ĺ
å¥³ åŃ©
è¯· æ±Ĥ
çĶŁäº§ çº¿
Ġtr avel
çħ Į
è¯¥ åħ¬åı¸
æŃ¤ æĹ¶
æ°´ åĪ©
æĪĳ æĥ³
Ġh ref
çĶŁ æĪĲ
Ġd raw
Ġc al
Ġt aking
d ec
a uth
W ith
Ind ex
Ġbook s
ĠSt ud
ç§ĳåŃ¦ éĻ¢
Ġnot e
ĠD ef
ver se
æľ¬ æ³ķ
ä¸Ĭ éĿ¢
st ream
åĮ ł
å· ¢
Ġf ish
u ate
m aster
m ar
c ap
1 10
æµı è§Ī
irt ual
Ġtrans form
ren g
æĵ ħ
æ°ĳ éĹ´
å§ ¿
æĢ§ æł¼
èĤ ĸ
Ġn ature
æī ®
re q
att le
é¼ ł
é¼ İ
æ¿Ģ ç´ł
åĿĩ åĮĢ
Ġcont act
éħ ·
ĠS er
st ore
çļĦ è´¨éĩı
çļĦ ä¸ŃåĽ½
k ens
g a
a a
` .
Ġenvironment al
Ġdirect ly
æ¯ı æĹ¥
èĲ¥ æĶ¶
èİ İ
Ġw alk
ä¸įå¾Ĺ ä¸į
é¥° æ¼Ķ
åĤ¨ å¤ĩ
act ions
å®¹ éĩı
ĠW ed
çłĶ è®¨
çĥ ¤
æľĪ çļĦ
åĩº åı°
g s
N O
M ap
sy ch
çĦĬ æİ¥
å¢ŀåĬł äºĨ
æĿĳ æ°ĳ
å¢ĥ åĨħ
ä¹¦ éĿ¢
ĠH is
æ· ĭ
å¢ ĵ
Ġ$ -
ĠS ee
æĢ Ĵ
çļĦ åħ³ç³»
â Ī
A A
Ã£ o
Ġopt ions
æ¡£ æ¡Ī
é¡¾ éĹ®
èĭı å·ŀ
æıĲä¾Ľ çļĦ
çİĩ ä¸º
èİ ī
ä¿¡ ä»»
ĠP ol
æĬĢ å·§
å¼Ģ å·¥
âĢĿ ãĢģ
Ġto ok
Ġm essage
I G
' re
Ġappe ar
èķ ´
çļ®èĤ¤ çĹħ
åĪļ åĪļ
Ġcons ist
ä¿® è®¢
éĿŀ æ³ķ
ä»¶ äºĭ
ä¸Ĭ ä¸Ģ
åĴĮ æĬĢæľ¯
c an
Ð° Ð
è£ģ åĪ¤
ĠCh ina
çħ§ æĺİ
å² ³
ç®¡çĲĨ çļĦ
ĠE l
éĺŁ åľ¨
çĥ Ĥ
æĹ¥ ä¸ĭåįĪ
ä¸ļ åĨħ
æľī å®³
æĺ¯ æľĢ
çļĦ çī¹çĤ¹
å½¼ æŃ¤
doc s
Ġreg ard
åĩı è½»
ä»» æĦı
æį® æĤī
ĠC ON
ä¹ĭ å¤Ħ
Ġg ame
æĹ¥ æĬ¥
åĩº åľº
åŃ Ł
u i
h a
P A
èµĶ åģ¿
æ¡Ĩ æŀ¶
aw ait
In st
åĩºçİ° åľ¨
ms elves
ry pt
ens ive
è¯Ħ éĢī
è¯Ħ ä¸º
act ive
iv il
å¸¸ åĬ¡
Ġal t
ĠT e
è¿Ļ ä¹Ł
ar ily
åĪ ¹
p ol
ĠAmeric a
Ġvis it
å¯Ĩ å°ģ
å¾® çĶŁçī©
Ġtr a
åıĤ æķ°
ç»Ł çŃ¹
åĨħ åľ°
é«ĺ èĢĥ
åıĳ æĶ¾
æĮĸ æİĺ
Ġlarg er
éĤ ĵ
å±Ģ éķ¿
äº§åĵģ è´¨éĩı
ĠThe n
ä½¿ åħ¶
å®ŀ æĹ¶
ĠS ystem
us ed
æĭ Į
Ġd aily
Ġthe mselves
y l
Ġ ...
æĬ« éľ²
è´¯å½» èĲ½å®ŀ
å¸¦æĿ¥ äºĨ
åĲī æŀĹ
åī¯ ä¸»ä»»
æĻ® åıĬ
ç¦ ½
Ġhe at
ĠF e
ĠR ep
ur ch
è¿ĩ äºİ
ä¸į åıĹ
ä¸į çĶ¨
on str
çļĦ åŃ¦çĶŁ
è© ¹
Ġbre ak
ĠG ener
å¾Ĺ åĪĨ
ig in
ä¸º æŃ¤
Ġp ref
s m
c ases
Ġeconom ic
èĳ¡èĲĦ éħĴ
Ġeas y
ĠL icense
èĪ Ł
Ġex erc
æĸĩ çĮ®
çŁ Ľ
ce ed
éĥ İ
Ġg as
ĠS et
åĩº ç§Ł
Ġc opy
Ġc ross
Ġess ential
å§Ĩ æĸ¯
Ġcor respond
æ´»åĬ¨ çļĦ
è¥¿ åįĹ
æĬĢæľ¯ åĴĮ
ä½ĵ åĪ¶
çļĦ ç¾İ
S ize
è¯¸ å¤ļ
æŃĮ æĽ²
èĲ½ åľ°
Ġwe b
Ġy et
å¸Ĥ æĶ¿
Ġl ives
Ġe p
Ġm oney
al ign
re ate
Ġa w
çļĦ ä¸ľè¥¿
çļĦ é£Łçī©
t ag
c p
å½ĵäºĭ äºº
å½» åºķ
åħĪè¿Ľ çļĦ
æľīåħ³ éĥ¨éĹ¨
åľŁ å£¤
ãģ Ĺ
åŃ£ èĬĤ
ĠE ach
æ¯Ķ äºļ
èģ ª
im ages
çļĦ ä¸ĸçķĮ
x x
R equest
Ġ åĴĮ
çº½ çº¦
Ġser ver
æķĳ æı´
åĬ³åĬ¨ èĢħ
å¨ģ èĥģ
ç®Ģ ä»ĭ
Ġall ows
ç§° ä¹ĭä¸º
çº¦ ä¸º
æīĵ çł´
åı¯ä»¥ éĢļè¿ĩ
æ± °
å¯¹ æ¯Ķ
ä¸Ĭ æľī
æł ª
Ġd ou
ä¸Ń åĮ»èį¯
Ġb acter
Ġt ree
l ast
d el
c annot
åĢº åĬ¡
Ġdef ined
å·´ èĲ¨
æĴ Ĵ
è®¾è®¡ å¸Ī
å°Ķ çī¹
å¯¼ åĲĳ
å°ı åŀĭ
æĪĲ äº¤
å·¥ äºº
ä¸Ń éĹ´
n ers
Ġ 80
éŃħ åĬĽ
éĥĳ å·ŀ
Ġread ing
tern al
æĵ İ
Ġro ots
çģ« ç®Ń
ç²¾ åĵģ
æ£ ļ
ä¸ĩ äº¿åħĥ
åĲĦ çķĮ
çī© åĵģ
ĠA ust
åľ° éľĩ
st ars
or ing
èĲ¥ä¸ļ æĶ¶åħ¥
è¿İ æĿ¥
Ġinter val
log ger
æĹħ å®¢
èĭ± è¶ħ
å¡ ĺ
åĨį åº¦
pe ed
ĠR ec
éĴ ł
Ġf ail
R ef
è¾ħ å¯¼
ĠSc ience
çŃĶ æ¡Ī
Ġsim ply
Ġcomp any
éļ¾ åº¦
è¶ħ å£°
è£ ķ
åįķ åħĥ
æµģ éĢļ
å¼ı çļĦ
ç² ¤
å¤ĸ éĥ¨
å¦ Ĩ
æ¸ Ķ
Ġd ie
k g
é«ĺéĢŁ åħ¬è·¯
åĩ» è´¥
ens or
å½± åĥı
ä»İ ä¸ļ
ch ar
ir m
Ġfor ms
å®ŀ è®Ń
ec ause
h ash
L og
+ +
bre ak
pon ame
ãĤ Ĵ
è¿ľ ç¨ĭ
å¤± è´¥
å¤ª å¤ļ
åĲĮæĹ¶ ä¹Ł
ab et
Ġl ack
æµ ´
re poname
éģŃ éģĩ
Ġsol utions
è¾ĵ éĢģ
è´Ń çī©
æ¶Ī æ¯Ĵ
å¯¼ ä½ĵ
è¿Ľ åĩºåı£
å®¶ å±ħ
Ġpubl ished
ĠWh ile
éļĶ ç¦»
Ġac cept
éĴ¢ ç»ĵæŀĦ
Ġad ult
æ¨¡ æĭŁ
è®° è½½
è§Ĩ ä¸º
æķĻ æĿĲ
Ġf ace
â Ĺ
b a
D A
èĤł éģĵ
æĭĽ åķĨ
çŃĸ åĪĴ
tr ue
çłĶ åĪ¶
åı¯ åľ¨
çļĦ è¿ĩç¨ĭ
} ),
r upt
p ace
æ··åĩĿ åľŁ
æĶ» åĩ»
è§Ħ æł¼
ä¸ī æĺ¯
åĿ ª
å¼Ģ è®¾
ä»¬ çļĦ
Ġh arm
çĽ Ĵ
ä» ²
inst ance
Ġschool s
Ã¤ r
å©ļ å§»
çīĽçļ®çĻ£ çļĦ
Ġup on
æĪĺ èĥľ
éĽ ĩ
ä¾ ł
èĤ ©
çŃī å¾ħ
Ġl iter
æľī åºı
g ener
N T
E L
Ġfe atures
Ġrem aining
sh ape
ra ise
èĬ± åĽŃ
ire ction
ä¸ĵä¸ļ æĬĢæľ¯
200 2
ĠE duc
ĠH T
å¤ļ æķ°
ç» µ
Ġs ociety
er ate
\ /
U p
éŃ ı
ĠY ork
åºĶçĶ¨ ç¨ĭåºı
æ¨¡ åĿĹ
ä»ĸä»¬ åľ¨
æľį çĶ¨
ĠM od
ap an
ĠC al
å®¶ éĩĮ
åĪĨ è§£
Ġc ook
he m
r ange
j ango
ä¸İæŃ¤ åĲĮæĹ¶
è´Ŀ å°Ķ
æ¶² åİĭ
çļĦäºº çĶŁ
æĺ¾ çĦ¶
æ¶Ī å¤±
å¤į è®®
æİ¥ æĶ¶
Ġr andom
æ´» åĬĽ
ul ate
s im
Q L
æ¬£ èµı
des cription
Ġvol ume
åİ¿ çº§
èħ ¿
çħ§ é¡¾
å®¢ åľº
èĦ Ĩ
åħ¬åı¸ åľ¨
æľĢ ä¸º
è° Ĭ
um an
ĠA rt
é«ĺ åİĭ
Ġc m
æİĪ äºĪ
çĪ± å¿ĥ
åįĹ æĸ¹
éª ¤
æľŁ çļĦ
ç³ Ĭ
åĲĮ äºĭ
æ± ģ
æĪĲ æķĪ
he nt
a uthor
A I
Ġdr ug
çŀ ¬
leq slant
éļĲ æĤ£
Ġthrough out
Ġrec ent
æī© æķ£
ç§» æ°ĳ
è¾ĵ åħ¥
åł µ
å¹² åĩĢ
200 1
pl ot
ri ve
æĽ´ å¤§çļĦ
ä½ĵ æ£Ģ
ĠS outh
çŃī åľ°
è¡ ·
Ġs ustain
çļĦ ç¬¬ä¸Ģ
Ġpri or
èĤº çĤİ
Ġpop ular
assert Equal
æ¼Ķ åĶ±
å¤ĩ æ¡Ī
èĪ °
æį® äºĨè§£
Ġ( -
ĠC ount
ä¹Ł å°±
Ġl ove
æ³ Ĭ
æľī å¤ļ
h ouse
c at
ĠCL R
Ġlarg est
ä¾Ŀ éĿł
è¯Ħ è®º
æĢĿ è·¯
åįı ä½ľ
ä¿¡æģ¯ æĬĢæľ¯
é¥ ¼
äºĮ æ°§åĮĸ
æĹł éľĢ
Ġv iol
ic les
Ġs un
at ives
ãĢ Ķ
math bb
ç®Ģåįķ çļĦ
Ġsc ale
æ» ©
ĠR ev
è¿ĺ æ²¡æľī
am ma
om ial
Ġan c
ãĢ ķ
v ari
A d
Ġsuccess ful
å¡Ķ å°Ķ
åĸľ çĪ±
å»ºçŃĳ éĿ¢ç§¯
éĩįè¦ģ çļĦæĺ¯
ç²¾ å¯Ĩ
he st
s amples
X X
Ġ ir
Ġ il
Ġclo se
ç§ī æī¿
æĲº æīĭ
Ġrece ived
ãĤ ĭ
æ¿Ģ åĬ±
Ġqu ant
ĠJ ul
å¿ħ çĦ¶
å¼ķ æĵİ
ug e
ä¼ł åªĴ
ag on
æ¸ ´
ä»¥ ä¾¿
p ool
Ġ ut
çĥĺ å¹²
ç¼´ çº³
å¯» æ±Ĥ
yn am
æ¤ Ĵ
çķĻ ä¸ĭ
å»ºè®¾ çļĦ
èĦ ¾
ĠD ata
éħ ¿
ä¸ī åįģ
åħ¥ äºĨ
Ġ- \
çŁ ©
am m
å¯¹ è¯Ŀ
ä¸į åľ¨
an a
o ke
åģľ è½¦
Ġman ufact
åģ¥ èº«
arg e
éŁ µ
çłĶç©¶ ä¸Ńå¿ĥ
éĤ£ æł·
å¹³ ç¨³
æ¬¡ åĬ©æĶ»
æŁ ľ
ĠA b
æĪĳ æĺ¯
åıĳ è¨Ģ
ä¸į å¼Ģ
ï¼ ĳ
o T
c ast
Ġindust ry
æħĪ åĸĦ
OR D
è·¨ å¢ĥ
çĹĽ èĭ¦
ç¨³å®ļ æĢ§
é¾Ļ å¤´
ä¸ªäºº ä¿¡æģ¯
èĥ½åĬĽ åĴĮ
Ġcomp et
æĹ¶éĹ´ çļĦ
éĵ ħ
åº¦ åģĩ
ä½ĵ ä¼ļ
Ġn ation
ä¸į è¶ħè¿ĩ
at tr
l ong
S P
Ġconst ant
Ġco ordin
å© Ĩ
æľªæĿ¥ çļĦ
çĶµåŃĲ åķĨåĬ¡
äº« æľī
åĳ³ éģĵ
æĭħ ä¿Ŀ
èİ· å¥ĸ
ç©¶ ç«Ł
å¹¿ æĴŃ
de red
Ġr ule
Ġst reng
åĪĨ åĴĮ
im s
åİ Į
åıĳ éĢģ
ed ia
Ã ¼
éĢ» è¾ĳ
éĶ» çĤ¼
Ġconc ern
èĢ¶ ç¨
èĢ¶ç¨ £
Ġdem onstr
è¿Ļä¸Ģ çĤ¹
è´¢ äº§
Ġ& '
æĤ£èĢħ åľ¨
ft y
Ġon line
æ¬ ł
è¿Ļ ä¸¤
éĻ Ģ
æī Ń
çļĦ æķĪæŀľ
èĳĹåĲį çļĦ
math bf
anc ial
èĤ ¢
s ystem
d omain
c a
Ġmat ter
Ġvari ety
Ġgener ally
Ġatt ention
åĪ¤ åĨ³
åŃ©åŃĲ çļĦ
Ġbec omes
åĳ½ è¿Ĳ
éļ¾ é¢ĺ
æĿĲ è´¨
å¸Ĥåľº ä¸Ĭ
åĬŀ äºĭ
æĮĩ åįĹ
ĠL ear
æĶ¶ èĹı
èĮ Ĥ
çĿĢ åĬĽ
ä¿Ŀ åħ»
åĲİ åį«
Ġth ing
t ract
Ġdesign ed
Ġrequ ires
ä»ħ æľī
ä¼ł æŁĵ
å¼º å¤§
æĸ° é²ľ
åĽ½ çļĦ
re et
E C
kw args
ç¨ĭåº¦ ä¸Ĭ
Con text
Ġnum er
èĻ ¹
æĸ¯ åĿ¦
è¿ĺ åĮħæĭ¬
åĽł èĢĮ
çĽ¸ ä¼¼
æľĢ æĹ©
Ġst at
ĠC ity
ä¸į å¦Ĥ
l ation
G o
' ],
Ġinvolv ed
ä¹ĥ èĩ³
Ġmove ment
ä½Ļ äºº
over y
æĿ¿ åĿĹ
ell ow
ĠO b
æ¼ ł
Ġal most
è¯´ æ³ķ
éĢļ æĬ¥
è¿Ľ æĶ»
è¿Ľ ç¨ĭ
æĪĲ å¹´
éĹ ¹
Ġm ath
at form
ä½ Ĳ
he t
} }$.
y ing
D ev
2 50
é»ĳèī² ç´ł
Ġperform ance
Ġinclud es
çĩĥ çĥ§
ser ver
éĺ¿ æł¹
éĺ¿æł¹ å»·
åıĺ å½¢
äºĮ æ¬¡
å¿ĥ éĩĮ
éĩį éĩı
åħ¨ ä¸ĸçķĮ
çĶ¨ èį¯
on ic
ä¸ Ī
å µ
d iff
b ar
å¤ªéĺ³ èĥ½
Ġrun ning
Ġinclud ed
ric ult
é¦ĸ æī¹
éĢī çĶ¨
ä¾Ľ ç»Ļ
Ġv ia
åĲĪ å¹¶
è¿Ľ èĢĮ
ç« Ń
åĩº åİ»
è¿Ļ æ¬¾
âĢ ķ
çļĦ åıĺåĮĸ
çļĦ ç¤¾ä¼ļ
å»¶ ä¼¸
Ġhel ps
é£ŀ è¡Į
æ¿Ģ åıĳ
åį° åıĳ
éĽĨåĽ¢ æľīéĻĲåħ¬åı¸
å½±åĵį åĬĽ
ug in
å®¹ åĻ¨
åŁº çĿ£
åŃĲ å¥³
æĸ° çĶŁ
ig ation
åĽ½ äº§
åį ľ
çļĦ æĪĲç»©
m en
b ase
S impl
D C
æ·ĺ æ±°
######## ########
ç¥Ŀ ç¦ı
Tr ans
éĻĦ ä»¶
åŁºéĩĳ ä¼ļ
èīºæľ¯ å®¶
Ġad j
è§Ĩ éĩİ
ĠC or
un k
æĪĲ äºº
Ġth read
åıĳ åĶ®
ed eral
al ing
Ġc it
ä¹ Ĵ
at ively
æ¸Ĺ éĢı
æī¶ è´«
åıĤåĬł äºĨ
app ing
ram ework
ater al
çĭ ®
ĠR uss
åĲĦ å¤§
å¸Ĥ å§Ķ
æľī çĤ¹
Ġp an
u ff
2 60
éĻ¶ çĵ·
èĵ ¬
Ġcl ient
çľĭ çĿĢ
ĠR ead
åĪĽ ç«ĭ
Ġit ems
éĥ½ å¸Ĥ
æıĲ åĪ°
æľº çĶµ
åĩº åĶ®
åĩº è¡Į
Ġre pl
åŃ¦ å®¶
Ġm echan
ä¸º æŃ¢
äºº å¤§
å¹¿æ³Ľ åºĶçĶ¨äºİ
åħħ çĶµ
èµ° è¿Ľ
ç»Ħç»ĩ çļĦ
18 0
çĹħ åĽł
ĠF irst
if est
å®ŀ ä¹ł
ä½ĵ åĨħ
å± Ī
Ġm ap
åĪ ł
L I
Ġsecond s
éĻĨ ç»Ń
éĽ¶ éĥ¨ä»¶
æĿ¡ä»¶ çļĦ
åıĳå¸ĥ äºĨ
é¢Ħ åĳĬ
éªĮ è¯ģ
åħ¨ æĸ¹ä½į
s ys
N BA
Ġbenef its
Im age
è®¸åı¯ è¯ģ
å¤©çĦ¶ æ°Ķ
ric s
Ġout side
ç§ĳåŃ¦ æĬĢæľ¯
èĲ½ åĲİ
è´Ł æĭħ
ä½ł åı¯ä»¥
æľĢ å¤ļ
æ³ »
çĽ Ĺ
in fty
in ux
çļĦ åİŁåĪĻ
çļĦ ç»ĵæŀľ
l t
C heck
çŁĽ çĽ¾
Ġanim al
Ġsom et
stit uting
ç½ļ æ¬¾
åĤ ²
éĴ¢ ç®¡
ç»Ĩ èıĮ
ä¼ĺ å¼Ĥ
åİ» éĻ¤
æĹł æķ°
å¹¶ å°Ĩ
æľ¬ è´¨
ä¾ ¨
å¯¹ åºĶ
Ġre view
Ġh yp
ä¸į åºĶ
ä¸Ń å±±
åľ¨ ä¸Ģ
è¿Ķ åĽŀ
æº¶ æ¶²
çŃ¾ ç½²
Ġfe ed
éĺ² æ°´
åķ ¡
éĶ Ĳ
æŀ ¢
ä¿ ±
ä¸º å¤§å®¶
æ§ ½
Res ponse
Ġsmall er
ĠTr ans
èĶ ¡
çŁŃ æľŁ
ĠO k
and a
éħ ¬
å¯¹ æİ¥
åıĳ ä½ľ
ä¸į ä¸Ģæł·
è¯ Ī
ä¼ ª
l ished
P V
è¯ķç®¡ å©´åĦ¿
ole c
çªĹ åı£
æķı æĦŁ
è®¢ åįķ
ç¿ ¼
å¨ ĺ
å¦Ĥæŀľ æĤ¨
æ¸ħ çĲĨ
ç»ĵ å©ļ
æĥħ èĬĤ
åĨħ èĴĻåı¤
åĨħ æ¶µ
è¿ĩ æ»¤
w in
o e
åı¯æĮģç»Ń åıĳå±ķ
Ġaut om
col lect
Ġget ting
æıĲé«ĺ äºĨ
åŃ¦æł¡ çļĦ
æŀĹ ä¸ļ
æ¸© é¦¨
çİ¯ æ¯Ķ
çĤ¹ åĩ»
æľĢ åĪĿ
ç¬¬ åħ«
ç½ ķ
æĸ¹ çļĦ
Ġe ver
Ġd ict
çļĦ å½¢å¼ı
L e
B l
ä¸ĵæ³¨ äºİ
èħ¾ è®¯
Ġest im
Ġcar bon
Ġbr ing
erv ed
æŁ¥ çľĭ
å½ĵ å¤©
Ġst ore
Ġg ir
æĺ¯ æĪĳ
Ġs ense
u int
t ar
O ut
D B
< \/
Ġ )
Reg exp
Ġcult ure
Ġear th
è¶ĬæĿ¥è¶Ĭ å¤ļ
Ġz ero
åĲĮæ¯Ķ ä¸ĭéĻį
che ma
åİĤ åķĨ
Ġev idence
åįĬ å¯¼ä½ĵ
ä½İ ç¢³
çº¿ çļĦ
éħ µ
åĿ İ
åŃĲ åħ¬åı¸
åľº ä¸Ĭ
å»º æĿĲ
æĶ Ģ
æĢ ¨
it ary
o ice
åħĦ å¼Ł
å¹´è½» äºº
æĲŃ éħį
Ġlead ing
ĊĠĠĠĠĠĠĠĠĠĠĠĠĠĠĠĠĠĠĠĠĠĠĠĠĠĠĠĠĠĠĠĠ ĠĠĠĠĠĠĠĠ
ç´§ å¯Ĩ
Ġ201 9
ç»ıæµİ ç¤¾ä¼ļ
é©¬ æĿ¥
åĽŀ æĬ¥
åĮĸ åĲĪçī©
Ġf arm
Ġs we
p ers
T C
åĴĸ åķ¡
ä»ª è¡¨
Ġdo ing
ç²¾ å¿ĥ
è¢« åĳĬ
æİ¥ å¾ħ
çĤ¹ çļĦ
æıĲ åıĸ
ä¹Ł ä¸įä¼ļ
è¦ģ ç´ł
Ġto ol
i i
Ġchem ical
Ġsec urity
æįŁ ä¼¤
åº§ è°Ī
èı ©
ĠJ an
åıį å¯¹
èĬĤ æĹ¥
Ġex ists
ex ec
è¿Ļ åı¥è¯Ŀ
Ġs ources
Ġs ex
in ks
Ã ¥
å¦» åŃĲ
Ġstart ed
Ġmed ia
é¤Ĳ åİħ
äº¤æĺĵ æīĢ
æľĢåĲİ ä¸Ģ
é¥® æĸĻ
Ġwork ers
æł¡ åĮº
Ġpro te
ĠI sl
ĠS w
æĹ¥ æĻļ
éĺ ģ
Ġs n
N ew
Ġappro x
add ress
è¿Ŀ è§Ħ
æľª èĥ½
è®° å¾Ĺ
Ġim ages
åģļ æ³ķ
Ġde ep
éĻ¢ å£«
è¿ĺ å°Ĩ
æ°´ ä¸Ń
or ation
çļĦ éĢīæĭ©
çļĦ é¡¹çĽ®
s ec
èģĮ ä½į
æĦŁ åıĹåĪ°
Ġhe av
Ġit em
çĸ ¹
éĢļ é£İ
Ġst yle
çİ° éĩĳ
re st
Ġt alk
Ġt im
Ġ //
ç«Ļ åľ¨
åİŁ å§ĭ
ĠS chool
çİ ²
Ġd a
Ġm achine
Ġm iles
Ġo dd
Ġs low
Ġs ort
d m
C ON
çĽĪ åĪ©
åĪĳ äºĭ
Ġang les
ç§ĺ å¯Ĩ
stit ution
çļĩ é©¬
Ġser ies
Ġcent ral
ä¸ĢçĽ´ åľ¨
Ġdis play
ä¸ľ éĥ¨
æł· åĵģ
ill i
Ġfor ce
èĩª ä¿¡
ä¾ ¯
Ġh or
ä¸į å¤ļ
æĺ¯ æĪĳä»¬
c el
F r
cf g
Ðµ Ð
Ġinc or
fil ter
æ³ķå¾ĭ æ³ķè§Ħ
Ġrem ove
å®¢æĪ· çļĦ
çİ°åľ¨ çļĦ
è½¬ è®©
èº« å¿ĥ
ç«ĭ è¶³
æ°ĳ èĲ¥
Ġst eps
å¾Ĺ ä»¥
Ġh yd
an ks
es e
\ \
C ode
Ġdi et
æľīåħ³ è§Ħå®ļ
è±¡ å¾ģ
æī¿ åıĹ
å¿ĥ ä¸Ń
æĮ º
çĶŁ èĤ²
å¹´ åľ¨
è¡ į
Ġc ard
q quad
o o
a el
R A
E vent
æ²³ æµģ
use um
é¥ ²
æīĵ è¿Ľ
è®¤ åĲĮ
æ£ ī
æľįåĬ¡ åĻ¨
ab ol
çĹ ķ
çĽ® å½ķ
Ġon es
åĪ¶ èį¯
éĿ¢ ä¸Ĭ
ä¸» è§Ĵ
Ġt ro
> <
Ġ æľĪ
Ġscient ists
Ġdig its
Ġmult i
æ½ľ åľ¨
ç¥¨ æĪ¿
Ġj oin
per ty
éŁ §
å¸Ĥåľº éľĢæ±Ĥ
ĠL og
æĪĳä»¬ è¦ģ
ap ter
ter m
è¿ĩ äºĨ
åħ¬ äº¤
çĶ¨ è½¦
ä»¥ åħį
Ġw id
a ur
Ġcaus ed
Ġobject s
ef ore
åĤ ħ
Ġequ ations
çº¦ å®ļ
éªĮ æĶ¶
è¾ĥ é«ĺçļĦ
Ġwh ose
æľĢ éĩįè¦ģçļĦ
æľº åºĬ
Ġre ach
Ġth reat
Ġf av
ï¼ Ĵ
N S
Ġcho ose
åºŁ å¼ĥ
äººä»¬ çļĦ
æĺ¾ å¾Ĺ
ip eline
Ġg ard
ä¸Ĭ å¸Ŀ
Ġf em
' (
Ġ 2020
æµª è´¹
é»ĳ é¾Ļ
Ġcol lection
ĠJ apan
ç¢ Ĺ
æľ¬ åľŁ
ç¨ »
é«ĺ å³°
åħ¬ åħĥ
åľ¨ å¤§
ä¸Ģ çĶŁ
çļĦ é¦ĸ
f ields
æīİ å®ŀ
èĩªèº« çļĦ
99 99
è®² åº§
we b
è´¢ ç»ı
Ġcomm it
Ġse arch
ç±» åĪ«
ç½ĳ é¡µ
å°ı åĮº
å¹¶ æľª
ĠC O
ĠA B
ä¸ĭ æ»ĳ
ĠS m
è¿ĩ åº¦
st ep
Ġb ound
Ġp ow
en ch
in o
w idth
t ure
æĻĭ çº§
0000 0000
Ġsa fe
éĻĦ åĬł
Ġfe ature
Ġexp ect
ç«ŀ æĬĢ
æĿĥ å¨ģ
æ» ŀ
ç³ ķ
è¿Ļ é¡¹
æī ĳ
or ial
z er
Ġenc our
å°Ħ éĹ¨
ç¦ı åĪ©
éĺ³ å¸Ĥ
ä»½ é¢Ŀ
Ġk ill
åĽŀ å¿Ĩ
ĠG iven
ä¸¤ ä½į
() ),
ä¼ģä¸ļ åĴĮ
ri al
æĸ° åįİ
çŃī çĽ¸åħ³
è Ł
b atch
R eturn
è¯± åıĳ
æ¢ħ è¥¿
çļĦäºº åĳĺ
ĠJ ew
å¥³ äºº
åı° åĮĹ
åįģ ä¸Ģ
Ġ2 7
æł ½
Ġm iddle
Ġm or
Ġc ore
t able
S e
Ġimpl ies
ĠCent er
Ã³ n
Ġloc ated
ron ic
åįĥ ä¸ĩ
æī¹ è¯Ħ
èģĮ èĥ½
ç®¡çĲĨ éĥ¨éĹ¨
ĠD o
ĠD E
æĹł éĻĲ
ĠP re
æĽ´ å¤§
ç§ĳ çĽ®
æĸĩ èīº
çĶµ è§£
çŃī çļĦ
åĪĨ æķ£
åıĳ èµ·
å¤§ äºİ
åĴĮ å¹³
Ġin depend
re es
y g
Ġcho ice
Ġcost s
Ġplan e
velop ment
æĿ¡ä»¶ ä¸ĭ
Ġpre c
åĪ¶éĢł åķĨ
æľīéĻĲ è´£ä»»
çĮ ľ
æ´»åĬ¨ ä¸Ń
Ġse lect
èģĮ ç§°
å®¢ è§Ĥ
ĠG u
Ġcon vert
çĶµ æµģ
åİ ĺ
Ġs ection
çļĦ åĬŁèĥ½
Ġteac hers
tx t
Ġgrow ing
Cl ass
Ġappro pri
éĺµ å®¹
äºī è®®
åıį èĢĮ
åĪĽ å§ĭ
å¥½ å¤Ħ
Ġbe gan
åīį éĶĭ
as ks
Ġs ug
Ġ é¥°
Ġparticular ly
Ġbelie ve
Ġconn ect
ik i
Ġbo ard
fe ature
èĥĮ åĲİ
ĠCh ar
æłĩåĩĨ çļĦ
ä¸¾ æİª
ĠIn st
èĢģ æĿ¿
ĠO ct
åİŁ æĿĲæĸĻ
åĲİ ç»Ń
åĲİ æľŁ
Ġh ands
åıĳ å°Ħ
Ġin form
çļĦ åħ¨
Ċ ĊĠĠĠĠĠĠĠĠĠĠĠĠĠĠĠĠ
Ġsomet imes
wh ile
éī´ å®ļ
Ġcontin ue
num ber
åŃĶ åŃĲ
Ġgr ad
èģļ æ°¨
ord s
av ed
çĪ± å¥½
åħ¥ åı£
ĠA N
ä¹Ł å¾Ī
as ync
å¤§ æ¦Ĥ
æĿ ī
Ġw est
Ġc amp
åĲ ķ
} );
Ġchall eng
Ġcrit ical
è¯ŀ çĶŁ
æ®ĭ çĸ¾
Ġpar allel
enc ed
è¡¥ åĬ©
åĪĩ å°Ķ
æĻ¯ çĤ¹
åįİ ä¸º
ç¦ ħ
ĠH ar
çĥ ·
æģ ¨
åľº çļĦ
èĢĮ æĪĲ
il s
ä½ľ å®¶
åŃ¦ éĩĳ
as ic
Ġd ate
ro id
Ġf at
h old
g z
O ption
å¢ŀåĢ¼ ç¨İ
ä¸Ńå°ı ä¼ģä¸ļ
æĲŃ å»º
impl ies
Ġstate ment
æ¸Ĳ æ¸Ĳ
ä¸´ æĹ¶
ãĤ ¹
)) )
åĪĿ å¿ĥ
ç±» çļĦ
æ¶ Ľ
ch ange
çĶµ ç¼Ĩ
çİ° çĬ¶
id ge
åĪĨ åħ¬åı¸
åĩº ä¸Ģ
ä»¥ å¾Ģ
æĺ¯ ä¸įæĺ¯
ï¼ ı
Ġprim ary
è¹ Ī
éħį ä»¶
æīĵ åĩ»
æľįåĬ¡ ä¸Ńå¿ĥ
ang les
è¥¿ åĮĹ
æ°ĳ ä¸»
pl t
ç¾İ é£Ł
ĠM y
Ġcon struct
å¦Ĥ æľī
çĶµ åİĭ
æĹ¶ åħī
è¦ģ æľī
å¤ ķ
in ing
ç °
d k
Ġcaus es
Ġsur v
Ġ201 7
æ¤ ħ
åįļ è§Ī
æīį ä¼ļ
å¤ĸ çķĮ
éĥ½ æ²¡æľī
åĮº åĿĹ
ĠI S
Ġm iss
ä¸º ä¸»é¢ĺ
ä¸į æĺĵ
Ġb ul
it ter
ä¸Ģ é¡¹
r ict
r ated
p mod
P er
Ġrad ius
å¿ħè¦ģ çļĦ
ç¬¬ä¸ī æĸ¹
çķĻ åľ¨
ãģ §
Ġsp read
åįģ åħŃ
åįķ ä¸Ģ
æĹ¥ åĨħ
Ġre ct
ro s
æī ĩ
ä¸Ń èį¯
Ġw ild
p ref
c ore
H ence
ç´« å¤ĸ
Ġlab or
äº¤éĢļ è¿Ĳè¾ĵ
èĹ ¤
å¾ģ æĶ¶
ç§¯ éĩĳ
å±± åĮº
ag ue
um b
åĴĮ åıĳå±ķ
Ġt f
çļĦ å¤©
ĠĠ ĊĠĠ
m ail
util s
Ġreport ed
åĤ¨ åŃĺ
éĽ¶ ä»¶
Ġ201 5
çªģ åıĳ
erv ation
æŀģ å¤§
å¸¦ æľī
æ¯ı æľĪ
è¾¾ åĪ°äºĨ
çļĦ è¡Įä¸º
çļĦ åħī
P r
ä»ĭç»į äºĨ
çŃ¾ ä¸ĭ
æľīæķĪ åľ°
è¡ĮæĶ¿ å¤įè®®
ren ch
å·´ å¡ŀ
over line
^{ -
Ġim ag
pt y
çĪ ¬
ur ren
æ² ª
as ons
Ġt ang
y ear
U sing
fr ame
.... ....
èį· åħ°
æģĴ å¤§
æ±¡æŁĵ çī©
æī¿ è®¤
èĳ ¬
ç¤¾ä¼ļ çļĦ
å±Ģ éĥ¨
åĽ½å®¶ éĺŁ
çī© èµĦ
ve re
åı¯ è¾¾
å¿ Į
Ġs il
çļĦ æł¸å¿ĥ
B ase
é¸ ¿
åħ´ å¥ĭ
ĠV alue
æģ ¼
ĠA BC
åħ¨ æĸ°çļĦ
çŃī å¤ļç§į
åŃ¦ åĳĺ
çĶŁ åĬ¨
åľ¨ åħ¨åĽ½
çļĦ éĢļçŁ¥
c ks
c or
Ġrespect ively
Ġdi agn
åıĳçĶŁ äºĨ
æ³¢ åĬ¨
Ġper fect
èħ »
Ġ4 5
é©¬ åħĭ
å·² å®ĮæĪĲ
Ġg ot
çľ ī
Ġe at
Ġm om
äºº ä¸İ
å® ´
R ec
é»ĳé¾Ļ æ±Ł
å¼ĺ æī¬
wh ich
çĶŁæĢģ çİ¯å¢ĥ
Ġpar a
ç´§ æĢ¥
èĨ ¨
Ġro ad
å¼ķ åħ¥
Ġde ad
å·¥ä½ľ èĢħ
éķ¿ æ²Ļ
å¯¹ å¾ħ
Ġh ot
å¤§ è§Ħæ¨¡
ä¸º ä¸ŃåĽ½
æ¹ĸåĮĹ çľģ
æ¾³ éĹ¨
Ġmed ic
Ġacc om
æĲ ı
ĠU se
Ġen um
åıĺ éĿ©
ang er
æº ¯
æ· ®
æľĢ åħ·
åıĬ çĽ¸åħ³
æĭ ³
è¿Ļ å¯¹
åĴĮ ç®¡çĲĨ
ä¸Ģ çŃīå¥ĸ
åĲ ŀ
} \)
s end
k er
f ind
G DP
èģļæ°¨ éħ¯
Ġpo or
Ġintern ational
Ġcap ital
åºŁ æ°Ķ
åįł æľī
å·²ç»ı æĪĲä¸º
ä¹Ĳ è§Ĥ
çĸĹ æ³ķ
éĿŀ æ´²
åĻ¨ æ¢°
ä¼ł è¯´
æłĩ çŃ¾
åĪ° æĿ¥
w ide
p ret
çĿ¡ çľł
èº«ä»½ è¯ģ
Ġident ify
åľĨ æ»¡
åįł æį®
æł¸ éħ¸
èĭ± æł¼åħ°
ens ity
ĠU sing
ell ig
Ġ{ '
ĠM any
å°Ĩ ç»§ç»Ń
ä¹ĭ æĹ¥èµ·
ç« £
Ġl ed
Ġh ous
st er
Ġ Â
ash ing
æĶ» åĿļ
å¾ģ æ±Ĥ
çĭ ±
èĬĤ å¥ı
Ġ" $
ä¸ĩ æ¬§åħĥ
ä¸ĩ è¾Ĩ
åĿ ĳ
åĪĨ æĶ¯
è¿Ļ ç±»
åıĳ èĤ²
çļĦ ä½ľåĵģ
t ask
C alculate
3 60
eterm ine
å¦ĩ å¥³
å¼ķèµ· çļĦ
ç§ģ åĭŁ
é¡¶ çº§
æ¡¥ æ¢ģ
ines e
ock et
åį¡ å¡Ķå°Ķ
çļĦä¸Ģ éĥ¨åĪĨ
ä»ħ ä»ħ
Ġim medi
å¹¿ éĺĶ
ĠW indows
ĠB u
Ġv ideo
åľ° éĿ¢
ĊĊ ĊĊ
ä¼ļ åĩºçİ°
å¹´ ä»¥æĿ¥
Ġb ur
çļĦ æ¯ĶèµĽ
äºĮåįģ å¤§
æĬĵ ä½ı
ç³ĸ å°¿
çĶµè§Ĩ åı°
ç§ģ äºº
Ġdevelop ing
æ±¡ æ³¥
è¡¥ åģ¿
æĭī æĸ¯
ç»Ļ å¤§å®¶
ç¥ŀ ç§ĺ
çłĶç©¶ åĳĺ
12 8
åįģ ä¹Ŀ
å¼º åĬ²
Ġpro gress
ap id
ĠA c
å¦ ¥
ul ations
Ġto ols
çĽ ¼
at est
Ġcreat ing
ç±»åŀĭ çļĦ
åºĨ ç¥Ŀ
Ġsub st
Ġ201 0
Ġpr ime
Ġset t
æķĻèĤ² çļĦ
å¤į åıĳ
èĬĤ çľģ
iz ations
ĠH ere
éĺŁ åĳĺ
ä¸ĵ è¾ĳ
ç§ĳ æĻ®
ä¹ĭ éĻħ
ä¸ĭ è·Į
ĠT ype
Ġm other
ic ular
ä¸Ģ çīĩ
â Ĩ
h ing
æľīéĻĲè´£ä»» åħ¬åı¸
åİ¦ éĹ¨
éģµ å¾ª
åĩºçīĪ ç¤¾
å»¶ ç»Ń
åºĵ åŃĺ
Ġ201 2
ĠY our
æ£Ģ å¯Ł
åĸ »
è½¦ éĹ´
and ing
æĶ¿ åĬ¡
ĠM ore
æŁ ¯
em ail
Ġst ream
å¼Ģ å¹ķ
ä½ĵ ç§¯
ä»¥ æŃ¤
Ġs ave
h am
h r
De bug
======== ========
åħ»èĢģ éĩĳ
ĠInd ian
Ġlook ing
çĪĨ åıĳ
Ġloc ation
åĽº ä½ĵ
åį´ æĺ¯
ĠIn stitute
èĤ¡ ä»·
con f
æķ´ æĶ¹
ä½¿çĶ¨ å¯¿åĳ½
Ġ3 2
ĠN ow
ç»Ħ å»º
åŀ «
æ¯Ķ éĩį
ä»ĸ æĺ¯
è¦ģ åľ¨
å± ¡
Ġd rop
æľī è¶£
Ġf ast
Ġthe ory
E M
Ġindividual s
Ġcirc um
æ¶¦ æ»ĳ
ä»·åĢ¼ è§Ĥ
è§Ĵ éĢĲ
åĨľ äº§åĵģ
èģĮ åĬ¡
åĽŀ å®¶
ass et
å¥½ å¥½
åľ° åĽ¾
æ¯ ħ
et ic
Ġw ood
Ġt end
v oid
+ \
ãĥ¼ãĥ Ī
empt y
ä¹Łå°±æĺ¯ è¯´
model s
Ġdiv ided
RE T
æ³° åĽ½
æĭħ å½ĵ
åĳ½ ä»¤
ä¾Ŀ æĹ§
åıĹ ä¼¤
oc r
å±ķ ä¼ļ
å¤ļ äºº
å¹´ ä¸ŃåĽ½
åľ¨ æł¡
ĠĠĠĠĠĠĠĠ Ġ
C R
ä¸Ļ çĥ¯
ä¼ĺæĥł æĶ¿çŃĸ
ä¼ĺç§Ģ çļĦ
ä¸įä»ħ ä»ħ
åĵª ä¸ª
è¿Ļæĺ¯ ä¸Ģä¸ª
pos ite
St ep
æĽ¾ åľ¨
æ¹ĸ äºº
Ġ5 00
æĲ ħ
ç®Ĺ æ³ķ
çº¦ ç¿°
ä½İ æ¸©
è½¦ çļĦ
ĠP res
éļ §
éķ¿ æĺ¥
æĸ¹ éĴĪ
æĥ §
ä¸į äºĪ
Ġb ott
æĹ ±
t ocol
P U
åĨ¶ éĩĳ
äºı æįŁ
Ġtrad itional
ograph y
ĠSp ec
comm and
æĺİæĺ¾ çļĦ
az ure
Ġrem ains
val ues
å®£ åĳĬ
çĻ» å½ķ
ich ael
æ·± åıĹ
çĹħ çļĦ
Ġal tern
ĠM ost
è®¾ å®ļ
æĦ ī
å¹´ å¼Ģå§ĭ
ç§ ©
éĢ ¸
Ġw in
æĹ Ń
es us
u ous
å¿ĹæĦ¿ èĢħ
param s
ĊĠĠĠĠĠĠĠĠĠĠĠĠĠĠĠĠĠĠĠĠĠĠĠĠĠĠĠĠĠĠĠĠ ĠĠĠĠ
é¹ °
ç¯® çĲĥ
ins ert
Ġ201 4
æĴŃ æĶ¾
è¾¹ ç¼ĺ
åĩı éĢŁ
os ure
å¹¶ äºİ
éģ £
å¸Ĥ åĢ¼
åİ ī
al ysis
æ ª
j oy
a ul
åĪ¹ è½¦
Ġfamil ies
Ġlab el
å¤º å¾Ĺ
éķľ å¤´
Ġlead ers
éĢłæĪĲ çļĦ
Ġass um
Ġform ed
å¸Į èħĬ
Ġro t
äºī åıĸ
éĺ² èħĲ
é© °
å¹³ å®ī
ĠP ort
çī© æµ¦
è¾ °
ä¼ļ å¯¼èĩ´
Ġf ul
åı Ļ
åĤ¬ åĮĸ
ä»Ķ ç»Ĩ
Ġfore st
Ġdev ices
Ġser ious
Ġatt empt
ä¼łç»Ł æĸĩåĮĸ
St atus
çĽĳ ä¼ļ
ãģ Ł
pro ject
Ġby tes
Ġex amples
ect ors
åĿ Ŀ
æ°´ è´¨
çĶµ ä¿¡
éĿ¢ åīį
od ing
Ġh i
Ġn amed
èĥ½ åĲ¦
éĻ Į
Ġm ix
ro om
Ġt orch
Ġt rack
ä¸ Ľ
a id
C ase
ä¸Ģå¸¦ ä¸Ģè·¯
Ġeas ily
Ġprogram s
urs or
æŀ¶ æŀĦ
è¯Ĺ äºº
vent ion
Ġuse ful
ĠO ther
å¼º åĪ¶
th read
æ´» è·ĥ
ä¸» æµģ
å·¥ ä¼ļ
S I
çĸ¼ çĹĽ
Ġachie ve
æĩ Ī
åĪĿ æľŁ
cc ount
ak er
çĥŃ åĻ¨
è¾ĥ å¤§çļĦ
åĮĹ æĸ¹
åıĺ åĬ¨
éĵ Ń
å½ĵ ä½ł
çĽ¸ åıį
åħ¨ ç¨ĭ
å½ Ń
âĢĿ ï¼ī
( _
å·´å¡ŀ ç½Ĺ
å·´å¡ŀç½Ĺ éĤ£
Ġhol ds
å±ķçİ° åĩº
ä»ĺ åĩº
Ġprodu ced
æ¸¯ åı£
Ġro und
row ser
çĻ¾ åº¦
å¥ĸ é¡¹
** **
åĪ© çī©æµ¦
åºĶ èģĺ
åīį æ²¿
åľº åľ°
ĠA ccording
Ġth ous
Ġin j
Ġf ire
çļĦ ç»ıèĲ¥
ç Ģ
n ov
e es
P ass
æī« æıı
è¡£ æľį
æĭ¿ åĪ°
sc rib
ç»§ æī¿
ord ers
å¥¹ ä»¬
15 00
åħļ å»º
çİ¯å¢ĥ çļĦ
éĶĢ åķĨ
å¥³ è¶³
12 3
Ġ3 00
è¾ĥ å¼ºçļĦ
åįĹ éĥ¨
äºĮ çŃīå¥ĸ
ä½Ĩ æĪĳ
è¯´ è¯Ŀ
çī© æĸĻ
åħ³ æĢĢ
åĪĨ çļĦ
çĲ ³
Ġf ather
n ames
Ġsaf ety
æĩĤ å¾Ĺ
Ġdist inct
ç¿ Ķ
éĺ¿ æ£®
æĴ °
æ¨¡ åħ·
å±Ģ éĿ¢
ä¸¤ å¤§
å½ĵ ä¸ĭ
éħ °
äº§ åĢ¼
ä¸ļ çķĮ
ic ate
Ġs ample
m em
ç§© åºı
åĩĿ èģļ
çĻĮ çĹĩ
åĿĲ èĲ½
åħ¬åħ± åį«çĶŁ
äº® çĽ¸
å¹ħ åº¦
è´µ çļĦ
åĲ¬ åĪ°
æ½ ĺ
Ġequ ip
èĳ ±
åıį é¦Ī
Ġ[ `
å¢ĥ å¤ĸ
è·¯ ä¸Ĭ
çº§ åĪ«
çĪ ½
äº¤ ä»ĺ
ä¿¡ å¿µ
éľ ŀ
å§ ļ
Ġto wn
æĬ ļ
å· ©
åľ¨ æĸ°
çļĦ å¤ĸ
à ¸
w rit
m acro
ĠEduc ation
ĠDep artment
Ġset s
ãĥ Ī
æ¼Ķ è®²
éĩĩ éĽĨ
æĸ¯ åį¡
éĩį ç»Ħ
ig ration
ä¸Ń æłĩ
ar io
åľ¨ æĪĳ
it ation
F C
å¡« åĨĻ
Ġpass ed
æĿ° åĩº
éĵ¾ æİ¥
Ġspec ified
è¡ĮæĶ¿ æľºåħ³
ax is
åħħ è¶³
æ¹ ĺ
æ¸ħ åįķ
Ġse a
et ime
å¯ ¨
ä¸º ä¸Ńå¿ĥ
å¼ ¦
åľ¨ åħ¨çĲĥ
çļĦ çĽ®çļĦ
çļĦ æīĢæľī
çļĦ ç»Ħç»ĩ
G E
Ġdam age
ĠHist ory
Ġsit uation
ç»ĺ çĶ»
æĭľ ä»ģ
ç»ĵæĿŁ åĲİ
Ġem ot
å·¥ç¨ĭ æĬĢæľ¯
ĠG oogle
ä¼ł å¥ĩ
åįķ çĭ¬
Ġ2 8
åĪĽ åĬŀ
æį® æĬ¥éģĵ
åīį ä¸ī
æŀ ļ
âĢĿ ï¼Ľ
ä¸į è®º
ro ad
Ġb ad
æľī æľĽ
Ġs al
re me
çļĦ åħ¶ä»ĸ
çļĦ æľī
i ency
Ġden ote
èĪŀ è¹Ī
Ġref erence
Ġte aching
æ½ Ń
ĠK ing
å±Ĥ éĿ¢
åı¯èĥ½ æĢ§
ç¡® è¯Ĭ
è¾ĥ å¥½çļĦ
ä¿¡ ä»°
éħ ®
åĲį åĪĹ
æ¯Ķ çī¹
åĪ¶ çļĦ
äºº äºĭ
Ġc ateg
ãĢĤ (
{ -
V ec
P H
N umber
Ġ æľ¬
Ġcompon ents
Ġprob ably
Ġbeh ind
é½Ĳ åħ¨
æĭį åįĸ
Ġ201 8
çĥŃ çĪ±
è¯¥ é¡¹çĽ®
è¯ģ å®ŀ
å°Ĩ æĺ¯
ä¹ĭ æīĢä»¥
Ġ$ |
ï¼ļ ãĢĬ
Ġre ve
äºº å¿ĥ
Ġf oot
Ġs us
M od
I s
Ġdefin ition
ĠEr ror
result s
åĭĩ å£«
ç»¿ åĮĸ
çĨ Ķ
]( ../
_{ \
é¦ĸ ä¸ª
pt ions
æķ° æİ§
æĹ ¬
Ñ ĥ
g n
. ;
åįłåľ° éĿ¢ç§¯
æįĲ èµł
flo or
Ġmon itor
çĩĥ æ°Ķ
äºĨè§£ åĪ°
Ġcomp ared
com es
Ġse ason
ä»Ĭ å¹´çļĦ
åıĹ æ¬¢è¿İ
æĢ» æĬķèµĦ
è§£ éĻ¤
Ġr ules
ĠM e
å¥½ åĥı
çŃī å·¥ä½ľ
Ġn or
ä¸Ń åħ±
åį ¸
m ber
b i
W ORD
èĢģå¹´ äºº
Ġdr ink
Ġed ge
Ġem erg
å³ »
ech o
åī¯ ä¹¦è®°
çª Ħ
Ġcomp an
åħĭ æľį
æİ¥ çĿĢ
Ġr ain
åħ³ éĹŃ
å¼Ģ å¿ĥ
ä¸İ åħ¶ä»ĸ
Ġl ost
ec es
çº ±
Ġthe refore
r ang
h aps
T H
éļ§ éģĵ
Ġfin ancial
Ġvari able
Ġpol icy
åľ£ è¯ŀ
æ¿Ģ çĥĪ
ĠU p
ç§¯ åĪĨ
éĺ² çģ«
Ġse em
æĪ· å¤ĸ
èĩª è§ī
æ´ Ĵ
åħ¬ ç§¯éĩĳ
Ġm ount
Ġf ields
ä¸Ģ åº¦
x i
M y
Ġ um
ĠAust ral
but ton
Ġpred ict
éĶħ çĤī
fl ict
Ġmet ers
set tings
åĳ½ ä¸Ń
çĶŁäº§ ç»ıèĲ¥
Ġhe ld
ĠF in
æĬ¥ èŃ¦
ãĢĭ (
ä¸ĭ ä¸Ģ
çĶ¨ ä½ľ
Ġp ict
åį §
er ve
à ¾
m ask
F O
Ġ ell
å¥ł å®ļ
med ia
AS A
ä¹ĭä¸Ģ çļĦ
å¤§å®¶ éĥ½
ace book
ens es
æĹł ç¼Ŀ
åĨħ åľ¨
ul ated
æ¬ º
åĩº èī²
st ack
ä¸º ä½ķ
it ing
Ġc and
çļĦ æĸĩåĮĸ
çļĦ å¤ļ
k a
C ç½Ĺ
Ġcontr ad
éķĢ éĶĮ
å®īå¾½ çľģ
osp here
åĽĽå·Ŀ çľģ
æļĤ æĹ¶
Ġprocess ing
Ġ20 00
æŃĮ æīĭ
çıŃ åŃĲ
ĠN et
ĠD i
Ġex cept
æ¯Ķ ä¸Ĭå¹´
åıĬ åħ¶ä»ĸ
çŃī éĹ®é¢ĺ
çĶ¨ åľ°
åľ¨ åĽ½åĨħ
çļĦ åĽ½å®¶
v ant
M an
Ġ í
æ²³åĮĹ çľģ
çĦ¦ çĤ¹
èĢĥèĻĳ åĪ°
Ġref lect
èĭ¥ å¹²
ç»¼åĲĪ æĢ§
èģļ åĲĪ
åıĳçĶŁ çļĦ
æ¬§ çĽŁ
çļĦä¸Ģ åĪĩ
Ġwe bs
å¾Ĺ çŁ¥
ä¸» æľº
è¿ĩ æķı
Ġh yper
åľ¨ ä¸Ģä¸ª
Ġs end
Ġa ware
çļĦ æĦŁè§ī
Ġdig it
Ġelect ric
éĵĿ åĲĪéĩĳ
æº¶ åīĤ
AT E
Ġreg ions
ç¼ĸ çłģ
çīĪ æĿĥ
Ġ& =
16 0
Ġres ource
åİĨ ç¨ĭ
ĠB o
å·¥ä½ľ å®¤
éĩĳ çīĮ
ab s
Ġpro p
åģ ·
å®¶ ä¸Ń
Ġl ate
Ġre pe
è¿Ļ å°±
ä¸Ĭ çº¿
åıĳ éħµ
åľ¨ æľ¬
æĺ¯ å¾Ī
it ness
er red
çļĦ çĬ¶æĢģ
w ater
f alse
b t
D R
Ġscient ific
Ġoper ation
åĵĪ å°Ķ
èĨ ı
Ġacc ur
å°½ åı¯èĥ½
Ġper pend
Ġne igh
æ¸© å®¤
Ġsp ir
Ġpl aces
çİĩ åħĪ
éĻĲ äºİ
æĶ¯ æı´
æĦŁ åĬ¨
æĢ» è®¡
éĩı åŃĲ
éĢ ¢
it ems
çļĦ åŁİå¸Ĥ
f in
R ight
) }{
ä¸ºå®¢æĪ· æıĲä¾Ľ
å¹¼åĦ¿ åĽŃ
åĩ½ æķ°
å±ı å¹ķ
çļĩ å¸Ŀ
ĠWe b
Ġoff er
Ġdet ails
çģµ éŃĤ
Ġar ray
åİĤ æĪ¿
çĻ½çĻľé£İ åĮ»éĻ¢
æŃ¥ éª¤
Ġsh ape
å¦ ®
éĥ ¡
åĲĪ è®¡
id ents
il ateral
Ġd ry
} }$
h older
g or
c ache
\ ):
ç³ĸå°¿ çĹħ
é©¬æĿ¥ è¥¿äºļ
ĠBrit ish
ĠIntern ational
è¾ī çħĮ
çĶĺ èĤĥ
Ġoper ations
çģ¾ å®³
sh ip
äººåĳĺ çļĦ
æĪ¿ éĹ´
æĸ¯ ç§ĳ
æł¡ åıĭ
åŀĭ åı·
ç«ĭ æĸ¹
Ġal though
å®ŀ åľ°
æĥ ¨
åħ¬ æĸ¤
ä¸Ĭ çº§
z z
s es
p et
m ock
f a
K E
: ?
ĠEr r
æĲº å¸¦
Ġdirect ory
çĳŀ å£«
Ġcar ry
åĢŁ åĬ©
Er r
Ġem ail
çĶ· äºº
åĿĩ ä¸º
å¿« éĢĴ
Ġtr ig
æĿ¡ æ¬¾
ç®¡çĲĨ å·¥ä½ľ
è§£ çŃĶ
ers ion
åº¦ åĴĮ
ĠC ouncil
Ġo il
é ĳ
éĳ «
â ħ
h ist
B ox
åħ¬åĬ¡ åĳĺ
Ġdescrib ed
FI G
æ¹ĸåįĹ çľģ
åĲĪçĲĨ çļĦ
ç»ĦæĪĲ éĥ¨åĪĨ
åĪĨåĪ« æĺ¯
Ġtrans port
åĨ² çªģ
Ġdec ision
Ġob t
Ġro om
æĹ© åľ¨
åŁİå¸Ĥ çļĦ
ĠJ esus
éĻ¤ æŃ¤
é©¬ ä¸Ĭ
èĬĤ çĤ¹
ap pro
å¿ĥ çģµ
ç¬¬ ä¹Ŀ
åĲİ æŀľ
Ġd irection
ä¸į åıĺ
åħ Ķ
v est
l a
D S
7 00
/ )
ä¸įåĬ¨ äº§
Ġbegin ning
Ġold er
Ġhigh ly
èģĶåĲĪ åĽ½
åŃĺåľ¨ çļĦ
ne q
è´§ è¿Ĳ
ä»ĭ è´¨
ens ions
å®īåħ¨ æĢ§
ç±³ çļĦ
ç»ıæµİ çļĦ
è¥¿ åħ°
Ġcon struction
Ġst e
ä¸» å¯¼
é«ĺ æ°´å¹³
å¤ļ è¾¾
Ġh ar
çĶŁ çĲĨ
å¤§ éģĵ
ä¸į å¤ª
ä¸Ģ è¾¹
at o
g it
d om
A tt
= {
AP P
Ġhum ans
Ġinf ection
åŁºæľ¬ ä¸Ĭ
æįŁ åĿı
å®Ŀ å®Ŀ
åĿĩ åı¯
çľŁ è¯ļ
æ¢ ¨
202 5
12 5
çľģ å¸Ĥ
æĦŁ æģ©
åħ³ èģĶ
æ´ ½
æĸ° æĿĲæĸĻ
åĪĨ ä¼ļ
è¿Ļ æĺ¯ä¸Ģ
å¹´ èĩ³
Ġc ivil
Ġs rc
çļĦ è¡¨çİ°
d et
Ob ject
æŁ´ æ²¹
Ġpair s
ä¸Ģæ®µ æĹ¶éĹ´
éĻĦ å±ŀ
èģļ éĽĨ
åģ¥åº· çļĦ
ä¾¿ æį·
åĽĽ å¹´
å¸¦ ç»Ļ
è§£ è¯»
æĺİ å¹´
åıĳå±ķ åĴĮ
çĸ ¯
æķ ²
æĸ Į
r ad
p c
T oken
L ast
æĺĨ èĻ«
éĨ ī
è®² è¯Ŀ
çĶ» å®¶
Ġap plied
åĩı æİĴ
å¤§åŃ¦ çļĦ
ä¸ĸçķĮ çļĦ
Ġ3 5
un ch
å®¶ çĶµ
ä½ľ çī©
1 30
Ġgo al
Ġdiffere nces
å¤« å¦»
åĲ¸ éĻĦ
åŁºç¡Ģ ä¸Ĭ
ms g
éĺ² èĮĥ
åĽĽ å¤§
all ow
ç®¡çĲĨ åĬŀæ³ķ
é£İ çĶµ
èµ· çĤ¹
åĪ© çļĦ
å¦ ¨
äºĨ å¾Īå¤ļ
åľ¨ ä½¿çĶ¨
al og
Ġs em
er ation
ï ¿
ı ãĥ¼ãĥĪ
åĶ®åĲİ æľįåĬ¡
é«ĺæĸ°æĬĢæľ¯ ä¼ģä¸ļ
Ġestab lished
Ġpur ch
Ġocc urs
Ġevery thing
Ġdec l
ç¼º å°ĳ
é¢ĳ éģĵ
åĿļ åĨ³
200 50
åįĹ åĮĹ
è¿ĺ éľĢè¦ģ
åĬł å¯Ĩ
éķ ĳ
éĺ Ĳ
Ġ\ ,
el t
ä¸Ń åľº
is ions
Ġc up
e ks
B D
è¶ħå£° æ³¢
Ġfri end
Col or
iction ary
ç»ĥ ä¹ł
æĪı åī§
Ġsy nt
éĺ¿ æĭī
Ġqu ite
Ġj son
éĺ² çĸ«
è®© ä»ĸ
æĢ» åĨ³èµĽ
æĶ¶ å½ķ
ä½ł ä¼ļ
Ġv it
çķ ı
æķĻ ç§ĳ
Ġ( '
ä¸» å¸ħ
å¯¹ æĪĳ
ä¸º åŁºç¡Ģ
Ġb illion
s ig
P R
Ġbacter ia
æī® æ¼Ķ
Ġrece ive
éĶ¦ èµĽ
Ġsu ff
æİ¢ æµĭ
Ġag o
Ġob tain
Ġpl aced
æ¸ħ åįİ
åĽŀ æĿ¥
ĠR oman
Ġr aw
å¸¸ æĢģ
å¤ĸ ç§ĳ
éĥ½ å¾Ī
ĠA pr
é¡ ½
çŃī å¤ļ
us r
et ch
ä¸º äºº
Ġf ront
Ġw ent
åľ¨ åĮĹäº¬
Ġc op
f irst
E E
) ](
Ġappropri ate
Ġexist ing
te e
ob pack
åı¤ èĢģ
ĠJ ournal
éĺ² å®Ī
out hern
éĤ£ ç§į
æĬ¥ ä»·
ç¾İ è§Ĥ
å½ĵ ä»Ĭ
Ġas pect
Ġst age
ĠS ec
ä¸į èµ·
Ġw ide
b alance
> (
ç¾İä¸½ çļĦ
Ġtop ic
Ġcurrent ly
Ġident ity
anc y
éĺ¿ éĩĮ
Ġro ck
çĮ İ
åİ» äºĨ
ĠW ork
å¢ŀ å¤§
ab y
æ°´ åĪĨ
å¿ĥ æĢģ
æľī æĿĥ
ä¸Ģ æľŁ
d im
N et
Ġ vers
å¼¹ æĢ§
åĢ¼å¾Ĺ ä¸Ģ
Ġstart ing
ä¸¾åĬŀ çļĦ
Ġtest ing
test ing
Ġsol ar
ĠCh inese
è¦ģæ±Ĥ çļĦ
æĤ£ æľī
åĪĹ åħ¥
æĢģ åĬ¿
é¦ĸ éĥ½
è½¬ è½½
Ġse ems
è¯ķ åĽ¾
ere nces
for ce
å®Į ç»ĵ
å¼º çĥĪ
ain ts
æĽ´ å®¹æĺĵ
å§ ĳ
ot es
æĪĳ åħ¬åı¸
è¿Ļ åľº
om ic
èĩ Ĥ
Ġm o
ä¸º ä¾ĭ
Ġin str
Ġf a
Ġw idth
çļĦ æĶ¯æĮģ
} |
S U
éĺ¿æ£® çº³
Ġmov ing
åħ¬ä¼Ĺ åı·
å®ı è§Ĥ
Ġchang ed
å°¤ æĸĩ
Ġsup ply
ove mber
ob ile
åĩł åįģ
å»ºè®¾ é¡¹çĽ®
çĥŃ éĹ¨
Ġ2 6
æĹ¥ çĶµ
åħ¬ å¼Ģåıĳ
Ġc red
l or
i uc
åĪł éĻ¤
dat aset
Id ent
Ġallow ed
Ġprocess es
å¹¿æ³Ľ çļĦ
å¹² æī°
åħļ æĶ¯éĥ¨
Ġad minist
Ġsh ip
ĠE m
ĠR ed
æķĻ ä¼ļ
Ġl ayer
è¿Ļ æ®µ
åĵ Ń
æĹ¶ æľº
ä¸ļ çļĦ
Ġd omain
åľ¨ åĨħçļĦ
l ife
D r
Cl ient
ä¼Ł å¤§
ä¹Ļ æĸ¹
è¿ĩåİ» çļĦ
Ġdist ribution
Ġsc he
äºī å¤º
Ġap plications
Ġcomp os
con s
åıĹ çĽĬ
éĹ¨ ç¥¨
æĹł éĶ¡
ĠM ark
ä¸ī ç§į
å¹¶ åıĳ
å°Ĩ æĿ¥
ĠC opy
åĲĪ ä¼Ļ
çĶ¨ çĶµ
ic ated
ä¸į åĲ«
æľī æľºä¼ļ
ä» ĩ
i os
Ġmil itary
é½¿ è½®
çĪ¸ çĪ¸
Ġdog s
ä¹¡æĿĳ æĮ¯åħ´
åħļçļĦ äºĮåįģå¤§
é«ĺçŃī åŃ¦æł¡
éĩįåºĨ å¸Ĥ
è´¢æĶ¿ éĥ¨
åįĥ çĵ¦
çª ĳ
ĠIn ter
æķ´ æ²»
19 99
ç«ĭ æ³ķ
ĊĠĠĠ ĊĠĠĠ
and o
oc al
å¤© åľ°
ist ant
Ġ1 000
åħ¨ æ°ĳ
äºº éĥ½
ä¸Ģ åĲĮ
ç» ³
Ġs leep
i Ã³n
a is
C S
èĻļ åģĩ
çĶ² æĸ¹
") ]
Ġ201 3
Ġcol on
æĪĸèĢħ åħ¶ä»ĸ
èĳ Ľ
av id
æºĲ äºİ
Ġcom b
ç¥ Ĥ
éģĵ çĲĨ
Ġv irus
æĽ´ é«ĺçļĦ
å¿ĥ èĦı
ĊĠĠĠĠ ĊĠĠĠĠ
é«ĺ è¡Ģåİĭ
çĲ ¼
Ġp y
al ed
Ġc am
p arent
g amma
e val
U ser
A ccording
) ),
æĽĿ åħī
Ġcontain er
rem ove
Ġproject s
çĪĨ çĤ¸
ç»ĦæĪĲ çļĦ
ç¼º éĻ·
Ġsome one
Ġcol umn
èĴ ĭ
Ġj ud
ç²¾ ç»Ĩ
åıĸ ä»£
ess ages
ĠP at
å¹¶ å¯¹
åĪ¶ æĪĲ
Ġg od
ĠT echn
åľ° ä¸Ĭ
Ġis ol
Ġd oll
ä¸º æł¸å¿ĥ
æī ³
Ġw arm
C A
* }
' d
" ))
Ġexerc ise
æĺ¨ å¤©
'' '
åĩºçĶŁ äºİ
Ġgl ass
Ġposs ib
ĠPro gram
ars er
åĿļ å®ŀ
å¤ª å¹³
ãģ ¾
ĠJ ava
Ġsh ift
æĹ¶éĹ´ ä¸º
è¾ĥ å¤ļ
åıĸ åĨ³
çľĭ åĩº
æĬĢæľ¯ åĪĽæĸ°
ĠM c
ĠI I
Ġst im
é«ĺ éĵģ
ot hes
æĿ¥ è®²
æĬ ¹
ä¸º ä¼ģä¸ļ
s u
W indows
L P
èµ¢å¾Ĺ äºĨ
ĠAss oci
Ġcap acity
èĪ¹ èĪ
Ġpol l
ç¬Ķ è¯ķ
éĨ Ľ
èĩªçĦ¶ ç§ĳåŃ¦
Ġact ions
und red
Ġso on
åĨĽ äºĭ
åħ·æľī èī¯å¥½çļĦ
lo ok
ä¸»è¦ģ æľī
æ¸¸ æ³³
ç®¡çĲĨ åĴĮ
æĦŁ åħ´è¶£
ä¼ł è¾¾
åįģ ä¸ĥ
ĠF rench
è§£ æĶ¾
æ¬¡ æķ°
ĠI P
Ġg ames
æĪĳ å°±
om a
ä¼ļ å¯¹
âĢ ĭ
å® ł
çļĦ éķ¿
s ign
bin om
æĪĲåĬŁ çļĦ
èĪª çıŃ
èĥ½åĬĽ çļĦ
11 1
Ġk ids
ip al
æĶ¯ çĲĥéĺŁ
çķĮ éĿ¢
ĠL ou
æ°Ķ æ°Ľ
å¹³ éĿ¢
ĠP ress
ch ang
çĶµ ç½ĳ
ĠA ug
c ell
D el
Ġprofess ional
ĠEurope an
object s
æŃ£ç¡® çļĦ
è½´ æī¿
ç¡¬ åº¦
Ġ200 8
ĠG et
10 1
èµĽ åĲİ
å¹³ çŃī
èĬ Ĵ
å¥½ è¯Ħ
Ġst ar
å¤ļ åĲį
æĪĳ ä¸į
åĽ½ è¶³
æĺ¯ ä¸ºäºĨ
æĺ¯ ä»İ
çĶ Ħ
Ġa ff
p atch
m ary
Ġperpend icular
urren cy
Ġvari ables
ç²ī æľ«
å¼Ģåıĳ åĮº
æĺŁ åº§
æĸĩåĮĸ éģĹäº§
é» ı
å¸ĥ æľĹ
æĢ» éĩı
Ġr apid
Ġr ates
æ¬¡ äºİ
Ġv ict
å®ŀ è´¨
å¤ļ åĲĥ
Ġto ken
q l
Ġmag net
å¸ĪèĮĥ å¤§åŃ¦
Ġinst it
ç¿ ł
ph i
åıĭ å¥½
æŀģ ä¸º
åĬ© çĲĨ
åİŁ åĪĽ
è¯´ è¿ĩ
se e
åĮĸ åĴĮ
ot ed
æ² ¸
æĪĲ åŀĭ
è¡Į é©¶
åĨ ¯
åĨ Ī
çĶ ¸
re a
çļĦ åıĳçĶŁ
l ier
j pg
d ing
F S
åıĸåĨ³ äºİ
abet es
Ġquick ly
Ġey e
Node Text
å®Įæķ´ çļĦ
èĥĮæĻ¯ ä¸ĭ
ä¾µ æĿĥ
å¤įæĿĤ çļĦ
èŃ¦ å¯Ł
Ġtrans fer
æī© å¼ł
sh ow
åĵģçīĮ çļĦ
row s
è¯Ŀ é¢ĺ
æĪ¿ åŃĲ
ç¤¾ä¼ļ è´£ä»»
æĶ¾ æĿ¾
Ġ3 6
iz z
æĺİ çļĦ
çĹ Ĵ
çĿ Ĳ
ä¹ĭ åľ°
çİ° å·²
æĪĳ éĻ¢
ar ant
å® ª
T ime
A fter
èŁ ¹
sup er
å¿½ è§Ĩ
èĤĮ èĤī
Ġhig hest
ç«Ł çĦ¶
Ġoff icial
ä»·åĢ¼ çļĦ
Ġ201 1
ç¼ĸ åĨĻ
arg ument
ä»İ æĿ¥
å¿ĥ æĥħ
åħ¶ ä½Ļ
ï¼ī ï¼ļ
åĲĪ è§Ħ
Ġp ages
å¤ ¸
r ong
P P
H D
ä¸Ī å¤«
æ²Ī éĺ³
æļĤ åģľ
Ġgener ate
è·µ è¡Į
In ter
äºĴ èģĶ
å¦Ĥæŀľ æĺ¯
åįı åķĨ
The se
å±± æ°´
ĠR s
th is
ĠP y
ä¸Ĭ æľĪ
ĠGerm any
Ġpract ices
è¯Ĭ çĸĹ
Ġtw ice
çº³ ç±³
Ġqu ery
åıĪ ç§°
åı· çº¿
è£ħ æľº
ĠO ver
åı£ èħĶ
ay ers
Ġst ay
æľ¬ åħ¬åı¸
å¹´ åĲİ
åĩ ¸
le ar
Ġstreng th
âĦĥ ï¼Į
æī¶ æĮģ
SE T
olog ies
ç»© æķĪ
æī¹ åıĳ
å¥ĸ éĩĳ
èĭ± éķĳ
çļĦäºº æīį
åħ» çĶŁ
åĨį è¡Į
æĶ¾ åħ¥
çĻ½ éħĴ
Ġus ers
æ°ĳ äºĭ
çŃī æĸ¹éĿ¢çļĦ
ĊĠĠĠĠ ĠĠĠ
om ing
çī ²
å¤§ èĩªçĦ¶
ä¸Ń æīĢ
æľī åĬĽ
Ġf raction
äº ¨
} ^
s ible
m itted
çŀ¬ éĹ´
Ġbir th
Ġve get
Pl ace
èĴ¸ æ±½
idd en
Ġfood s
èģĺ çĶ¨
å¡ŀ å°Ķ
äº§çĶŁ äºĨ
ä¸įæĸŃ çļĦ
å»ºçŃĳ çī©
å¾® è½¯
å¾® éĩı
çĻ¾ ä¸ĩ
åħ± å»º
æķĪ åĬĽ
ĠR em
ä¼ģä¸ļ åľ¨
èĭ ĳ
ä¸» èĲ¥
é«ĺ æ¸ħ
om b
ing er
A m
gor ith
æĲħ æĭĮ
ç§ĺä¹¦ éķ¿
Ġpur pose
Ġcommun ities
iqu es
æ±ĩ æĬ¥
è°Ī åĪ¤
Ġprov iding
å¼Ģå±ķ äºĨ
æ¤ İ
åıĳçĶŁ åľ¨
äº§ä¸ļ åĮĸ
åħļ ç»Ħç»ĩ
æĶ¹ ç¼ĸ
éĤ£ å°±æĺ¯
åı£ ç½©
ĠG roup
èĩª åŃ¦
çŃī æĸ¹å¼ı
å¤§ èĦĳ
ä¸º æľŁ
ë ĭ
Ġdoct or
\_ \_
èī° éļ¾
ä¾µ çĬ¯
ç¹ģ èį£
Ġcommun ication
Ġdown load
èĦ± è´«
ä»Ģä¹Ī æĺ¯
so le
Ġcont aining
äºĶ ä¸ª
Ġen h
çĬ ¬
ĠO F
iz ens
åİŁ åŃĲ
ĠD ev
æŃ£ å¦Ĥ
æĺİ å¤©
ä¸ī çº§
ro gen
æľī æ²¡æľī
on ly
t otal
R em
è©¹ å§Ĩæĸ¯
Ġquadr atic
hel p
Ap p
å« ©
ç¤¼ åĵģ
Ġfollow ed
çļĦå¤§ åŀĭ
ĠK e
ra el
ä¸»è¦ģ çĶ¨äºİ
Ġen joy
çĪ µ
èİ ŀ
æŃ¤ åĲİ
äºĭ çī©
çĤ ®
æľ¬ ç«Ļ
ĠS um
æĹ¥ åĪ¶
ä¸İ åħ¶
è½ ©
ä¼ļ å½±åĵį
å¤§ æ¥¼
å¯ Ĥ
Ð º
V iew
C ons
åĪĽå§ĭ äºº
Ġseg ment
Ġide as
Ġbas is
Ġsym met
éª¨ å¹²
åĨ¬ å¥¥
add r
Ġsur round
Ġ200 4
ãĤ ¯
ãĤ Į
åıĪ æľī
ĠU N
è½¬ åħ¥
ĠL aw
çľĭ åĪ°äºĨ
ä»» èģĮ
Ġex ecut
ce an
Ġfor ward
æĭ ĺ
æĪĳ å¸Ĥ
æĪĳ ä¼ļ
Ġp et
} ",
n n
M B
éĻ¤æŃ¤ ä¹ĭå¤ĸ
Ġtyp ically
çļĩ å®¶
è·¨ è¶Ĭ
çļĦé«ĺ åº¦
ç¨³å®ļ çļĦ
åºĶè¯¥ æĺ¯
cdot s
ä¸¾ æĬ¥
éĿĴ çĿĲ
æī¿ åĬŀ
è§ģ è¯ģ
éĹ¨ çªĹ
æĶ¶ åıĸ
Ġ2 9
æĪĳä»¬ ä¼ļ
å»º äºİ
ĠS am
è¿ĩ æĿ¥
è¾ Ł
Ġn ight
äºĨ ä¸ŃåĽ½
åľ¨ ä»Ĭå¹´
B e
Ġ ing
ç«£ å·¥
Ġrelig ious
Ġbro ught
Ġinc ome
æĬµ æĬĹ
ç¥ĸ åĽ½
Ġdiv ide
Ġop posite
å®ģ æ³¢
ble m
è®¤ä¸º æĺ¯
Ġcl in
åĩł å¤©
èĩ´ çļĦ
è± «
æľįåĬ¡ ä¸ļ
ç¾İ å¥½çļĦ
çĤ¹ çĲĥ
Ġpro ced
Ġcon cent
çŃī å¤ļä¸ª
æĥ ©
æĪĲ åĵģ
Ġh abit
Ġto wards
åĴĮ ä¸ªäºº
Ġp ool
Ġa f
he mat
çļĦ ä¸įåĲĮ
b et
F L
ä¸ľåįĹ äºļ
Ġbehav i
Ġbro ad
èļ ģ
æ¹¾ åĮº
Ġag ricult
çķĻ åŃ¦
Ġro ll
åĪĿ ä¸Ń
åı¤ åħ¸
ç§ĳåŃ¦ ä¸İ
äº§ä¸ļ çļĦ
Ġcont ract
ĠO ut
è·¯ å¾Ħ
æ°Ķ çļĦ
ĠD ay
åķ ¤
èĭ į
ĠM us
ä¿Ŀ ç½Ĺ
ä½į åĪĹ
å°Ĩ æĪĲä¸º
se mb
ä¸» æķĻç»ĥ
ĠA tt
åĲİ èĢħ
un it
è¿Ľ åıĸ
ä½ľ é£İ
Ġn orth
éĢ Ŀ
le arn
it able
ç» İ
Ġs outh
h as
] ãĢĤ
èı© èĲ¨
Ġestab lish
Ġabs ol
èĿ ¶
è¾ĸ å¸Ĥ
Ġconfig uration
pass word
Ġmult ip
æıĲåĩº çļĦ
çĽĳ å¯Ł
Ġcont roll
ast e
åĻ¨ ä»¶
é¢ĺ æĿĲ
ç¼ ¸
è° ¦
un ic
ä¾ ¦
åĬ¨ è½¦
åħ¬ å¯ĵ
èµ Ĳ
Ġd im
ä¸į è§ģ
is ation
es c
Ġthe rap
çļĦ æĢģåº¦
w orks
s g
i ar
Ġtre es
æļ´ éľ²
Ġmem ber
met adata
Ġcommon ly
Ġent ry
åĨĻ ä½ľ
å¯Į æľī
å¨ ĥ
Ġad opt
è¶³ åįı
è®© ä»ĸä»¬
ç»ĵ è®º
Ġv ar
ĠS ervice
un safe
è¿Ļ åº§
Ġh undred
æĢ ¡
å¤§ åİ¦
å¤§ æī¹
Ġd anger
éĢ ¼
Ġc ool
ç» ĳ
Ġt ag
çļĦ çİ°è±¡
p obpack
i as
W S
C N
èĪ¹èĪ ¶
Ġconn ection
199 8
èŃ¦ åĳĬ
åºŁ çī©
Ġdi ag
èģĮä¸ļ çĶŁæ¶¯
åıĳå¸ĥ ä¼ļ
ä¸ĢèĪ¬ æĿ¥è¯´
Ġro ut
åıĪ æĺ¯
ä¹¦ ç±į
èĢĥ åı¤
è¢« è¯Ħä¸º
å¢ŀ è¿Ľ
åķ ¦
ï¼ī ãĢĭ
æ² «
åŃ¦ æľŁ
åĽ½ çİĭ
åĴ ±
ä¸Ģ å¼ł
ä¸Ģ è¡Į
çļĦ åŃ¦ä¹ł
m id
[: ,
æ¼Ĥ äº®
Ph one
è½¬åŀĭ åįĩçº§
head ers
ä¹ĺ åĿĲ
æĮ¯ åĬ¨
ç¼ĸ ç¨ĭ
over ty
ç§ĳåŃ¦ çłĶç©¶
éľĢè¦ģ çļĦ
ell a
ĠL ab
éĹ¨ å°Ĩ
èģĶ éĤ¦
Ġwe eks
çĦ ļ
éļ ¶
ĠA nt
ç½ ¢
om as
åĴ ½
in ner
çļĦ åħ·ä½ĵ
t ypes
åĲĪæ³ķ æĿĥçĽĬ
åħļå§Ķ ä¹¦è®°
Ġlim ited
å§ĵ åĲį
Ġhand le
gr ad
mod ule
æ²ī æ·Ģ
me an
ç¼© çŁŃ
Ġreg exp
åĪĽæĸ° åĪĽä¸ļ
åĩı èĤ¥
å¥³ å£«
çľŁ ç©º
con d
æĢ» æķ°
éª Ħ
æº ĥ
Ġr are
æłĩ è¯Ĩ
os es
res ents
å¥½ äºĨ
æľ¬ ç½ĳç«Ļ
æ¸ £
ic on
Ġw ait
Ġ ult
Ġ æĺ¯
åĪĩå°Ķ è¥¿
Ġmajor ity
Ġden omin
è·Ł è¸ª
ç»¿ èĮ¶
ä¹¡ éķĩ
ç§ĳæĬĢ å¤§åŃ¦
è¯Ń æĸĩ
act s
ĠD em
Ġal one
æīĢ å±ŀ
åıĳ æĢ§
Ġf ight
is ms
çļĦ é£İéĻ©
p o
b c
T R
S H
Ġequip ment
Ġapprox imately
Ġdeg ree
æĦŁæŁĵ èĢħ
Ġ} ;
Ġfl u
Ġmin or
Ġ200 6
éģĹ åĿĢ
=" #
key word
In fo
åĽ½éĻħ åĮĸ
ç´ł åħ»
Ġse lected
æīĵ ç®Ĺ
æĢ» çĽĳ
éĹ¨ åºĹ
ç«ĭ ä½ĵ
ĠR iver
å¤Ħ çļĦ
ex pr
å°ı å¿ĥ
Ġcon str
æį ī
é«ĺ åĵģè´¨
ä¸į åı¯èĥ½
ä¸Ń çŃī
è¯ µ
it ect
p matrix
k y
S pec
G ener
. /
æĤł ä¹ħ
âĶĢ âĶĢ
æ°¯ åĮĸ
æĺĨ æĺİ
comm it
å°¼ å¥¥
é»Ħ èī²
å¿« çļĦ
å¤į åį°
Ġle aves
Ġle ave
å±± å¸Ĥ
ä¼ł åĬ¨
èĪ Į
æľ¬ æĿ¥
Ġe ight
Ġp ick
çļĦ æķĻèĤ²
ï ¹
Ï Ģ
d ist
4 000
æĨ ¾
æĸ°åĨł èĤºçĤİ
Ġcult ural
Ġcalcul ated
æ¼« çĶ»
çĬ¯ è§Ħ
æĴŃ åĩº
è½½ ä½ĵ
ish ing
è¿ľ è¿ľ
å±Ĥ çļĦ
ĠJ une
è´£ ä»¤
æ²» æĦĪ
ä¼ģä¸ļ å®¶
Ġv irtual
ç© ´
éģ ®
ĠS ch
åı¯ åĪĨä¸º
æĪĳ è®¤ä¸º
æ² §
ä¸Ĭ è¯ī
Ġm is
Ġt ill
ĠĠĠĠ ĠĠ
çļĦ æĬķèµĦ
ãĢ ī
) |
Ġanc ient
Ġax is
Ġge omet
çļĦåīį æıĲ
ä»ĵ åĤ¨
ĠDe velopment
æĹĭ è½¬
Ġarg ument
æ¾³ æ´²
att ributes
çĸĳ éĹ®
å¡ĳ éĢł
Ġresult ing
éĨ ĭ
Ġem pty
Ġset tings
Ġnew s
ree k
éĴ¢ çŃĭ
åįĩ æľ¬
æľª ç»ı
ç¥ŀ çļĦ
å¸ĥ æĭī
éĩĮ ç¨ĭ
èį §
ab ilities
ç®¡ æİ§
ä¸» äºº
åĲĪ èĤ¥
çŃī è¡Įä¸ļ
ä¸ª äººçļĦ
Ġp sych
Ġc ou
at ur
p ite
ĠEng land
æ¹¿ åº¦
æº¶ è§£
æĿ¥çľĭ çľĭ
ä¸Ńåįİ æ°ĳæĹı
æĹ¶ä»£ çļĦ
ful l
Ġli qu
æĪĸèĢħ æĺ¯
è£ħ éħį
è§Ĥ æµĭ
æł¼ å¼ı
og ram
è¢ ĸ
os ing
éľ ī
Ġ1 80
ç»ı éĶĢåķĨ
æ± ª
ol f
åĪĨ è¾¨
è¦ģ æĥ³
åº ¸
Ġc ounter
Ġc overed
åĪ ®
Î ±
r uct
j a
åºŁå¼ĥ çī©
Def ault
åĩĮ æĻ¨
Ġdat abase
æ¯« ç±³
è¿İ æİ¥
çĶ· å¥³
éĽĨåĽ¢ åħ¬åı¸
Ġ& &
Ġ$\ {
ous ly
åħĭ åħ°
æİĴ æ°´
æ·± çļĦ
çĽ´ è¾ĸå¸Ĥ
åĽŀ é¡¾
è°ĥ æİ§
ĠL ist
æĢ» ç»Ł
pl oad
æĪĸ åħ¶ä»ĸ
åħ¥ åŃ¦
est er
Ġbe aut
å°Ĩ ä»¥
if orn
ä¸ĭ ä¸ĢæŃ¥
åħ¨ èº«
åħ¬ æŃ£
åĪ° ä½į
at in
çļĦ æłĩåĩĨ
t im
b and
K ind
Ġ ign
åĵĪå°Ķ æ»¨
éĢĤå½ĵ çļĦ
æ¦ľ åįķ
ĠAmeric ans
ĠAl though
ä¿Ŀè¯ģ éĩĳ
é¹ ħ
we ight
å»ºçŃĳ å·¥ç¨ĭ
å®¡ åĪ¤
å¤ª ç©º
Ġyour self
ä¾ĭ åŃĲ
é¢Ħ çº¦
ip se
åħī åŃ¦
åıª éľĢ
è®© èĩªå·±
æĸ¯ åŁº
ĠP ark
æľĢ é«ĺçļĦ
ä¹Ł è¢«
ur t
Ġre asons
æµ ĩ
å¹´ éĹ´
Ġto oth
Ġto ld
P M
I A
Ġcompan ies
Ġeffort s
åłª ç§°
Ġparam eters
rel ated
ç»ıåİĨ äºĨ
æµª æ¼«
æ¯ķä¸ļ äºİ
çĶ¨æĪ· çļĦ
èħ ķ
æĤ£ ä¸Ĭ
æİĴ éĻ¤
æĹ¶éĹ´ åĨħ
æĮĩ ç¤º
èĦ Ĭ
ĠH ol
10 9
Ġv acc
åīį åĲİ
éĩį å»º
éģ Ĥ
å¼Ģ éĢļ
æ¸ Ŀ
am eter
åı¯ è°ĵ
èĥ½ èĢĹ
æŃ §
å¥ ¢
Ġm ention
Ġm ental
æĺ¯ æĪĳåĽ½
æĸ ¥
h op
g u
M O
G oogle
åĮºåĿĹ éĵ¾
ĠIs rael
bu ffer
ä¼Ł å¤§çļĦ
Com m
åĢĴ æķ°
ĠAl so
åı« åģļ
èª ĵ
ç¼º çĤ¹
æ°´å¹³ çļĦ
ond on
èµ° åĩº
åħĭ éĩĮæĸ¯
æİĴ è¡Į
Ġsp ect
Ġpl atform
ä¿¡æģ¯ çļĦ
ç»Ļ æĪĳ
Ġsh all
Ġun d
ç®¡çĲĨ äººåĳĺ
æµģ æ°´
å£ ¶
ä½Ĩ ä»ĸ
ain er
Ġv ill
åĨħ åĪĨæ³Į
èĢĮ æĿ¥
Ġm ode
è¡ ¬
Ġt en
v m
P L
? ?
Ġteac her
æ²ĥ å°Ķ
æĬµ è¾¾
Ġsqu ares
ç©¿ çĿĢ
199 6
çºª å¾ĭ
Ġout comes
çĽ¸åħ³ éĥ¨éĹ¨
ä¸ĸçķĮ åĲĦåľ°
æŃ¥ è¡Į
æĸ¯ çļĦ
ä»İ æŃ¤
ĠI N
å°± ç®Ĺ
æŃ ĩ
å¸ Ĩ
Ġf ear
en ge
l ands
J ohn
ashing ton
Ġsepar ate
è¶³å¤Ł çļĦ
éĺĢ éĹ¨
éĽķ å¡ĳ
å°ıç»Ħ èµĽ
gr ade
Ġident ified
çĦ¦ èĻĳ
é£Łåĵģ å®īåħ¨
Ġany thing
å²ģ æľĪ
æ¸¯ æ¾³
ĠSt ep
ä»ħ æ¬¡äºİ
æ¸ħ éĻ¤
æŃ¥ ä¼Ĳ
åĸ Ĭ
çº§ çļĦ
rom e
ĊĠĠĠĠĠĠĠĠĠĠĠĠĠĠĠĠ Ġ
éģĵ çļĦ
æľ¬ åĳ¨
ur g
è¿Ľ åº¦
æĦ ¤
ol low
Ġl es
ä¸ļ ä¸»
p op
d irectory
S ystem
Ġ ãĢģ
åŁİä¹¡ å»ºè®¾
äºĭåĬ¡ æīĢ
Ġpi eces
Ġstandard s
osp ital
æĬķæłĩ äºº
âĳ ł
çļĦæľĢ ä½³
æĦıè¯Ĩ åĪ°
ä¹ĺ å®¢
è¿ĲèĲ¥ åķĨ
ä¼° è®¡
air s
åĮ»çĸĹ åĻ¨æ¢°
å¨ģ å°Ķ
å© ·
æīĢä»¥ åľ¨
ä¸»è¦ģ åĮħæĭ¬
æµİ åįĹ
de lete
10 8
ĠC our
ç¬ ¼
Ġ\ {
ä¼ļ å±ķ
Ġm ill
Ġf ederal
åľ¨ ä¸Ĭ
åį ĳ
g t
Ġ iron
iforn ia
Ġsustain able
Ġopportun ity
Ã§ Ã£o
åĻª å£°
Ġinvest ig
How ever
Ġreport s
Ġsmall est
çī¹èī² çļĦ
Ġsu fficient
Ġincre ases
è·Ł çĿĢ
ç¬¬äºĮ æ¬¡
æŀģ å¤§çļĦ
Ġse vere
ĠO R
è§Ĥ èµı
åıĤ å±ķ
è¿Ĳ è½¬
ä»İ å°ı
è¡¨ å½°
ĠI D
if ul
Ġf igure
re w
çļĦ ä¸ī
ë Ĭ
y ond
b ot
H S
cs v
åĮ¹ éħį
èµĭ äºĪ
å¢¨ è¥¿
æ®ĭ çķĻ
Ġsupport ed
èľ ¡
æ³¨æĦı çļĦæĺ¯
Ġinter pret
æŁĲ ä¸ª
Ġ10 260
}$ $
å¿ħ éľĢ
çĶŁäº§ åĴĮ
ç¾İ æ´²
ä¸ĵ åįĩæľ¬
æĪĳä»¬ å°±
Ġpro ve
å¦Ĥ åĲĮ
Ġbe yond
åĬ¡ å®ŀ
ĠC heck
åı¯ çĶ¨
æĪĲ åĥı
ä¸º åĩĨ
ï¼Į âĢĿ
S im
N ext
å¢¨è¥¿ åĵ¥
åµ Į
çº³ç¨İ äºº
é«ĺçŃī æķĻèĤ²
Ġdem and
It em
å¿«éĢŁ åıĳå±ķ
èĢĲ ç£¨
äºĳ è®¡ç®Ĺ
éĤ ª
åŃĺ æ¬¾
ä¸»è¦ģ çļĦ
ç»Ļ ä½ł
å®¢ è¿Ĳ
ĠN ovember
ĠH er
èģĶ åĬ¨
æĻ ´
çĶµ ç£ģ
ĠS ociety
ĠT HE
é«ĺ èģĮ
åľ° è¯´
Ġe ating
æİ ©
ic o
ä¸ ¸
r ical
m ult
l as
c r
Ġprote in
Ġexperi ences
Ġrep resents
Ġmod ule
Ġdist ributed
pon ent
å¯Į åĲ«
ä¾¿ å®ľ
éļı æĦı
æĬķ æĶ¾
åģļ åĩºäºĨ
çľģ ä»½
äº¤ åıī
çĲĥ åľº
çĽ® çļĦæĺ¯
åīį æľŁ
æ³ķ åħ°
æľĪ èĩ³
ac ement
å¤§ æĪĺ
ic ks
at ers
m ore
B S
8 000
ĠLou is
å·© åĽº
Ġsatisf y
Ġinvolv es
çĽ¸å½ĵ äºİ
åĺī å®¾
Ġent er
Ġac id
åĬłå¼º å¯¹
å±Ĭ ä¸ŃåĽ½
è§ģ åĪ°
åĨ³ å¿ĥ
ĠO f
çĥŃ åº¦
è¾ĥ å¥½
cl ose
èĲ¥ è¿Ĳ
ä¸ľ èİŀ
ä¸¤ èĢħ
ĠB ecause
Ġex tra
è®¡ éĩı
est ic
ä¸» å¼ł
ĠA I
ĠS econd
äº§ çī©
éĹ ¸
åŃ¦ å£«
ä¸į ä½ı
ä¸Ń åĴĮ
å¤ ·
ãĢĤ <\/
çļĦ èĢģ
ãĢ Ī
s ite
f erence
c al
M essage
- >
Ġ ice
Ġ ãĢĤ
ĠAug ust
Ġmom ent
æŀ¢ çº½
Ġpercent age
å¿ĺ è®°
Ġocc up
print ln
Ġsee k
the n
ie f
arg ets
å¤´ éĥ¨
è½¬ åĲĳ
Ġnot hing
ĠL ib
æİ¥ åĪ°
Ġr ich
è¿ĺ åİŁ
å¢ ħ
un ction
æĪĳ è§īå¾Ĺ
çŃ Ĵ
å¤§ ä¸ĵ
Ġd riv
it ory
Ġs ites
ð Ł
ì Ĺ
U LT
P art
O L
O K
( *
Ġ eth
ellig ence
åİĺ ç±³
Ġinflu ence
éĻķè¥¿ çľģ
Ġleg al
èĢĲ å¿ĥ
è¡Įä¸º çļĦ
Ġ7 0
åĩĢ æ°´
ç§¯æŀģ å¼Ģå±ķ
è§£åĨ³ éĹ®é¢ĺ
Ġ< <
å»ºè®¾ åĴĮ
æĬ¤ æłı
ç²¾ èĭ±
æİ¨ è¡Į
ĠW illi
è§Ħ ç«ł
åĬł ä»¥
åħ¶ ä¸ŃçļĦ
å®¶ åºĦ
Ġp al
åľ¨ å¤ĸ
çļĦ ä¼ĺåĬ¿
çļĦ æĢ»
l ines
c md
Ġess ay
æĪĲç«ĭ äºĨ
éĶĢåĶ® é¢Ŀ
ç¨³ æŃ¥
pub lic
è§Ĵ çĲĥ
åıĭ è°Ĭ
ä¸¥ è°¨
çĽ®åīį çļĦ
åĪĹ è½¦
å·¥ç¨ĭ æľºæ¢°
æĤ Ķ
éĢī æĭĶ
é¢Ĩ åıĸ
ä¼ł çĲĥ
èĮ «
è¢ ģ
ĊĠĠĠĠĠĠĠĠĠĠĠĠ ĠĠ
ĠP oint
æķ° åįģ
ä½į å±ħ
ç§į ç§į
Ġst ri
ä¸ĭ æĿ¥çļĦ
èĩª æĢ§
æĪĳ ä¹Ł
ä¸Ģ éĥ¨åĪĨ
ä¸Ģ äºº
æĸ ©
çļĦ æľĭåıĭ
çļĦ éĥ¨åĪĨ
t f
o z
k m
S olving
H ere
< !
Ġeconom y
We b
Ġmain tain
Ġear lier
Ġ200 9
çĳ Ł
ann ed
é¸ Ń
Ġset ting
ç»¼ èīº
ãĤ Ī
ph p
çļĦä¸Ģ å¹´
æī¿ è½½
ä¹Ĳ åĽŃ
Ġk il
ä¹¦ åĨĻ
å¸Ī èµĦ
æł· åŃĲ
æĹł æķĪ
æĬĢ èīº
åĮº åĨħ
èĢĮ åĩº
åľ° å¤Ħ
åĩº èī²çļĦ
é¢ ł
è¿Ļ æĹ¶
ou l
ic ies
ar ian
æľī æĹ¶åĢĻ
Ġt ick
T Y
æ¯Ķçī¹ å¸ģ
Ġgir ls
Ġadult s
Ġrev olution
search Key
Ġorgan ization
è¶ĬæĿ¥è¶Ĭ å¤ļçļĦ
Ġsign al
çīĽçļ®çĻ£ æĤ£èĢħ
å½Ĵ å±ŀäºİ
æĶ¿çŃĸ çļĦ
ä¸įæĸŃ æıĲé«ĺ
14 0
ä½ı å®¿
åı² ä¸Ĭ
ç¦» ä¸įå¼Ģ
éĢĤ å®ľ
em y
ĠC ode
æĢ§ å¥½
ç»ı çºª
Ġis n
Ġre str
el ines
ä¸į å¿ĺ
ä¸į åĩº
åĴ ¸
ä¸Ń çº§
å· ·
æĺ¯ è¦ģ
in i
çļĦ åħ¬åı¸
è ¤
w iki
b d
V ID
S up
R a
D IR
Ġcombin ation
Ġant ib
Ġspe ak
æĽ¼ åŁİ
äº® çĤ¹
Ġco e
Ġsec ret
eng ine
Ġpos itions
Ġimport ance
In put
åĿĩ è¡¡
æĳ Ĭ
æĶ¾ å¿ĥ
éĢī ä¸¾
ç®¡çĲĨ ç³»ç»Ł
è£ Ķ
åĮ» åŃ¦éĻ¢
å¢ŀ å¹ħ
Ġr ank
Ġr ise
å¤© ç©º
æıĲ èµ·
qu are
åħ¨ æĹ¥åĪ¶
ä¸Ĭ åİ»
åĩ ¶
ä¸Ń ç§ĭ
ä¸Ń éĥ¨
i ance
åĢ¼å¾Ĺä¸Ģ æıĲ
éĻĮ çĶŁ
ä»¿ ä½Ľ
æĹ¥å¸¸ çĶŁæ´»ä¸Ń
'] .
Ġgo es
ç£ Ĭ
Ġsc en
åĪĩ åī²
å±ŀ æĢ§
Ġ4 00
äºĶ å¤§
å¤´ çļĦ
ome ga
åĪ« äººçļĦ
å®Į æ¯ķ
æµ· ä¸Ĭ
çľĭ æ³ķ
èĥ ĸ
ri pt
ç³» æķ°
æĸĩ æĹħ
åīį æĿ¥
æĦ ģ
âĢĿ .
äºº éĹ´
Ġf Ã¶r
åŃ µ
Ġt iss
n on
G C
Ġfav or
ĠRep ublic
Ġpattern s
Ġthink ing
Ġsum mer
åī¯ éĻ¢éķ¿
å°¼ æĸ¯
åįł åĪ°
æĬ¤ å£«
çĥŃ å¸¦
ä¸ĸ éĶ¦èµĽ
Ġcom pl
ex ists
äºĭ å®ľ
åĪ¶ å¤ĩ
èĢĮ å·²
ä¸» åĬĽ
en um
çļĦ ä¸¤
p ay
` ,
1 12
çĲĨå·¥ å¤§åŃ¦
Ġask ed
âĳ ¡
é«ĺåº¦ éĩįè§Ĩ
çī¹æ®Ĭ çļĦ
å¹¿å·ŀ å¸Ĥ
åľĨ å½¢
å®ŀéĻħ æĥħåĨµ
åĽ° æī°
éĩĩçĶ¨ äºĨ
ric k
åĬ³ åĬ¡
æ³¢ ç½Ĺ
ĠK ey
ãĥ ª
ep och
çŁ³ åĮĸ
ç»´ å¥ĩ
Ġtr ade
èº« ä¸º
çŁ¥ çļĦ
Ġex ec
èĲ §
èĲ Į
åĮĸ å¦Ĩ
å®¶ ä¹¡
Ġh om
å¹´ åĨħ
Ġm ach
Ġb alance
u an
s he
b all
T I
O M
B us
Ġtang ent
æīĢåľ¨ åľ°
éĻ· åħ¥
æ°¨ éħ¸
Ġfr uit
Com p
Ex t
çĺ ¦
å´ Ķ
Ġtri angles
åģĩ æľŁ
ä¸įä»ħ æĺ¯
å½¢æĪĲ çļĦ
sh a
èĥ½å¤Ł åľ¨
æľºæŀĦ çļĦ
çģ« çģ¾
äºļ å¤ª
ä¾Ľ æ°´
ith y
ch ild
åīį åĪĹ
åĬĽ åŃ¦
ĊĠĠĠĠĠĠĠĠ ĊĠĠĠĠĠĠĠĠ
Ġs amples
= -
Ġgard en
ĠCON FIG
Ġrelationship s
Ġtry ing
åħįçĸ« åĬĽ
çĽ¸åĲĮ çļĦ
Ġcomplet ely
æĮĳ éĢī
è°¢ è°¢
é¡º åºı
åıĸå¾Ĺ çļĦ
Ġcomm erc
åĶ® ä»·
Ġtr ust
åĶ ¤
ä¸ĩ äº¿
ore m
iv o
ä¿¡ èªī
å°ı äºİ
ap ers
å¹¶ ä¸İ
æĸĩ æľ¬
éķ¿ å®ī
od ay
am ental
id get
ä»¥ åħ¶
Ġd ed
Ġm olec
Ġb log
äºº åĿĩ
çļĦ çĪ±
Ñ ı
y a
c ar
æ¸´ æľĽ
hent ication
//// ////
Ġill ust
Ġvert ex
ï¼ħ ï¼Į
Ġcap t
Ġco al
èŃ¦ æĸ¹
ĠPro ject
ç»Ŀ ç¼ĺ
ä¸Ģå®ļ ä¼ļ
çĵ £
æĹ© æĹ¥
Ġsc ript
ra z
å¤ĦçĲĨ åĻ¨
å¥ĸ åŃ¦éĩĳ
è¿ŀ èĥľ
æĸĩåĮĸ åĴĮ
éħį éĢģ
ack s
ĉĉ ĉĉ
è°ĥ è¯ķ
æł· æľ¬
ä¸¤ åĽ½
é£İ åħī
èį Ĩ
ex ample
åľº åĲĪ
è¿ĩ å¤ļ
è¾ ±
Ġre lease
ä½ľ æĪĺ
Ġto kens
ä¸į åıĬ
æī ģ
åľ¨ è¿Ļç§į
or row
çļĦ æĤ£èĢħ
n one
b al
6 000
ĠPres ident
ĠJul y
HT ML
Ġnear ly
Ġlaw s
éº» çĥ¦
æĹ¥å¸¸ çĶŁæ´»
éļĲ ç§ģ
æĢĢ åŃķ
yn omial
ix el
Ġem issions
åĿļ å®Ī
é©¬ å°Ķ
èĢĥ éªĮ
Ġnot es
èĮ Ħ
oc ument
å°ı ç±³
æķ° çłģ
æľŁ åĨħ
éĥ Ĭ
åĲĪ èµĦ
ur ies
æĸ° ä¸Ģ
é«ĺ å±Ĥ
id a
åĩº è¡Ģ
åŁ Ķ
ä¸º åħ¶
åľ¨ åħ¶
çļĦ éĤ£
à ¥
l ayout
H and
3 50
/ >
<! --
åħ±äº§ åħļ
çºł çº·
åĢ¡ å¯¼
Ġimplement ation
Ġpi ece
é¢ģ å¥ĸ
oper ation
inst all
Ġreturn ed
Ġprot ection
éĤ® ç®±
æĹ¢ çĦ¶
Ġ200 7
è®¸å¤ļ äºº
Ġrec ently
Ġrem ember
put e
éļı ä¹ĭ
æ¼Ķ å¥ı
éĢī é¡¹
è¿Ľè¡Į æ²»çĸĹ
ĠL ondon
èº ģ
èģĶ ç»ľ
ç¥ ¸
éľ ľ
am pl
æĪĳ è¦ģ
åĴĮ åĽ½å®¶
æľī ä¸ª
Ġw oman
æĺ¯ åı¯ä»¥
ä¸Ģ éĥ¨
P y
H z
1 200
ĠCONFIG RET
ĠCal ifornia
Ġfri ends
é¢ģ åıĳ
ĠEn vironment
ä½ĵçİ° äºĨ
Ġel imin
Ġconn ected
Ġreturn s
Ġext rem
Ġte eth
èįī åİŁ
æ±ī è¯Ń
è¿½ ç©¶
Ġ| |
çīĽ å¥¶
ç»Ī æŃ¢
str ong
cl us
å°ı åŃ©
çĽ¸ ç»§
éĥ½ éľĢè¦ģ
å°Ĩ è¿ĳ
èī ĺ
ct x
çĶŁ æĹ¥
ä¸į æĥ³
Ġc ities
Ġs plit
w est
_ ,
I CE
Right arrow
Ġcorrespond ing
èµ·éĩį æľº
Ġcombin ed
Ġappe ars
èķ ¾
çıį æĥľ
å¹³æĸ¹ åħ¬éĩĮ
çĶŁåĳ½ çļĦ
Ġass ign
å¾ħ éģĩ
Ġget s
åį³ ä¾¿
Ġres istance
è§Ĥ åħī
æĶ¹ ä¸º
åı£ æĦŁ
æĬķ äº§
è¿Ľè¡Į çļĦ
éĺŁ åıĭ
èĪ ±
æ°ĳ åĽ½
å¸¸ çĶ¨çļĦ
è¯´ æĺ¯
ĠM ichael
éħ ļ
åĪ¶ åĨ·
åĬł æ²¹
æĢ§ å¼º
ä½ĵ éĩį
åĵ Ģ
çĶŁ æĦı
å¹´ èµ·
æľī ä¸ĢäºĽ
åľ¨ ä¸Ĭæµ·
U s
T able
( {
& =
scri pt
Ġdise ases
å½ĵæĹ¶ çļĦ
è§£åĨ³ äºĨ
Ġstr ugg
æķ°æį® çļĦ
åħ± è¯Ĩ
iz on
æµģ å¤±
ä¸ī æĺŁ
ĠA ng
å¼Ģ åħ³
åĬĽ äºī
èĩª ä»İ
åĬ¨ æ¼«
è¿Ļ ä¸¤ä¸ª
Ġb orn
åľ¨ åĽ½éĻħ
Ŀ åįľ
w ell
r is
o oth
l c
ĠCount y
ĠPe ople
éĩĩè®¿ æĹ¶
éĻª ä¼´
Ġindust rial
Ġsimpl ify
Ġcy cle
Ġresp ond
Ġinterest ing
py thon
å°ģ éĹŃ
ern el
éĢĢ åĩº
èĽ ĩ
åħ¸ ç¤¼
Ġover all
ĊĠĠĠĠĠĠĠĠĠĠĠĠĠĠĠĠĠĠĠĠ ĠĠĠ
ys et
arg in
çīĩ çļĦ
æµĭ å®ļ
ĠR ef
ĠD uring
ä¿¡ æīĺ
èĬ ¦
Ġ$ $
åľ¨ ä»ĸ
Ġo ch
ãĢĤ [
çļĦ æ¯Ķä¾ĭ
y cl
f it
A ss
åĢ¼å¾Ĺä¸ĢæıĲ çļĦæĺ¯
é³ ŀ
MA IL
Ġbelie ved
met a
åĨ¬ å¤©
Ġ> =
Ġpar se
åĲ¬ åıĸ
é¢ĳ ç¹ģ
ç²¾ åĬĽ
è¾ĥ å°ı
Ġwe ather
ä»İ æľª
çĥ ¹
um ns
ĠC reate
åĲĮ è¡Į
ä¹Ł ä¸º
çŃī åĽłç´ł
Ġl ies
ar p
v is
g l
f older
T V
> )
æĶ¶çĽĬ çİĩ
Ġeas ier
Ġshow ed
è±ª åįİ
Ġtechn ique
å®ĮåĸĦ çļĦ
æ²Ļ çī¹
éģĹ æĨ¾
ful ly
ä¿ĥ ä½¿
å¼Ĥ è®®
è¿ľ ç¦»
å¤± ä¸ļ
çĭ Ń
é¢Ħ èŃ¦
å»ºè®¾ å·¥ç¨ĭ
é¡¹çĽ® å»ºè®¾
çĥŃ éĩı
å°ĳ çļĦ
æµ· åħ³
ĠD iv
ä¸ĩ çī©
è¿ĺ åı¯
ĠM arch
ãĢĭ ãĢģ
å°± ä¸į
Ġ( $
ĠA C
ä»ĸ å¯¹
å¤ļ äºĨ
è¿Ļ ä»½
Ġd ied
ä¸Ń æľĢ
çļĦ æ´»åĬ¨
ì Ħ
A èĤ¡
Ġdivis ible
éĢ¾ æľŁ
Ġlib rary
äºĳåįĹ çľģ
Ġsym bol
æĬ¢ åħĪ
çŀ »
åįļå£« åŃ¦ä½į
Ġtechn iques
Ġext ract
çļĦéĩįè¦ģ æĢ§
åĬŀåħ¬ åİħ
Ġser ve
$$ \
Ġac qu
Ġrel atively
å·® åĪ«
å¯Ĩ éĽĨ
äºĴ éĢļ
ä»ħ ä¸º
åıĤ çħ§
Ġch ance
Ġ\( (
ĠW ashington
äº¤ æīĢ
å¹¶ ä»¥
åħ³ çĪ±
Ġst orage
ur a
us ing
ä¸Ĭ ä¼ł
å¤§ å¥ĸ
ro y
Ġin ches
Ġb its
Ġb urn
Ġf mt
it is
Ġt itle
9 00
Ġwebs ite
ele br
Ġaffect ed
Ġintern al
æ°¨ åŁº
Ġprof it
Ġsur vey
Ġadd ing
ç¦ı å¾·
æł¸ çĶµ
ä¾¿ äºİ
çŁ³ å¢¨
è¯Ń éŁ³
å·¥ç¨ĭ ä¸ĵä¸ļ
æķĻèĤ² æķĻåŃ¦
de ed
æĢ» æī¿åĮħ
åķĨ å®¶
ä¼ģä¸ļ ç®¡çĲĨ
å¹³ åĩ¡
ĠP al
å°Ĩ ä¸º
åĵģ çļĦ
un n
æ´ ±
æĸ° å¹´
åľ° åŁŁ
åıĳ æĶ¹
å¤§ æ¡¥
Ġd ark
ä¸º æľ¬
ro te
ro ps
ä¸Ģ åŃ£åº¦
åı Ķ
r um
p red
h ome
g reg
\ %
M ark
Ġ ãĢĬ
ĠOct ober
å«Į çĸĳ
Ġadv ant
opt ions
Ġgu id
199 5
à½ ¦
ĠV er
è´Ł åĢº
æĪ¿ äº§
Ġse eds
å¸¦ å¤´
åħī æĺİ
cl uster
åŀ ¢
ä½Ĩ ä¸į
Ġst ories
å¾Ĺ äºĨ
æ³ķ å¸Ī
æ³ķ çļĦ
çĲĨ æĢ§
è½ ¿
Ġf ixed
Ġw atch
é Ħ
w itter
a ught
C I
* ;
åĻª éŁ³
Ġmil k
ĠChrist ian
Ġdeterm ined
èĳ£äºĭ ä¼ļ
ç»ıå¸¸ åĩºçİ°
Ġclass es
ĠCon clusion
pect ive
ãĥ ıãĥ¼ãĥĪ
çĮ ´
ä¸Ńå¿ĥ çļĦ
du ction
Ġsp ent
è¯ķ åīĤ
çĽ´ å¾Ħ
åĽŀ å¤į
æ³¨ æĺİ
æ³¨ çĽ®
ĠE ven
ĠE qu
å¼º çĥĪçļĦ
å®ī ä¸ľ
æ°´ æĢ§
å¸Ĥ éķ¿
æ¸ Ĭ
é«ĺ åĪĨåŃĲ
çĲĨ è´¢
è¡Į æĺŁ
å½ ¦
åĴ ¬
« çĹ
O f
E lement
å¾®éĩı åħĥç´ł
äºĮæ°§åĮĸ ç¢³
çłĶè®¨ ä¼ļ
Ġcompon ent
è½¬åĮĸ ä¸º
ĠSe pt
æ© Ļ
lab els
åİ»å¹´ åĲĮæľŁ
'] )
anc er
Ġte le
Ġbu y
æĻºèĥ½ æīĭæľº
æ¿Ģ æĥħ
ä¿® æŃ£
ĠU s
ç»´ åº¦
ĠO pen
ä½¿çĶ¨ èĢħ
æ³¨ åħ¥
Ġde al
ĠH ence
çĹħ åıĺ
ĠM useum
ri ef
od ies
åĲĮ å¹´
è½ °
æĪĳ çľģ
ac ing
å· «
ä¸Ģ æĸ¹
at ically
çļĦ ç»ıæµİ
çļĦ åĲį
u a
l ock
c are
M ult
2 20
' ll
åķ¤ éħĴ
Place holder
å¾ģæ±Ĥ æĦıè§ģ
ä»»æĦı çĲĥ
LO G
Ġrespons ible
Ġfrequ ency
Ġplan ning
AB C
Ġdisc overed
Ġsol ving
Ġ6 4
ãģ ª
èı Ĭ
æĬĬ å®ĥ
çľŁ æĺ¯
æĿĥ çļĦ
ç»Ļ äºº
ial izer
å·² è¢«
ç¾ Į
éķ¿ å¤§
æį §
Ġst aff
ä¸ĭ æ¸¸
ä¸Ĭ ç½ĳ
Ġp ul
Ġp p
åľ¨ æľªæĿ¥
åľ¨ æĪĳåĽ½
åĬ Ŀ
a fter
F act
Ġ Ã©
èĨ¨ èĥĢ
Ġfem ale
éªĳ å£«
Ġinters ection
å¤ļåħĥ åĮĸ
Ġdat aset
åĳĪçİ° åĩº
AS S
èģĶåĲĪ ä¼ļ
az ione
çĨŁ ç»ĥ
sc ore
èģĮä¸ļ åŃ¦æł¡
Ġform er
æĹ© ä¸Ĭ
ä»¥ä¸Ĭ å°±æĺ¯
æħ ¨
éĻ¤ å°ĺ
è¶ħ å¸Ĥ
Ġsh ared
æīĭ æ³ķ
åįķ çº¯
ĠR el
ä½Ĩ è¿Ļ
ä¿Ŀ å¯Ĩ
æ°´ çĶµ
ul um
çŃī äºİ
Ġn uc
éĹ ¯
Ġin struct
äºº æ°Ķ
ä¸Ģ åĳ¨
w ind
c opy
V ari
T S
æĬĳ éĥģ
åĩ¯ å°Ķçī¹
sl ice
ST R
ä¸ĢçĽ´ æĺ¯
test s
Ġfind ing
Ġcol l
å®³ æĢķ
æĤ¨ åı¯ä»¥
å¼Ģå§ĭ äºĨ
åĭ ¿
è®¾è®¡ åĴĮ
æīĵ è´¥
éĢł ä»·
ä¿¡ èµĸ
éļ Ļ
è° £
æĻ ĸ
éĩį è¿Ķ
éĥ¨ éĺŁ
å¸Ĥ åĮº
çİ° ä»»
Ġre ality
åĴĮ ä¸ŃåĽ½
äºº çĶŁçļĦ
ä¸Ģ åº§
Ġs ector
çļĦ èīºæľ¯
Ã ª
p age
h i
g raph
S cript
Ġdoll ars
ĠĠĊĠĠ Ċ
Ġhapp ens
Ġpres ence
æĹ¢ æľī
åİļ åº¦
æ¶ī å«Į
ç¬¦ åı·
Ġrel ative
æ¬§ ç¾İ
çģ« æĺŁ
å¤± æľĽ
æĶ¿åºľ çļĦ
åĨį åĬłä¸Ĭ
å¿« æį·
èģĮ åľº
å¤į èĭı
æĸ½ è¡Į
åĮĹ ç¾İ
å¤ĩ åıĹ
äº¤ äºĴ
åı¯ä»¥ å¸®åĬ©
ä»İ ä¸Ń
est amp
ĠI d
æ°´ åľŁ
od ed
å®¶ å±ŀ
å®¶ çĶ¨
å¯¹ æĬĹ
çİ Ħ
as ure
å¹´ ä»¥ä¸Ĭ
Ġd omin
Ġd ir
Ġm er
er yset
Ġt rib
ç µ
n b
d raw
d ed
M C
E nt
' ):
Ġful ly
åĽ½å®¶åĴĮ åľ°åĮº
Ġann ual
æĮĤ çīĮ
ym ph
ä¸įå°ĳ äºİ
é¢ĨåħĪ çļĦ
ä¹Į é¾Ļ
èªī ä¸º
cont in
Ġgr ass
ç»Ĩèĥŀ çļĦ
IN E
çŁ¥è¯Ĩ åĴĮ
Ġpart y
Ġup per
è´Ł éĿ¢
ç¢ Į
åıį åĩ»
åĳ¨ æľ«
ä¹Ĳ è¶£
éĢļè¿ĩ äºĨ
è¿ĳ ä»£
æİ¨ åĩºäºĨ
å½¢ å®¹
åĮ» æ²»
ĠH ash
æŃ£ å½ĵ
ĠB ar
ä¸Ģä¸ª æľĪ
åħĥ ä»¶
æķĻ åłĤ
éķ ģ
Ġg ave
åħ¨ åľº
æĮ «
è¿Ļ æĦıåĳ³çĿĢ
æ³ ¼
æĬ ¬
ä¸į ä¸Ĭ
ed ge
æľī ä¸Ģå®ļçļĦ
Ġf ailed
Ġa st
a o
åĴ± ä»¬
Ġdou ble
åįģåĽĽ äºĶ
Wh ile
Ġmeas ures
Ġfr ame
Ġplan et
199 4
èĶ ĵ
ä»¥ä¸ĭ çļĦ
çĶ· åŃ©
äº² èĩª
éĴ¢ çĲ´
ç¦ı å·ŀ
ĠSt art
äººæ°ĳ ç¾¤ä¼Ĺ
æ¼Ķ ç»İ
å¤´ çĲĥ
æĪĺ ç»©
æĶ¹ æŃ£
æľįåĬ¡ å¹³åı°
çĶ± ä¸ŃåĽ½
Ġex hib
åıĳå±ķ è§ĦåĪĴ
ĠM ary
æĽ´ è¿Ľä¸ĢæŃ¥
éĥ¨ çļĦ
if ically
Ġfor ces
æĸ° äº§åĵģ
Ġe fficient
il le
çĶ¨ å¿ĥ
st ats
Ġb one
ar a
ä¸Ģ æĶ¯
Ð »
semb ly
Ġey es
æ·»åĬł åīĤ
Ġsimpl ifies
AP I
è´¦ åı·
Ġexpl ore
Ġmain t
æĢ¥ æĢ§
éĩĳèŀį æľºæŀĦ
Con n
æĦ¿ æĻ¯
oth ur
ç¬¬äºĮ ä¸ª
åī§ æľ¬
pro duct
éļı æľº
å¥³ æİĴ
åŁŁ åĲį
æĶ¾ å¤§
åĪ« å¢ħ
æĬķ ç¥¨
åģļ å¾Ĺ
åĲĳ ä¸Ĭ
æĢ» åĢ¼
è¥¿ èĹı
10 5
ort hern
ers on
æĥħ æĢĢ
å¤ĸ çļĦ
æķĻ å®¤
çŁ ¶
éķ¿ åº¦
ĠA D
æĥ Ł
æĬ ĸ
ä¸į ç¬¦åĲĪ
æĺ¯ ä¸º
ä¸Ģ åįĬ
å® °
çļĦ åĬĽéĩı
r andom
S l
F T
B L
' ))
' ve
Ġcit izens
åĬŀäºĭ å¤Ħ
Ġrecomm end
ä¸įéĶĻ çļĦ
Ġant i
å¤º åĨł
ä¸¾è¡Į çļĦ
Ġbo ys
é¹ ¤
æľºæ¢° è®¾å¤ĩ
çĶ² çĬ¶
ä¹° åįĸ
çĻ» éĻĨ
Ġcol lab
æī§ ä¸ļ
ra wn
åĲ« ä¹ī
è§ģ çļĦ
åįĩ é«ĺ
èī² è°±
10 4
åĲĮ æł·çļĦ
ä»ĸ è¿ĺ
åĲĪ çº¦
åī ¥
il it
E d
ëĬ Ķ
æĴ¤ éĶĢ
ĠIntern et
åĢ¾ åĲĳ
åħ»èĢģ ä¿ĿéĻ©
Ġinit i
Ġcontin ued
met ic
çİ© åħ·
åĩıå°ĳ äºĨ
æ°¸ ä¹ħ
sc ale
ä¸įæĸŃ åľ°
åĽ¾ æ¡Ī
Ġwor th
æ¢ ³
ĠG reat
ç¥ Ī
çĽ¸ æľº
åľº åĿĩ
ä¹ĭ æĹħ
un c
ĊĊ ĉ
è¿Ļ é¦ĸ
st rip
Ġd ynam
ä¸į åŃĺåľ¨
å¼ §
æľī èī²
åľ¨ ä¸Ń
ä¸Ģ æĹ¥
æĺ ı
çļĦ æ¦Ĥå¿µ
çļĦ å»ºè®¾
s chema
s econd
M et
Ġ race
Ġdenomin ator
æł¸éħ¸ æ£Ģæµĭ
åįļè§Ī ä¼ļ
ĠPart ial
çĥ¦ æģ¼
åĲĦé¡¹ å·¥ä½ľ
æº¶ äºİ
å´ ©
by te
åĽº åĮĸ
Ġass et
æľ¨ æĿĲ
çĨ ¬
Ġcol lege
åī¯ ä¸»å¸Ń
è¡Įä¸ļ åįıä¼ļ
é©¬ å¾·éĩĮ
åĪĴ åĪĨ
ans ion
æĶ¯ æŁ±
pt r
åŀĭ ä¼ģä¸ļ
åķĨ åºĹ
éĺŁ éķ¿
ĠB ox
up le
åıĳå±ķ æĪĺçķ¥
ĠM ult
åĪ¶ åīĤ
çł į
å¸Ĥ çº§
æĸ° æĺ¥
ĠT em
æĪĳ åĴĮ
st ract
çĶŁ æķĪ
Ġp up
Ġp en
Ġw rong
è¯ ł
Ġc ast
Ġs ys
c ard
åŃµ åĮĸ
ĠAssoci ation
xi ety
Ġur ban
åĨĴ éĻ©
geq slant
ä¸»æĮģ äºº
Ġdig ital
éģŃ åıĹ
éĵ¶å±ĳçĹħ çļĦ
åħ¬å¸ĥ äºĨ
Ġlead s
Ġback ground
requ ired
æĭ¿ ä¸ĭ
åĲ¯ åıĳ
å¿ħé¡» è¦ģ
Ġsol id
Ġexp osure
åł ¤
éĺ³ æĢ§
ç»Ĩ åĪĨ
é¦ĸ åıĳ
æĤ Ħ
æĺĵ äºİ
æ¯ı åĳ¨
æĿ¡ è§Ħå®ļ
åħ± èµ¢
ĠH IV
ĠH ouse
éĩĮ åħĭ
ĠB ook
est ion
åŃĲ å®«
åĨħ åŃĺ
æ³ķ å®ĺ
æ³ķ åŃ¦
çŃī äºº
as ion
Ġp overty
æĺ¯ çĽ®åīį
an ia
or gan
t d
p us
b est
H ead
D ir
Ġ rac
KE Y
pref ix
ĠJan uary
ĠAfric an
ĠAfric a
ç¦ıå»º çľģ
æĭ¼ æĲı
ä½ıæĪ¿ åħ¬ç§¯éĩĳ
199 3
å¹¸ è¿Ĳ
åĸľ åī§
æ³¢ åħ°
ç¼ĸ åī§
éĴ¢ æĿĲ
Ġint ake
çļĦä¸Ģ é¡¹
Ġcl uster
Ġcl ick
åĭ ¾
æİĴ æŁ¥
åįİ äºº
çĶŁäº§ ä¼ģä¸ļ
èĻ ¾
æĦŁ çŁ¥
ĠN ote
ä½Ĩ çĶ±äºİ
ch annel
ad emic
èĤ ļ
Ġe g
il os
Ġd om
Ġb is
Ġc ards
or ter
re place
Ñ ĭ
s v
p x
j i
g oogle
= [
ĠLear ning
åİ¨ æĪ¿
tem p
Ġevent ually
head er
çĶµåĬ¨ æ±½è½¦
ä¸īåĪĨ çĲĥ
gr u
Ġpower ful
oh ol
åĳĺå·¥ çļĦ
çī¹åĪ« æĺ¯åľ¨
éĩĳèŀį æľįåĬ¡
Ġem b
è¡ĮæĶ¿ å¤Ħç½ļ
å¼Ģåıĳ çļĦ
ç¨İ çİĩ
æĺ¯ä¸Ģ ä½į
çŁ³ å®¶åºĦ
åĽ½éĻħ æľºåľº
é©¬ æĭī
åİĨ ç»ı
è¶Ĭ å¤§
åı· çłģ
å¤į åħ´
å¢ĥ çķĮ
åĻ¨ å®ĺ
ä¼ĺ è¶Ĭ
ĠN umber
ç»Ł æ²»
and er
ä¸ī çŃīå¥ĸ
åĿ ¤
æĻ ķ
ir cles
Ġ1 50
ĠT ext
am a
æŀ «
Ġto ward
äºĨ æĪĳ
ä¸º ä¸Ģä½ĵçļĦ
Ġb all
Ġc elebr
çļĦ ä½įç½®
i at
h ow
Ġ æĹ¥
éħ° èĥº
å¿½ çķ¥
å¾Ĵ åĪĳ
angu ages
æ³¡ æ²«
èĵĿ èī²
ç¯ĩ æĸĩç«ł
Ġ200 5
è°Ī åĪ°
Ġdes cription
è´§ æŀ¶
å®¡ è®®
Ġne uro
å·¥ç¨ĭ åŃ¦éĻ¢
Ġk g
Ġwas te
æĮĩ å¼ķ
ĠW ater
ç»Ħ ä»¶
åķĨ åľº
åĲĦ éĥ¨éĹ¨
ĠM et
éĩĳ åĪļ
æ¯Ķ åĪ©
æ¶ ¡
å®ŀ äºĭ
é« ĵ
ä¸Ĭ åįĬåľº
åŃ¦ è´¹
ä¸Ģ å¼Ģå§ĭ
çļĦ çłĶåıĳ
s ample
p df
A ut
çĶ²çĬ¶ èħº
ĠApr il
Ġobserv ed
Ġvert ices
Ġconsum ption
Ġsuggest s
æīĢè°ĵ çļĦ
Ġbenef it
èħ¹ æ³»
ï¼ħ ãĢĤ
è¾Ľ èĭ¦
å« ģ
overn ment
199 7
æķĳ åĬ©
é»ĳ æļĹ
é¡µ éĿ¢
Ġsy n
bo ol
ä½ľä¸º ä¸Ģä¸ª
çª Ŀ
å·¥ç¨ĭ å»ºè®¾
Ġ[ "
æ²¡æľī äºº
èĢģ åĮĸ
æ¢ Ń
nd s
æ¯ı ä¸Ģä½į
æİ¨ åĩºçļĦ
ä¹¦ ä¸Ń
ĠG en
åĸ ī
éĽĨ ç¾¤
ä¸ī æ¬¡
ĠP ath
æ¶ ¤
åĬł å·ŀ
ä¸ĭ åįĬåľº
Ġg iving
ĠS ol
Ġe arn
é¢ Ĥ
ac ters
ä¸į åĪ©
ä¸Ń æĸ°
Ġp ush
Ġc as
Ġt asks
Ã ¨
m g
h y
V al
E P
æİĴè¡Į æ¦ľ
Return s
ĠHT ML
ĠGener al
pare n
æħ° éĹ®
è°¨ æħİ
èĳ¡èĲĦ çīĻ
æ½® æµģ
æ´¾ éģ£
Ġte ach
è¿½ è¸ª
Ġsup plement
Ġwork ed
Ġfind ings
åįķä½į çļĦ
å·²ç»ı åľ¨
åħĭ æĭī
æ²¡æľī ä»»ä½ķ
çĶŁäº§ èĥ½åĬĽ
per ties
å¤į åĪ¶
å°Ķ æĸ¯
éĽĨ åĲĪ
åıĹ åĪ°äºĨ
og en
th at
æĪĳä»¬ éľĢè¦ģ
åĪ© æģ¯
Ġv ector
æ°´ éĩı
se m
è¿Ļ å®¶
Ġn ull
åĳ Ĩ
ä¸Ĭ çıŃ
Ġp lease
Ġs en
åĲ ģ
U E
N G
C o
) **
Ġaw ait
è®²è¿° äºĨ
scri ption
ä»ĵ åºĵ
æľĭåıĭ ä»¬
ç¤¼ çī©
æĳĦ åĥı
Ġinf l
Ġco ast
èģĮä¸ļ æĬĢæľ¯
å±Ĭ åħ¨åĽ½
å®ĺ åĳĺ
åħļ ç»Ħ
æ¨ ±
ĠF ound
ri vers
æ°´ èµĦæºĲ
se g
ĠS ur
å¤ļ å½©
åı¯ è¡Į
ent ry
åĮ Ļ
æľī çĽĬ
Ġa uth
çļĦ çĲĥåĳĺ
çļĦ çĲĥéĺŁ
çļĦ åĵģçīĮ
c ase
S p
G r
D at
Del ta
åĿĲèĲ½ äºİ
âĨ Ĵ
Ġdrug s
çĸ² åĬ³
ä¸§ å¤±
é¥± åĴĮ
íķ ĺ
åĨľæ°ĳ å·¥
down load
ç¡ķå£« åŃ¦ä½į
Ġrad iation
point s
Ġhim self
Ġlook s
Ġph one
ĠUn ion
åĽ° å¢ĥ
Ġdi abetes
åĽº éĨĩ
100 00
è¾ĵ æİī
ĠSt andard
ãģ ¦
âĢĿï¼Į âĢľ
éĻ¤ å¤ĸ
æĿĥ åĬĽ
åĬŁ å¤«
Ġse ed
ud a
åģļ äºĭ
ç¤¾ ä¿Ŀ
äº¤ å¾Ģ
å¼º åĽ½
æłĩ é¢ĺ
æĦı çĶ²
Ġg ain
ä¸İ ç®¡çĲĨ
ä¸İ ä¼ļ
st at
åĽ½ éĺ²
åĴĮ é«ĺ
æľī è®¸å¤ļ
Ġf uel
re r
Ġa im
çļĦ æķĻåŃ¦
E MAIL
E q
! !
Ġ 2022
Ġcommerc ial
çĢ ĳ
é¥² æĸĻ
dig it
Ġdeg rees
lim it
Ġorgan izations
äººç±» çļĦ
æ´Ľ æĿī
åĪĽéĢł äºĨ
èĶ ļ
cont ainer
åĿļæĮģ ä»¥
çŁ¿ å±±
å®Ī æĬ¤
å®Ŀ é©¬
éĢģ åĪ°
ç½ĳç»ľ å®īåħ¨
ä¸įæĸŃ æī©å¤§
èĪ¬ çļĦ
è¾¹ çļĦ
Ġsc ore
å®¡ å®ļ
æł¸ åĩĨ
è´Ł èį·
ãģ ¨
åĪĹ ä¸º
æŀģ ç«¯
ç¥ŀ è¯Ŀ
ĠO nce
è§Ĩ è§Ĵ
çĽ´ èĩ³
åĲĳ åīį
åĲĦ æĸ¹
å¸¸ çĶ¨
æĪĳä»¬ å¯¹
æľŁ å¾ĴåĪĳ
Ġst ars
ol ds
æĿ¥ ä¸´
åĩº æľī
éĿ ĸ
å¥ ´
ä¸į å½ĵ
æĺ¯ éĢļè¿ĩ
åħ ĳ
Ľ èµ·
b ra
S ource
æ´ĽæĿī çŁ¶
ï¿ ½
Ġbott om
ĠCons ider
çīµ å¤´
åģ¶ åĥı
Ġbuild ings
Ġmy th
Ġcar ried
ä¼´ éļıçĿĢ
æĳĦ åħ¥
çĶ² åŁº
åĬŁèĥ½ çļĦ
Ġequ ival
åĨĻ çļĦ
å®¡ ç¾İ
å®¡ çĲĨ
ç¬¬ä¸Ģ æĹ¶éĹ´
éĻį è§£
åĩł ç§į
æ¹ Ľ
åħ» æĪĲ
ĠO ff
19 90
Ġch annel
ĠH el
10 7
ä»£ æĽ¿
åħĥ çļĦ
Ġcon sequ
è° ľ
æĢ§ åĪ«
ä¸ª å·¥ä½ľ
åĴĮ ä¼ģä¸ļ
å¸ Ĳ
Ġf ix
åľ¨ ä¸į
ä¸Ģ ä»¶
Ġs aw
Ã ł
u ing
S k
Ġneigh bor
Ġindepend ent
Ġpow ers
Ġstrateg y
Ġredu ced
å½ĵåľ° æĹ¶éĹ´
æ³¨åĨĮ èµĦæľ¬
Ġoff ice
è¯¢ éĹ®
è¿½ æº¯
ä¸įæĸŃ æıĲåįĩ
æĿ¿ çļĦ
ĠJ ust
Ġ[ '
æ¢ Ĺ
åħī çĶµ
æ²¡ æĥ³åĪ°
ĠE nt
ç´ Ĭ
æĪĳä»¬ éĥ½
ĠP ublic
å°ı å¾®
Ġpro port
ch ildren
æľ¬ åľºæ¯ĶèµĽ
ot o
æĮ £
åĩº åħ·
åĩ °
ä¸į å¤§
Ġa ud
çļĦ èĬ±
ł ķ
t ree
s n
i ples
R un
R ed
ç¾Į ä½Ľ
appro x
Ġthous ands
åħ¸åŀĭ çļĦ
Ġdid n
Ġsign s
Ġinf r
æī§è¡Į å®ĺ
IN ST
Ġoff ers
åĮ»çĸĹ æľºæŀĦ
å¤® è¡Į
æŃ¦ åĻ¨
ĠâĢ ¦
çĶ· ç¯®
æī§ å¯¼
ob s
def in
æ²»çĸĹ æĸ¹æ³ķ
å¼ķ çĶ¨
è£ħ ç®±
ip p
Ġcom ing
å¢ŀ å¤ļ
å¾Ī é«ĺçļĦ
ç¾İ åŃ¦
çī¹ ç§į
æķĻ çłĶ
éķ¿ è¾¾
ä¹Ł ä¸įæĺ¯
ĠS un
çİ° å°Ĩ
åĩº äºİ
Ġl if
ä¼ļ äº§çĶŁ
ä¸į æĩĪ
ä¸Ń åİŁ
çļĦ æ¶Īæģ¯
çļĦ çĲĨå¿µ
å ļ
S A
R P
L ink
F in
è¯ł éĩĬ
åĩ¯å°Ķçī¹ äºº
è¡Ķ æİ¥
Ġabs or
ĠOr gan
Ġexpl ain
Ġstruct ures
æľīä¸Ģ å¤©
æ¹¿ åľ°
æĮĩå¯¼ ä¸ĭ
ç´¯ ç§¯
çŁ¿ ä¸ļ
Ġtrans l
}\ ).
æŁĲ æŁĲ
ç§¯æŀģ åıĤä¸İ
åĲĥ é¥Ń
sq l
å¾® ç¬ĳ
ä¸¥ å³»
éĿĴ æµ·
é¾ Ł
åĭ ī
ç¦» å©ļ
å¦Ĥæŀľ ä¸į
åĳ¨ å²ģ
è¶³ èģĶ
Ġse ven
202 4
åŀĭ æĿĲ
** *
æİ¥ åı£
ĠB en
Ġwe ak
åħ¥ åĽ´
ç§ĳ éĻ¢
åĮº åĪĨ
çŃī çī¹çĤ¹
id l
å®¶ ä¼ģä¸ļ
ä½ľ äºĨ
ä¸Ĭ èµĽåŃ£
çĶ¨ éĩı
ent y
å¹´ æľ«
Ġm ale
å¼ Ĭ
ing u
æĺ¯ å¦Ĥä½ķ
Â ®
{ %
& &
ç´«å¤ĸ çº¿
Out put
Ġcoordin ates
èĮħ åı°
reed om
Ġhapp en
åŃķ å¦ĩ
çļĦæľĢ å¤§
stand ing
å¿ĥçĲĨ åŃ¦
æĶ¹éĿ© å¼ĢæĶ¾
è§¦ æĳ¸
éĽ· æĸ¯
hen s
Ġno vel
åı¦ æľī
æ¬¢ ä¹Ĳ
åįĬ åĨ³èµĽ
ition ally
æ²»çĸĹ çļĦ
ä¿¡æģ¯ åħ¬å¼Ģ
ĠU K
é¦ĸ ä½į
åıª ä¼ļ
ĠD ist
Ġex cess
æĹł æľº
è´¨ çĸĳ
os en
å½ĵ æĹ¥
ç³ Ł
åīį è¡Į
å¼Ģ åĪĽ
æĸ° è¥¿åħ°
ĠT ime
el ess
çļĦ éĢŁåº¦
[ -
A ccount
Ġ river
Ġestim ated
è·¨å¢ĥ çĶµåķĨ
ĠDec ember
Ġplay er
ffic iency
çĽĳçĿ£ ç®¡çĲĨ
Ġexper iment
è¯Ĺ æŃĮ
éº Ł
ä»į åľ¨
Ġcons ists
é² į
åī§ ä¸Ń
ä¸ĵä¸ļ åĮĸ
ç¡® ç«ĭ
çħ İ
èĩ³ åħ³
éĴ ¾
å¹¶ éĢļè¿ĩ
ä¹ĭ å¿ĥ
æľĪ åĪĿ
Ġg old
æĹ¥ è®¯
æĸ° ä¸Ģä»£
é«ĺ åħ´
åĳ Ģ
as tern
Ġm agn
åĴĮ å¤§
ä¸į å®ľ
å· ¾
Ġp hen
çļĦ é£İ
c ohol
c her
M V
Ġstim ul
å°¤æĸĩ åĽ¾
Ġadj ust
æĵħ éķ¿
å½° æĺ¾
Ġâ Ĩ
Ġcomplet ed
Ġwant ed
rop ical
man ager
éĺ» æŃ¢
az on
ann els
èĢĲ èħĲèļĢ
Ġdef ine
aw s
çıŃ çº§
ãĤ ¿
åĳ³ çļĦ
æĭĽ æĶ¶
erv ices
ĠV ersion
å®īåħ¨ çļĦ
Ġj ournal
Ġj our
ç»ıæµİ æķĪçĽĬ
é©¬ æĸ¯
ç«Ļ çĤ¹
åıª ä¸įè¿ĩ
çģ ¿
() ).
oc ation
ç¡ Ŀ
ĠM ount
éĹ´ æİ¥
å°Ĩ è¢«
è¿Ļ æĿ¡
ä½ľ æĸĩ
ä¸Ĭ åĳ¨
ent er
äºĨ å¯¹
ä¸Ń é£İ
ç» Ĵ
çļĦ å°±æĺ¯
t ics
n y
d ot
M N
) ?
' ;
Ġ ::
:? }",
æĪĲå¹´ äºº
Ġrequire ments
rec ord
åıĳçĹħ çİĩ
çĿ¡ è§ī
æĳ© æīĺ
æĲŃ è½½
æ¶¨ å¹ħ
Ġbel ong
æĺ¯åĲ¦ æľī
äºĨä¸Ģ ç§į
ific ations
çľ¼ åīį
å»ºçŃĳ ä¸ļ
åĨ³ è®®
æĶ¾ å°Ħ
çłĶç©¶ äººåĳĺ
åı£ ç¢ĳ
å°ĳ å¥³
æĸ¯ æĭī
ä¸ľ é£İ
æł¡ ä¼ģ
ç«ĭ åĪ»
ill ing
our s
ĠThe ir
æĶ¿ åįı
éĩĳ éĴ±
Ġcon flict
æľĢ æĸ°çļĦ
æ°´ å¤ĦçĲĨ
å»º æŀĦ
ĠC alculate
ĠT wo
ig inal
æĮ ½
åĽ½ èµĦ
è´ ª
äºĨ è®¸å¤ļ
åĴĮ å·¥ä½ľ
åĩ ĳ
ä¸į ç¡®å®ļ
Ġb le
or a
Ġs ac
çļĦ åĨ³å®ļ
Å ¼
Å Ĥ
V R
S ee
å¤įåį° ä»¶
Ġimmedi ately
ERS ION
æ±Łè¥¿ çľģ
Ġpack age
Bu ilder
process ing
dev ice
Ġgreat est
å¯Ĵ åĨ·
æľīäºĽ äºº
çļĦæľĢ æĸ°
éģį å¸ĥ
ĠCl oud
å®ŀè·µ ä¸Ń
Ġlet ter
Ġevery one
AC H
éĿĻ çĶµ
Ġsub tract
èĮ¶ çļĦ
éĢīæĭ© äºĨ
ç§ĳåŃ¦ çļĦ
åĢĻ éĢī
pro v
çĪ± åĽ½
ç©º ä¸Ń
ç»Ń çº¦
çĥŃ åĪº
çĥŃ çĤ¹
åĽŀ å¤´
ç²¾ ç¡®
æĥħ çļĦ
ap es
å¹¶ ä¸º
ith metic
åīį éĿ¢
èĢħ åĴĮ
od o
ä¸į éĢĤ
ç» £
åĲ ¾
ã İ
t k
l ayer
g lobal
Ġ ä¸Ń
é©¬åħĭ æĢĿ
åº§è°Ī ä¼ļ
é¦ĸå¸Ń æī§è¡Įå®ĺ
åĲĪéĢĤ çļĦ
ãģĻ ãĤĭ
Dis play
å¥ĳ æľº
ograph ic
æİĴåĲį ç¬¬
Ġ% }
çĽ®çļĦ åľ°
Ġlet ters
æ¯ķä¸ļ åĲİ
åľ£ ç»ı
ä»£è¡¨ å¤§ä¼ļ
äºĨè§£ ä¸Ģä¸ĭ
ãĤ ¤
æ¿Ģ æ´»
è¾¹ çķĮ
è¿ĩç¨ĭ ä¸ŃçļĦ
åħ° å·ŀ
åĪĿ çº§
éħĴ ç²¾
æĻ® æ´±
ãģ ĭ
æĬķèµĦ åŁºéĩĳ
ä»Ģä¹Ī æł·çļĦ
Ġper haps
è¿ŀ éĶģ
çļ® æįŁ
äºĶ åįģ
ç³»ç»Ł ä¸Ń
è¶Ĭ é«ĺ
åıª éľĢè¦ģ
æľįåĬ¡ äºİ
æīĭ åĬ¨
ab ric
åĮº éĹ´
èµĦ æ·±
ĠC ong
ä¹ĭ ä¸Ĭ
ä¸İ ä¸ŃåĽ½
åľ° äºļ
ut orial
Ġh on
ä¸º ä»£è¡¨
Ġw rote
y les
p air
n f
i ences
d c
G A
> </
" ],
Ġsug ar
Simpl ifying
åĩ¤ åĩ°
Ġsubject s
Ġfil ter
conn ect
Ġconsider ing
reg ister
ĠHe ad
æıĲåįĩ äºĨ
è¿Ļç§į æĥħåĨµ
ç¿ ģ
æĺ¥ å¤©
åĩı æĮģ
å½±åĵį åĪ°
Ġcomp re
ç«Ļ å¼ı
åįİ åįĹ
ç¥ŀ å¥ĩ
åĽ½å®¶ æłĩåĩĨ
é© ³
æµ· å²¸
ĠH igh
æ°ĳ èĪª
op es
Ġpro s
çī© ä½ĵ
ĠC ap
å±ķ åĩº
Ġn orm
st yle
Ġin nov
æľī ä¸Ģå®ļ
Ġf it
ä¸Ģ åı¥
j it
N e
èį§ åħī
æ®ĭçĸ¾ äºº
Ġill ness
Ġlink ed
æĺ¨ æĹ¥
åı¯éĿł æĢ§
bu f
éĿł è¿ĳ
ç¬¬ä¸ī äºº
Ġcol ors
è¿ľ çļĦ
ber t
Ġun ivers
ä¹¦ çĶ»
æĥ³ èµ·
æµ· æĭĶ
Ġal ign
åº¦ è¿ĩ
éķ į
è¿ĩ æ¸¡
å¹´ çº§
äºº äºº
æĺ¯ æ¯Ķè¾ĥ
y e
b lob
b ig
T O
P ython
N ote
M ax
Ġflo or
å°ĳæķ° æ°ĳæĹı
Ġve h
}+ \
loc ation
åĳ¼ åĲģ
Ġvis ion
å´ ĸ
æĿ¥èĩª äºİ
çĶŁçī© åŃ¦
99 9
åĮ»éĻ¢ çļĦ
åĲĪä½ľ åħ³ç³»
ĠV isual
ret e
ĠJ ames
å¦Ĥæŀľ æ²¡æľī
è¡Įä¸ļ åıĳå±ķ
é©¬ ä¸ģ
èī² ç´ł
èµĽ ä¸Ń
å¾Ī å¼ºçļĦ
ä¸ŃåĽ½ äºº
Ġv oc
å¤© ä¸»
Ġ1 20
ĠS an
å¤ļ ä¹Ī
Ġh un
åİ Ħ
ä¸º å¯¼åĲĳ
Ġp ull
in n
çļĦ çĶµå½±
Ã º
v ol
h av
d i
c ur
G roup
Ġabsol ute
ç«ĭæĸ¹ ç±³
Ġspir it
Ġchalleng es
Read er
tem plate
ĠMan agement
é©¾é©¶ åĳĺ
Ġrepresent ed
æ²¿ æµ·
æ´¾ åĩº
æ±ĩ èģļ
æĢĢ çĸĳ
æ´ģ åĩĢ
èĻļ å¢ŀ
æ²Ļ æ¼ł
ç§» æ¤į
åıĳçİ° äºĨ
çĨ Ļ
åİ¿ åŁİ
çĻ¾ å¼º
å¥¹ åľ¨
pro perty
åį³ æĹ¶
Ġcont ribut
Ġsp ring
å®ĥ åı¯ä»¥
ç²¾ çĽĬ
è¾ĥ å°ĳ
æĥ³ åĥı
åİ» åģļ
ç¦ Ħ
éĹ¨ è¯Ĭ
10 26
ĠB C
æŃ¤ ç±»
ĠM icrosoft
çĿ ¿
æı ½
å¤ļ æĿ°
åı¯ åĨįçĶŁ
ic ians
ä¸Ģ æ¬¾
ä» Ĺ
ä» ķ
v nd
n ormal
] ),
S O
P oint
Ġ ĊĠĠĠ
åİĭç¼© æľº
æ·±åĪ» çļĦ
Ġparam eter
Ar g
iver se
ĠComm un
Ġchar acters
Ġpresent ed
Ġproper ly
åħ¬å¸ĥ çļĦ
ĠAr c
ä¹Į åħĭåħ°
Ġmain ly
ç©¿ è¶Ĭ
éĽĦ åİļ
çŁ¿ çŁ³
æĺ¾ç¤º å±ı
pos es
St ore
]( /
åĩºçİ° çļĦ
æĻ® æĥł
èµ° äºĨ
åħ¶ä¸Ń åĮħæĭ¬
åĪĽæĸ° çļĦ
äº§ä¸ļ åĽŃ
ç¦» å¿ĥ
çİ¯å¢ĥ ä¸Ń
æ±Ł åįĹ
Ġen v
åĽĽ åŃ£
å¸ĥ é²ģ
çľĭ äºĨ
æ¡ ©
è¯´ åĪ°
ä¸ŃåĽ½ äººæ°ĳ
ain e
ĠM ake
è¡¨ æĥħ
æľĢ å¤ļçļĦ
æľĢ æľī
å¼Ģ äºĨ
ur i
ĠT otal
ac cess
B E
A rc
gz ip
Ġerr ors
Ġnut ri
Ġmeet ing
part ial
ä¸įç®¡ æĺ¯
æ¯ıä¸ªäºº éĥ½
Or igin
Ġexpress ed
æĳĨ èĦ±
çĶµåĬ¨ è½¦
ĠÃ Ĺ
Ġlog ging
Ġmat hemat
åįļå£« åĲİ
Ġown ers
å¸Ŀ åĽ½
æİĮ æİ§
ä¼Ĭ æľĹ
èĢĲ çģ«
å®ģ å¤ı
Ġpre p
ç§¯æŀģ çļĦ
Ġcol d
ä½Ļ é¢Ŀ
æĺ¥ ç§ĭ
åŃĹ æ¯į
äºĶ éĩĳ
æĶ¾ ç½®
çłĶç©¶ çļĦ
The y
ant ic
Ġde ploy
åįģ æĿ¡
ä½ł è¦ģ
Ġex ternal
ĠM odel
ĠI r
æľº ä½ĵ
é«ĺ ç§ĳæĬĢ
åħ¬ ä¸»
ä¼ļ ä½¿
ä¸º ä¸»è¦ģ
Ġb in
Ġf ig
åľ¨ æ²»çĸĹ
æĺ Ń
Ġt ab
l ers
V ERSION
U se
N E
å¤ļæĿ° ç¾Įä½Ľ
Ġobt ained
clud ing
çĥŃæ°´ åĻ¨
æŃ£è§Ħ çļĦ
çŃĽ éĢī
Ġlearn ed
æĿ¥æºĲ äºİ
æľīæīĢ ä¸įåĲĮ
sp an
é¡¶ å°ĸ
çĶµåŃĲ éĤ®ä»¶
æ¿Ģ åĬ¨
ph one
æĺ¥ è¿Ĳ
ä¸¥ èĤĥ
å¤ĦçĲĨ çļĦ
ä½ı éĻ¢
åĳ½ åĲį
ens us
æĪ¿ ä»·
ä¸ĵä¸ļ å§Ķåĳĺä¼ļ
ä¹Ĳ åĽ¢
æĮĩ ä»¤
ĠL inux
çľĭ ä¼¼
æµģ æĦŁ
å·² åľ¨
ä¸ª æ¡Ī
éĹ ·
çĶŁ åĮĸ
çī º
ic ed
ä¸į å¿ħ
Ġb al
Ġw ire
ä¸Ģ åıª
M M
B r
A çº§
) \)
Ġ 00
ĠSept ember
è½¿ è½¦
hand ler
Ġsignificant ly
ĠPh ys
Ð¾Ð ²
Ġfr ag
Ġtechn ical
Ġart icles
åħ³æ³¨ çļĦ
Ġgener ation
çĤİ çĹĩ
Ġfl at
è¡¨çİ° ä¸º
èĸ Ľ
éĶĻ è¿ĩ
çĶ¨æĪ· æıĲä¾Ľ
åī¯ ä¼ļéķ¿
æī§ çħ§
æĺ¥ åŃ£
è´Ń æĪ¿
éĿŀå¸¸ çļĦ
åľŁ èĢ³
ãģ Į
è¿ĳ å¹´
å®Į å¤ĩ
åĽ½å®¶ éĩįçĤ¹
é¢Ĩ åĨĽ
Ġat m
èī² åĪĹ
åįģ è¶³
éĴ ®
Ġal gorith
ĠM em
æ² ¥
Ġh ope
ent h
Ġm outh
ä¸į å®¹
Ġb ag
çļĦ åĽ½éĻħ
u ations
m iss
S ec
F e
åľŁèĢ³ åħ¶
çīº çī²
ãģ¾ ãģĻ
æī³ å¹³
ç§ģåĭŁ åŁºéĩĳ
Ġrect angle
Ġbir ds
ï¼Ĳ ï¼Ĳ
è¾½å®ģ çľģ
Ġcho ices
éģŃ åĪ°
Ch ar
Ġpass es
ç¡¬ åĮĸ
col l
Ġgr id
è¿Ŀ çº¦
ĠPro blem
Ġop in
é¥® çĶ¨
æĬĹ ä½ĵ
åįĥ å¹´
ç£ ħ
Ġpe ace
Ġexp and
ress ed
ç¤¾ä¼ļ åĲĦçķĮ
ff i
ç»Ļ æĪĳä»¬
å¤į æĹ¦
æīĵ åĩº
è¿ĳ è§Ĩ
çĥŃ çļĦ
çĻ½ å¤©
å¯¼ èĪª
ri e
çĽ¸ å¤Ħ
çī© ç§į
å¯¹ èĩªå·±
æŀ ¯
åıĳ æī¬
Ġd f
ä¸Ń è¥¿
Ġp d
al ax
âĢ Ĥ
åĬ «
çļĦ ç©ºéĹ´
çļĦ å»ºçŃĳ
á »
z en
w indows
u its
i Phone
c ursor
Ġ ]
Ġwid ely
èĵ¬ åĭĥ
Ġremov ed
åŀĤ çĽ´
Ġrelig ion
ober t
Ġprevious ly
å¾®ä¿¡ åħ¬ä¼Ĺåı·
æłĩå¿Ĺ çĿĢ
oper ator
å£® å¤§
Ġmat ches
ç£¨ æįŁ
Ġsl ight
ĠCl ass
æĢİä¹Ī åĬŀ
Ġexper im
Ġdist rict
æĪĲç«ĭ ä»¥æĿ¥
æ¸¸æĪı çļĦ
-------- ----
St ream
ple ments
æŀģ åħ¶
ast ruct
è®® é¢ĺ
è°ĥ è§£
åıĺ æĪĲäºĨ
äºĮ æīĭ
èģĶ æīĭ
åŀ Ĵ
pl ugin
Ġv ary
å½ĵ æĪĳä»¬
åı¸ æľº
est s
éĩı ä¸º
å®ļ ä»·
åĵ ¦
å¹´ è¢«
Ġan xiety
ä¸Ń å¤ĸ
åľ¨ æĪĳä»¬
Ġc os
Î ²
C F
åıĳæĶ¹ å§Ķ
çĦļ çĥ§
æ¸ħåįİ å¤§åŃ¦
Ġopportun ities
èĳĹä½ľ æĿĥ
èģĬ å¤©
äººä¸º æľ¬
ìĿ ´
conn ection
æ§ Ľ
éī´ äºİ
æĳ© æĵ¦
æľīæľº çī©
æ¶Ĥ å±Ĥ
åħħåĪĨ åĪ©çĶ¨
æĿĢ èıĮ
Ġsign ature
pos sible
St art
log on
æĻºèĥ½ åĪ¶éĢł
oth ing
ãĤ ³
çķĻ æĦı
èģļ ä¹Ļçĥ¯
å¤§å®¶ çļĦ
ç¼ĸ åı·
å·´ å£«
eg er
äº¬ ä¸ľ
Ġcomp ar
äº¿ åĲ¨
ç»Ļ ä»ĸ
çİ¯ æ°§
å¯¼ çĥŃ
è¥ Ħ
éĴ ¥
å¤ĸ è´¸
åĪ¶ è®¢
å°± æ²¡æľī
å±ķ æľĽ
ĠA P
é¡ ·
ut s
Ġl ived
åı¯ çĶ¨äºİ
æł ĵ
ä¸į å®¹æĺĵ
åĴ ³
è¿ Ń
s ince
L L
B ody
( ())
Comm and
ench mark
ä¸ªæĢ§ åĮĸ
åŃ¤ çĭ¬
çī¢ è®°
ç²ĺ åº¦
åĲ¸å¼ķ äºĨ
æĬµ æĬ¼
æĽ¿ è¡¥
doc ument
åĸľæ¬¢ çļĦ
Ġsk ill
çŁ¿ çī©
ç¬Ķ èĢħ
ä¸ļåĬ¡ çļĦ
å¸® æī¶
ç»Ħç»ĩ å®ŀæĸ½
å¤ª åİŁ
èĥ½åĬĽ å¼º
ä¾Ŀ æ¬¡
è®¾å¤ĩ åĴĮ
Ġpl ans
ç»´ æĸ¯
11 7
éĽĨ è£ħç®±
èº ²
æ°Ķ æģ¯
å¤Ħ åľ¨
æĮģ èĤ¡
pl ies
Ġv s
ĠP ython
ĠI oT
å°Ĩ åĨĽ
Ġst and
çĶµ éĺ»
å¾Ĺ å¤ļ
ĠA ut
å¦ ĸ
åĲİ éĿ¢
åĪ° æľŁ
ro t
Ġp le
in y
çļĦ åıĮ
S ervice
S he
R S
Ġantib iot
çļĦåīįæıĲ ä¸ĭ
èģª æĺİ
ä¸ĩäºº æ¬¡
ĠPl an
ĠÐ ¿
ĠAr ab
ĠAr ch
equ ence
æ¾ Ħ
Ġbl ocks
Ġdec ades
ä»į æľī
log in
éħ¸ çĽĲ
è¶³ ä»¥
å¤´ åıĳ
è± ¹
æīĵ åħ¥
åħĪ éĶĭ
Ġ" ""
ĠN ASA
ä¸ĩ èĤ¡
éĴ ¦
æłĩ è®°
:: *;
ĠM at
å§ ¬
æ°´ åºĵ
æ°´ æºĲ
ĠC D
æ³ķ æ²»
ä¿ ©
ä»¥ æĿ¥çļĦ
åĽ½ èĦļ
Ġd rawn
Ġf air
Ġp ark
ä½ £
in v
çļĦ è§Ĵåº¦
c over
\ }$
S um
R AN
O pen
M D
9 001
" ï¼Į
ĠAustral ia
è¾£ æ¤Ĵ
ĠLe ague
ĠUS A
Ġfore ign
ogn itive
Ġcy cl
Ġfour th
è¡¡ éĩı
Ġdiv ision
æĦıä¹ī çļĦ
ç¨ĭåº¦ çļĦ
æ±ĩ æĢ»
sp ace
Ġpol icies
åģĩ è®¾
æĦ¿ æľĽ
Ġother wise
åĥ µ
åħ» æĬ¤
è®¾è®¡ ä¸İ
åĨį åĪ°
æŃ¥ åħ¥
ere n
ä¸¤ åĲį
âĢĻ ï¼Į
éĹ¨ æ§Ľ
ang es
è¥¿ çĶ²
ist an
åĽł åŃĲ
æķ° çĻ¾
å°Ĩ æľī
ĠS ocial
åħ¨ åİ¿
æĭ ¾
ä¸Ĭ æ¸¸
is ters
es h
çļĦ æĹ¶ä»£
çļĦ åĩł
z ero
n ull
m issions
i able
d n
a ight
R UN
çĸ¯ çĭĤ
Ġell ipse
exec ute
åıĳæĺİ ä¸ĵåĪ©
Ġchall enge
å±±è¥¿ çľģ
Ġprim arily
ĠCent ral
Ċĉĉĉĉ ĉ
æī£ éĻ¤
æ¯« æĹł
Ġchang ing
ä¼ĺè´¨ çļĦ
æı´ åĬ©
æıı åĨĻ
Ġtechn ologies
çģ¯ åħī
br uary
ä¸Ģæ¬¡ æĢ§
Ġac ute
æĢİ æł·çļĦ
plic it
äººä»¬ å¯¹
Ġar rang
åħ¨åĽ½ åĲĦåľ°
åĸĦ äºİ
25 5
åĥı æĺ¯
åĩı ç¼ĵ
çļĦä¸Ģ æ¬¡
ĠJ e
æİĴ åĪĹ
æŀģ åħ·
ç¤¾ä¼ļ ä¿Ŀéļľ
ust ers
åŀĭ çļĦ
æĢ» ä¼ļ
å¤Ħ å¤Ħ
åı¯ä»¥ çĶ¨
ä¿¡ è´·
å¤ĸ äº¤
åŃĲ éĩĮ
å°± ä¸įä¼ļ
ä¹Ł ä¸įèĥ½
ot a
æĪĳ å¸ĮæľĽ
è¡Į ä½¿
å¤§ æ¹¾åĮº
å¹´ éĻĲ
ar ub
Ġp ython
åľ¨ äºĨ
al ities
ä¸Ģ å¯¹
ä¹ ¾
æĺ Ķ
çļĦ å£°éŁ³
çļĦ ç¡®
çļĦ å±±
n es
g lib
f i
S w
? âĢĿ
Ġ ;
Ġconduct ed
Ġstrateg ies
Ġwind ow
ç¢° æĴŀ
Ġder iv
Ġmov ed
èĤ¡ä¸ľ çļĦ
ĠAp p
æģ¶ åĮĸ
Ġpers ons
åĨľä¸ļ åĨľæĿĳ
èĸ ¯
Ġph ase
Ġdec isions
æī© å»º
åģľ é©¶
èĪ¬ èĭ¥
åį¡ æĸ¯
ãĥ ĥ
èİ·å¾Ĺ çļĦ
åħį ç¨İ
ĠV al
åĿĩ æľī
ä¾¿ ç§ĺ
åĽ¾ å½¢
èĬ± è´¹
ä»¥åıĬ åħ¶ä»ĸ
Ġpl us
éĤ£ æĹ¶
ind er
åİ» ä¸ĸ
ä¾Ľ çĶµ
10 3
ä¸ĩ äº©
ĠM ex
ä¸ī ç»´
å¤ĸ åĩº
çĽ¸ è¾ĥ
åĪ¶ åĬ¨
éĽ Ģ
èĩª èĢĥ
ä¾ £
åĩº æĪĺ
im ize
æµ ĳ
Ġto uch
æľī åĬĽçļĦ
Ġs ales
Ġs ch
he ight
r d
n eg
c b
T A
R I
N OT
C ount
å°¤æĸĩåĽ¾ æĸ¯
é»ĳé¾Ļæ±Ł çľģ
è¡į çĶŁ
Ġincor rect
è®¤å®ļ ä¸º
èī° èĭ¦
por ary
Ġdep ression
æ°ĶåĢĻ åıĺåĮĸ
Ġ{} ",
ĠÃ ł
ole an
Ġarg uments
word s
olv ed
å±ĭ é¡¶
ĠAn y
199 2
çī©è´¨ çļĦ
ç¬Ķ è®°
app ed
å¢ŀåĬł åĢ¼
ç¿ ħ
åįł çĶ¨
åī§ éĻ¢
ict ions
ç¤¾ä¼ļ ç§ĳåŃ¦
ĠU ser
con str
çĶŁäº§ åŁºåľ°
ĠO ur
å°Ķ å¾·
è¯¥ çīĩ
éĤ£ å°±
èĲ¥ åĪ©
ä»· æ¯Ķ
çķĮ çļĦ
ĠL a
æĦŁ åĨĴ
æµģ ä¼ł
up iter
ç² ¹
ä¸ŃåĽ½ éĺŁ
Ġv ul
å¤ĸ è¯Ń
æ°´ äº§
åı¯ æł¹æį®
ä»¥ èī²åĪĹ
å¤§ ä½¿
t re
t g
s ort
h ur
B O
Ġ ä¸ª
ãİ ¡
Ġhyp othes
æ³Ħ æ¼ı
çĲĨäºĭ éķ¿
èĩªè¡Į è½¦
åįµ å·¢
éĵ¸ éĢł
ĠCol lege
bu ilder
æĥĬ åĸľ
æĬĵ å¥½
çİ»çĴĥ éĴ¢
çİī ç±³
éĤ® æĶ¿
éĺ» ç¢į
Ġmed ium
åĬ³åĬ¨ åĬĽ
åħ·ä½ĵ çļĦ
Ġ200 3
å¡ĳ èĥ¶
éĢĢ å½¹
åı¶ çīĩ
Ġreg ister
æİ§åĪ¶ ç³»ç»Ł
ĠCh ildren
ose ph
åĿļ ä¿¡
ä¸ªäºº æīĢå¾Ĺç¨İ
', '
åįļ ä¼ļ
èı ĩ
Ġad apt
æ¸© æ³ī
èĩ´ è¾ŀ
let s
æ¨¡ èĮĥ
è°ĥ åĳ³
Ġch ain
æĬĢæľ¯ ä¸İ
ĠB er
Ġex ception
æĹł å½¢
ĠM ars
ä¸ī å³¡
æ¯Ķ èµ·
æ¶ ħ
ay a
æĢ§ çĸ¾çĹħ
ĠS ov
è¿Ļ æľ¬ä¹¦
å¤§ è¡Ĺ
äºĨ ä¸ĢäºĽ
Ġd jango
åľ¨ è¯¥
åľ¨ åľ°
re al
çļĦ ä»·åĢ¼
u er
s peed
I O
D NA
B M
Ġliqu id
het ic
Ġrele ased
è½¨éģĵ äº¤éĢļ
MI ME
ĠComp any
Ġfund amental
çĲĨäºĭ ä¼ļ
èĥĨ åĽºéĨĩ
éĽĨä¸Ń åľ¨
ç¼ĵ æħ¢
Ġob j
å°Ħ æīĭ
ä¼¤ åı£
é¡µ å²©
æĺ¯ä¸Ģ åĲį
ç»ıæµİ å¢ŀéķ¿
ĠG reen
ä¾Ľ æļĸ
æĢ» ä¹ĭ
ç«ĭ åľº
éĵ ĥ
åı¯ä»¥ æł¹æį®
çĽ¸ è¿ŀ
éĥ½ è¢«
if orm
ĠC ore
Ġg lob
ĠS at
åĩº åĽ½
Ġh omes
ä¸į åģľ
Ġin ner
åľ¨ è¿ĩåİ»
Ġc ert
Ġs i
çļĦ æµ·
a ign
M any
' m
Ġextrem ely
Ġgeomet ric
ä¸»åĬŀ çļĦ
ĠCol or
Ġfam ous
Ġdisc r
ä¹ĭåīį çļĦ
æļĸ æ°Ķ
à½ ²
à½ ĳ
è·Ł éļı
æĽ² çº¿
Ġass ume
æĬĹ éľĩ
Ġcol le
åī¯ ä½ľçĶ¨
èģļ ä¸Ļçĥ¯
åģ¥åº· åıĳå±ķ
çĻ½çĻľé£İ çļĦæ²»çĸĹ
to kens
åĽŀ åįĩ
è¯ģ çĽĳä¼ļ
iz ers
æīĭ ä¸Ń
Ġde b
ĠF acebook
äºĮ æľŁ
å¤Ħ åĪĨ
ç¼ ł
é£İ éĽ¨
Ġor d
æĥħ æĬ¥
ri er
éĩĳ å±±
å¿ĥ è¡Ģç®¡
å¾Ĺ å¾Ī
åī ĸ
å± ł
ä¸º ä¸Ģä½ĵ
ä¸Ń çĶ²
Ġw inter
çļĦ ä¸»é¢ĺ
çļĦ å¥³
ë ¥
â ī
f ess
c ateg
c n
] {
P ol
Ġ æĪĳä»¬
éĺ¿æĭī ä¼¯
Ġfail ure
que ue
Ġrecord s
Ġturn ed
å±ķç¤º äºĨ
åĭĩ æ°Ķ
å®ĥä»¬ çļĦ
èĦļ æŃ¥
è¯Ĭ æ²»
çĳ °
åİŁåĽł æĺ¯
æĹħæ¸¸ ä¸ļ
Ġrem ote
æłĳ æľ¨
çĶ² éĨĽ
ugh ter
Ġbec oming
åī¯ æķĻæİĪ
å·¥ä¸ļ åĴĮ
é»Ħ æ²³
è¾¾ å°Ķ
åıĹ æįŁ
ĠD at
ç¼ Ķ
ĠB ase
æĹł åħ³
ç§ĳ åĪĽ
å¥½ åıĭ
è¶ ģ
çĶµ çº¿
od er
æľº åĬ¨è½¦
ĠS k
è¿Ľ äºĨ
Ġl ymph
ä¸Ĭ çľĭ
Ġc ache
at ial
çļĦ æ¸¸æĪı
i en
b rowser
b efore
D etermine
C all
å¥łå®ļ äºĨ
é¾Ļå¤´ ä¼ģä¸ļ
ĠMod ified
gy pt
go ing
Ġexc ell
Ġra ise
ĠWest ern
ç§ĭ åŃ£
ç¼© å°ı
æ´Ĺ æ¶¤
ä¼ļè®® å®¤
æī§ æķĻ
èµĦæºĲ çļĦ
å½ķ çĶ¨
ãĥ »
åĽ½éĻħ ç±³åħ°
èİ· æĤī
å°Ķ å¤ļ
åĮħ å®¹
å¸ĥ ç½®
åįģ ä½Ļ
è¢« èªīä¸º
ĠF orm
åĲĦ çľģ
Ġal cohol
ä¸ĵ å±ŀ
çĥ «
ri ev
æĽ´ å¿«
å¤ĸ èµĦ
å°± å·²ç»ı
Ġ( [
ä¹Ł è®©
ad min
ä½ĵ è´¨
èĩª å¾ĭ
å¯¹ ä¸ŃåĽ½
Ġre act
è¡Į ç¨ĭ
æĹ¶ ç©º
çī ¡
æĬ Ĵ
åĨ Ģ
äºº æ¬¡
ed ing
æĿ ł
x dm
w ood
t mp
m ove
h al
d est
c our
S m
P ool
) +
åģľè½¦ åľº
Ġviol ence
Ġassess ment
åįģä¸ī äºĶ
resh old
Ġoccur red
æ´»æĢ§ çĤŃ
âĳ ¢
exp ression
Ġmat rix
æıı ç»ĺ
æ¶Īè´¹èĢħ çļĦ
comm on
åĭĩ äºİ
fe atures
Ġcre ation
Ġdet ect
Ġinter action
åĩ» ä¸Ń
Ġexp ansion
çīĽ èĤī
24 0
Ġev olution
åĲĪä½ľ çļĦ
Ġman age
ç§ĳæĬĢ è¿ĽæŃ¥
ear s
ak ed
Ġnot ice
åĲĳ ç¤¾ä¼ļ
åİŁ ä»¶
** .
ĠR ome
çī¹ å®ļçļĦ
éĶ ¤
èĲ į
ä½į çļĦ
ĠC r
ĠA R
æľ¬ ä¸ĵä¸ļ
ä¹Ł æ²¡
ä»ĸ è¡¨ç¤º
ĠS en
çİ° æľīçļĦ
è¿ĩ åĲİ
èĩª è±ª
æ² Ĥ
il i
ac iÃ³n
ä¸į å¹¸
Ġb attle
è ¤Ĳ
{ {
p ow
f mt
D F
Ġclin ical
ä¸įåĬ¨äº§ çĻ»è®°
Ġsex ual
pol icy
Ġregard ing
Ġhistor ical
Ġremain der
èµļ éĴ±
ĠCan ada
Ġkeep ing
ĠDe bug
cle ar
éĶ¦ æłĩ
æĪªèĩ³ çĽ®åīį
Ġredu cing
Ġcour t
åľ¨çº¿ è§Ĥçľĭ
Ġ-- >
æĢİä¹Ī æł·
å´ Ľèµ·
Ġexper ts
AC E
Ġgener ated
Ġsur pr
èĪª çº¿
è´Ń ç½®
çģ« è½¦
çº¢ å¤ĸ
åŃ£ åĲİ
ĠIn c
åİĭ åĻ¨
çļĦäºº ä»¬
Ġun known
æĦŁ åºĶ
æ¬¡ åģľé©¶
åĲį é¢Ŀ
çķ Ķ
æĸĩ æ¡£
ä¹ĭ æĹ¶
çŃī åĪ°
é«ĺ åİŁ
ot ing
æĹ¶ éļĶ
ĊĠĠĠĠĠĠĠĠ Ġ
æł ħ
ä¸į åĲĪæł¼
ä¸į åĲĥ
ro g
åı Ľ
çļĦ ä»ĭç»į
çļĦ ç»¼åĲĪ
ë ¡
â ĺ
b ind
L ear
= (
: âĢľ
. """
astruct ure
ĠSim ilar
Ġfrequ ently
ĠMed ic
Ġbeg ins
çļĦå¿ĥ æĢģ
Ġrad io
CE O
Ġpass ing
è¿ª å£«
è¿ªå£« å°¼
æ¦Ĥ çİĩ
oy al
çģµ æĦŁ
è¿Ľåħ¥ äºĨ
å®¢æĪ· ç«¯
åı¦ ä¸Ģç§į
ph as
17 0
åı¤ äºº
Ġstr aight
åĨĽ åĽ¢
å¹² é¢Ħ
æĤ£ çĹħ
è®° ä½ı
åıĤ æ¼Ķ
å®ī ç½®
Ġpro of
çĸ ®
éĿ¢ éĥ¨
id ate
us ize
æĮ ļ
æĹ¶ è£ħ
ä¸º çĽ®æłĩ
ä¸į æķ¢
åĮ Ĩ
æľī æĦı
an o
) ).
Ġ ä¸İ
Ġ ä¸º
Ġequival ent
ĠBu ild
åİ¿çº§ ä»¥ä¸Ĭ
Inst ance
çĽ² çĽ®
Ġconcept s
ĠOption al
æģĲ æĥ§
ç»´çĶŁç´ł C
Ġbre ath
èµĦæł¼ èĢĥè¯ķ
à½ Ĥ
Ġac ademic
èĦ± ç¦»
é¢Ĩå¯¼ å°ıç»Ħ
èº«ä½ĵ çļĦ
Ġdi vers
ç¬¬ä¸ī ä¸ĸ
å±Ĭ æĹ¶
Ġcons ervation
åĲ¸ çĥŁ
èĴ ľ
æ¸© å·ŀ
av en
ä¿¡æģ¯ å®īåħ¨
è§Ĩ åĬĽ
è¿ĳ åĩłå¹´
å°Ķ çļĦ
çłĶç©¶ åĴĮ
è®© åŃ¦çĶŁ
Ġnot ed
æ» ķ
æīĭ å·¥
è¢« è¿«
ç»ĵ æĻ¶
Ġcom ment
æ°ĳ ä¿Ĺ
ç¾İ å®¹
æĦı å¿Ĺ
æķĻ å¯¼
ch ain
çŁ £
å°± è¯»
ä¹ĭ åĨħ
åı¯ æĢķ
Ġre new
ä¸Ĭ éĥ½
ä¸ļ æľīéĻĲåħ¬åı¸
è´ ®
å¹´ äº§
Ġto x
äºº æĢ§
å° ¸
ê ³
S olution
A ct
) *
' },
$ -
Ġdest ination
æĤ¬ æµ®
ç²¾å½© çļĦ
ecut ive
å¯¹å¤ĸ å¼ĢæĶ¾
èŀº æĿĨ
ĠÃ ¨
Ġgen etic
èĪªç©º åħ¬åı¸
æŃ£å¸¸ çļĦ
æĶ¹åıĺ äºĨ
éĻįä½İ äºĨ
èĶ ½
åıĤä¸İ èĢħ
Ġar m
ç¾İåĽ½ çļĦ
è¿Ļæł· æīįèĥ½
ä¸ªäºº èµĦæĸĻ
åŃ¦ä¹ł çļĦ
Ġdo i
ĠTh omas
du ce
æĺ¾ å¾®
æİĴ åľ¨
éľĢè¦ģ åľ¨
ud d
åİŁ æ²¹
Ġhe nce
ç»ĵ ç®Ĺ
ĠP ower
em ents
ap y
èĩª æĿ¥
æĸ° åªĴä½ĵ
åĩº èµĦ
Ġl inks
ä¼ļ è¢«
as y
åĽ½ åľŁ
å¤§ åľ°
æľī ä¸Ģç§į
Ġf ract
Ġp aid
Ġw ants
åľ¨ ä¸İ
æĺ¯ åħ¨çĲĥ
is her
çļĦ æĢĿæĥ³
çļĦ å¢ŀéķ¿
çļĦ åľ°
s ession
o om
b ro
ç´Ĭ ä¹±
åĩıéĢŁ æľº
Ġswe et
Ġarch itect
Ġrecomm ended
åı¯ä»¥è¯´ æĺ¯
æīĢéľĢ çļĦ
å¤±åİ» äºĨ
Ġdepend ing
ä¸Ńå°ı åŃ¦
çĻ¾åĪĨ ä¹ĭ
ä½ıæĪ¿ åĴĮ
è¯¦ æĥħ
åĢŁ æ¬¾
ç´§ ç´§
Ġ7 5
red ential
ä¿® è¡Į
çı Ĭ
éĩįè¦ģ ä½ľçĶ¨
ä¼Ĺ çĶŁ
Ġ4 8
ĠU nder
éĺ² å¾¡
éĢļè¿ĩ å¯¹
ĠH uman
ĠD irect
ç¥ ·
éĵ ¬
éĩį éĩĳå±ŀ
ir ing
ä¸ª åĪ«
æĢ ĸ
å¹´ åħ¨åĽ½
Ġm ission
Ġm ask
ä¸º ä½ł
Ġw rap
it a
ä¸Ģ é¢Ĺ
ä¸Ģ å¥Ĺ
ä¸Ģ æĹł
z y
x ide
r ations
R el
P re
C reate
% .
ĠTechn ology
æķĻç§ĳ ä¹¦
Ġcustom ers
ĠFr ance
èį£èªī ç§°åı·
ele ment
Ġmov es
dis play
Ġleg is
éļĨ éĩį
åķĨæłĩ æ³¨åĨĮ
RE AD
Ġshe ll
çŃĶ å¤į
åĮºåŁŁ åĨħ
è¯ļ å®ŀ
Ġatt ract
Ġcons ult
Ġsc reen
(" /
ç½Ĺ ä¼¯
com ing
è¡Įä¸ļ ä¸Ń
åĪĹ è¡¨
å¼ķ äºº
è¯ķ çĶ¨
åħī è°±
Ġun a
ç±» ä¸ĵä¸ļ
Ġr ul
Ġpro posed
æ°´ åĴĮ
æ³ķ åºŃ
æľ¬ çĿĢ
ä»ĸ ä¹Ł
ä¸ĭ åįĬå¹´
ad os
Ġis instance
åħ¬ æĺł
æĪĳ å¯¹
éĹ ½
ent ity
åĨ ķ
ä¹ ĵ
æĺ Ĭ
ä» ĳ
Ñ Į
h an
f uture
V M
R L
ĠPartial Eq
ĠWilli am
Ġfa ith
Ġaspect s
å¾®åįļ çĥŃåº¦
Ñģ ÑĤ
å¤ļæł· æĢ§
root fs
æµģåĬ¨ æĢ§
Ġprom ote
èŀº æĹĭ
Ġeduc ational
æľ¬ç§ĳ çĶŁ
åħ¼ ä»»
input s
è§ĦèĮĥ åĮĸ
Ġinv olve
ä¸Ģæł· çļĦ
å¾ģ éĽĨ
ĠCh urch
åī¯ æĢ»ç»ıçĲĨ
Ġar ithmetic
æĭħ å¿§
æ¸¯ åħĥ
é¦Ļ æ°Ķ
åŃ¦ä¹ł åĴĮ
éħį çĶµ
çĶŁæ´» æĸ¹å¼ı
çĽ´ å±ŀ
è°ĥ åº¦
åıĺ é¢ĳ
Ġhe ar
åįģ åŃĹ
ĠE gypt
æµģ åħ¥
æĬ¥ è®°èĢħ
ill a
ĠB i
å·¥ä½ľ ç»ıéªĮ
res ource
å°Ĩ ä¸İ
å¾Ĺ çĽĬ
å¾Ĺ æīĭ
æĢ§ ä»·æ¯Ķ
äº§ åŃ¦
Ġn ative
è¦ģ æĬĬ
åŃ¦ åŃĲ
Ġb ird
Ġf aster
Ġf ib
Ġp itch
çļĦ çĹĩçĬ¶
w p
r ust
m i
f ail
N U
F i
C B
> ;
Ġ },
Ġtiss ue
Ġvit amin
ĠJapan ese
æ°ĳèĲ¥ ä¼ģä¸ļ
ĠFe bruary
åĪĨæķ° çº¿
ä¹Ķ æ²»
åįļå£« çĶŁ
å¿ĥçĲĨ åģ¥åº·
Ex ception
åĿĲ åľ¨
èļ ķ
åĪ¸ åķĨ
é¢Ĩå¯¼ çıŃåŃĲ
Ġpar abol
ric ulum
çºª å§Ķ
æŁĵ èī²
åľŁ æľ¨
arg o
Ġres erved
ĠO ld
ç²¾ èĩ´
åıĺ ä¸º
çº¿ ç´¢
æĬ¥ è¡¨
éĢł å°±
éĴ Ľ
æłĩ çļĦ
éĶ °
Ġy ellow
éķ¿ ä¹ħ
çĶµ åİĤ
ĠC H
å¦ ĥ
å¼Ģ éĩĩ
æĦ §
çŃī éĥ¨éĹ¨
åı¯ çĪ±
å·¥ ä¿¡
æŃ ī
åĽ½ å®ī
Ġb aby
äºº ä¹ĭ
æľī æ¯Ĵ
Ġf if
ä¼ ŀ
è¿ Ħ
çļĦ æĹł
Ä ±
z a
r ich
k t
D O
% ;
å«Įçĸĳ äºº
Ra ises
Ġelectric ity
ĠIsl and
ç»ıæµİç¤¾ä¼ļ åıĳå±ķ
ä¹Ĵ ä¹ĵ
Dev ice
Ġrele vant
Ġanaly ze
ç¨İåĬ¡ æĢ»å±Ģ
Ġtemper atures
Ċĉĉĉĉ ĉĉ
åįģäºĮ æĿ¡
Sub match
æŁĶ è½¯
éĿ¢ä¸´ çĿĢ
Ġgu arant
Cl oud
Ġter rit
éĢĶ ä¸Ń
Ġread y
æķ£ çĥŃåĻ¨
çŁŃ çŁŃ
è¿Ļä¸Ģ æ¬¡
å¸ĮæľĽ èĥ½
ĠSt reet
èµ° è®¿
ç»Ī èº«
å¤± è¯¯
ĠV ol
form s
æķĻèĤ² å±Ģ
Ġ0 1
åĬ© æİ¨
12 7
åĩĨ åĪĻ
æİ¨ ä»ĭ
Ġch osen
åĸ Ģ
ĠD NA
å¢ŀ æ·»
æŃ£ å¥½
Ġr ub
æ°ĳ æĶ¿
ä½Ĩ åį´
å·¥ä½ľ åĴĮ
ä¸ŃåĽ½ ç§ĳåŃ¦éĻ¢
æģ Ń
åĽł åħ¶
åħ¬åı¸ æĭ¥æľī
åľº é¦Ĩ
Ġfor ced
èĩª è´¸
ä¸İ åıĳå±ķ
åıĳ çĥŃ
å¹´ ä¸ĬåįĬå¹´
Ġb ank
æĿ ı
Ġc ube
çļĦ æĪĲåĬŁ
çļĦ ç¬¬
V AL
L ab
F igure
% )
Ġmiss ing
Qu ery
Ġnut r
ä¸ªç¯®æĿ¿ åĴĮ
ĠDes ign
âĸ ł
æ¼ı æ´ŀ
ç²Ĵ åŃĲ
ç»Łè®¡ å±Ģ
çļĦäºĭ å®ŀ
éļĶ çĥŃ
anc ing
ĠCon fig
IN T
ä¸įä»ħ åı¯ä»¥
è¶ħè¿ĩ äºĨ
äºĨä¸Ģ ç³»åĪĹ
çĶµåŃĲ ä¿¡æģ¯
ram es
äº² åŃĲ
äºĨè§£ æĽ´å¤ļ
èµ° åľ¨
ä¸įåĲĮ äºİ
ç§ĳæĬĢ æĪĲæŀľ
æİĴ åĩº
Ġpl ays
çľŁ çĲĨ
çº¦ æĿŁ
æķĻèĤ² åİħ
çĸĹ æķĪ
æ» ¥
çº¿ æĿ¡
åıĹ è®¿
éĹ¨ åı£
èĩ³ ä¸Ĭ
ĠD avid
ĠB oth
Ġv oice
å½ĵ æĪĳ
å°ı éķĩ
å¤ĸ å½¢
ç§ĳ å¹»
çĽ® åħī
éĢļ è¡Į
åĬł åī§
ad s
çŃī åĲĦç§į
é«ĺ æ½®
il ter
åĽ½ ç«ĭ
æł ĸ
Ġm al
Ġo xy
it ors
çļĦ åĲĦç§į
f ill
L ength
č čĊĠĠĠĠĠĠĠĠĠĠĠĠ
Ġvul ner
åĮĸå¦Ĩ åĵģ
Ġmention ed
Ġmonitor ing
ĠDef ault
ĠStud ents
Ġintrodu ced
çĬ¹ å¦Ĥ
Ġparticip ants
æ±¡æ°´å¤ĦçĲĨ åİĤ
æģĲ æĢĸ
Ġrequest s
rist op
Ġinterest ed
çıł å®Ŀ
åľºæ¯ĶèµĽ ä¸Ń
ym bol
Ġris ks
}}{ \
æģ¶ æĢ§
ä»Ĭå¤© çļĦ
è¿ĻéĩĮ çļĦ
åħ¬åħ± æľįåĬ¡
Ġgr ant
ç¢³ éħ¸
ä¸Ģèµ· æĿ¥
irc raft
å¾ģ ç¨ĭ
Ġcol lected
å°½ æĹ©
æ¥ ł
åħ° å¾·
éĿŀå¸¸ éĩįè¦ģ
çº¢ èĮ¶
äºļ åĨĽ
è§ģ éĿ¢
åĽŀ èĲ½
åĽŀ åĲĪ
æĬķ ç¯®
æºĲ å¤´
åĸ Ĥ
æĢ» çĲĨ
åįģ ä¸ĢæĿ¡
æİ¥ åħ¥
è¿Ĳ ä¼ļ
æŃ£ å¤Ħäºİ
éĴ ī
iv ation
ä¸Ģä¸ª æĸ°çļĦ
æ´» æ³¼
çķ ´
éĥ½ å°Ĩ
åīį æıĲ
æīĢ èĥ½
å°± åĮ»
ir g
un ately
Ġh it
åıĳ æİĺ
çĶŁ æ®ĸ
çī Ł
åĴĮ çİ¯å¢ĥ
ä¸Ģ å¤§
or ic
Ġs ports
v i
r l
k l
i ant
h yd
b red
S ign
çµ ®
ìĹ Ĳ
åĨ¬å¥¥ ä¼ļ
å¹¶åıĳ çĹĩ
Ġpict ure
ĠJew ish
éĶĤ çĶµæ±ł
ä½© æĪ´
Ġmove ments
Ġserv ed
Ġexper t
çļĦæĸ° åŀĭ
åĢŁ éī´
æĻļ ä¼ļ
è¡ĮæĶ¿ ä¸»ç®¡éĥ¨éĹ¨
åİĨåı² çļĦ
çĭ¬ å®¶
å¯Ĩ çłģ
ĠSt udio
åĨĽ éĺŁ
åĥ §
éŁ³ é¢ĳ
æ²»çĸĹ çĻ½çĻľé£İ
è¯Ħ å®ļ
ç»Ĩ åĪĻ
çīĩ åĮº
Ġres idents
11 8
å®¢ è½¦
æĪĺ æľ¯
æ¯ı äºº
è®© å¤§å®¶
æĸ¯ é¡¿
æ£ µ
ĠF ood
10 2
ä¼ģä¸ļ æīĢå¾Ĺç¨İ
ĠM art
å¤ĸ ä¼¤
æıĲ åĲį
ch ron
çĶµ ç«ŀ
ä¸ĭ å±ŀ
èĩª æĦ¿
åĬ¨ èĦī
ĠT ex
çĲĨ åŃ¦
åĪĨ æĪĲ
çĶ¨ äºĨ
ä¸ļ æĢģ
Ġm igr
Ġm el
ar ter
Ġp ric
Ġs ong
v isual
T F
4 50
č ĊĠĠĠĠĠĠĠĠĠĠĠĠĠĠĠĠ
«çĹ «
å®īä¸ľ å°¼
Ġtherap y
ä»İä¸ļ äººåĳĺ
å¾Īé«ĺ åħ´
åįģä¸ī æĿ¡
åĶ¯ä¸Ģ çļĦ
Ðµ Ð½
Ġadv anced
math rm
Ġcalcul ation
æĹĹ èĪ°
ĠAs ia
æ¯Ķå¦Ĥ è¯´
åĪ¶ä½ľ çļĦ
å½¢å¼ı çļĦ
å¹¶ä¸Ķ åľ¨
æ³¨åĨĮ åķĨæłĩ
å°¤ ä¸º
å¯¼èĩ´ çļĦ
è¡ĮæĶ¿ éĥ¨éĹ¨
enc ing
åĨħå®¹ çļĦ
åį« è§Ĩ
åħ° çī¹
Ġ' .
åĨį åĪ©çĶ¨
é¦ĸ å±Ĭ
Ġtr uth
æ·± æ·±
éĿŀ éģĹ
æĮĩ çļĦæĺ¯
èĻ Ĳ
åĻ¨ æĿĲ
ĠD on
ç¼ ħ
é£İ è²Į
Ġwe ar
çĦ ķ
èĬ Ń
çĻ «çĹ«
å¼Ģ åŃ¦
ä¸ĭ ä¸Ģä¸ª
å¸Ĥ çļĦ
èĤ Ĩ
å®¶ åĽŃ
åı¯ éĢļè¿ĩ
å¤§ åĽ½
å¹´ ä¼ļ
äºº ä½ĵçļĦ
åľ¨ å®¶
Ġs outhern
Ġs ell
v ideo
p b
L A
F P
B ack
Ġ ĊĠĠĠĠ
Ġ ä¸Ĭ
è¿Ħ ä»Ĭ
åĪĨè¾¨ çİĩ
Cons ider
åħ¬å¼Ģåıĳ è¡¨
Ġra ised
ä¼ĺèī¯ çļĦ
Sub stituting
å¡« æĬ¥
è®¤è¯Ĩ åĪ°
Ġ\\ (
Ġsl ope
Ġins ert
éļĲ èĹı
ĠCl one
Ġpartic les
Ġext reme
çħ¤ çŁ¿
éĩİ çĶŁ
Ġhigh light
å·¨ å¤´
çĳ ¶
Ġinter face
Th at
çĶµåŃĲ äº§åĵģ
æīĢæľī äºº
ä½Ļ åĲį
Ġ& [
æ²»çĸĹ çīĽçļ®çĻ£
æĭī å¼Ģ
çİ¯å¢ĥ ä¸ĭ
çİ¯å¢ĥ åĴĮ
Ġcomp are
èīº äºº
Ġj oint
æ¸ħ æĺİ
èİ· æī¹
å¸ĥ æĸ¯
åĮ» çĶŁçļĦ
éª ļ
ĠE ast
è¥¿ æ¹ĸ
æ°Ķ åĳ³
10 6
æŃ£ éĿ¢
åĨħ ç§ĳ
éķ¿ ä¸īè§Ĵ
æľĪ çĲĥ
æľ¬ åĬŀæ³ķ
ä¹Ł éľĢè¦ģ
åħ¨ åĮº
åħ¨ æĸĩ
åĪĨ å·¥
Ġh uge
åİ ķ
åŃ¦ ä¸ļ
ou ble
ä¸º åĽ½å®¶
å· ħ
al igned
Ġc ry
ä¸ ĳ
w ar
r f
P s
N ET
Ġ ?
çĢĳ å¸ĥ
æ¢³ çĲĨ
Ġcontrad iction
ĠRuss ia
æ¼ĶåĶ± ä¼ļ
å¼¯ æĽ²
Ġmot ion
Ġindic ates
Ġpotential ly
Ġdoc uments
ç¡ķå£« çłĶç©¶çĶŁ
åĸ· æ¶Ĥ
Ġmeas ured
cle an
åŁĥ å°Ķ
Ġlength s
fl ags
å¼ķèµ· äºĨ
é²ľ æĺİ
åĲī ç¥¥
æĵįä½ľ ç³»ç»Ł
Ġsur g
çĩĥ æ²¹
ç¢³ çº¤ç»´
è¡¨çİ° åĩº
ç¯® ç½ĳ
åģĩ æĹ¥
èĨ ³
ä»Ĭå¹´ ä»¥æĿ¥
rit er
Ġexp osed
åºķ çº¿
èµ° åĪ°
æĮī æĹ¶
æĴ ¼
åĭ ĭ
å½±åĵį çļĦ
æĺ¾ çİ°
lo op
æ¸ħ æĸ°
å±Ģ éĻĲ
æ³¨ å°Ħ
Ġch arge
ĠH ill
ĠR et
ĠR E
ĠD WORD
ub s
os ystem
å½ĵ åĪĿ
ri a
æĽ´ åħ·
å¥½ è½¬
ag g
ĠA ir
ul Flags
è½ §
Ġn av
ä¸į æľį
Ġc ircles
x ml
n odes
c ut
O per
I E
åı¯åĨįçĶŁ èĥ½æºĲ
æ¸©é¦¨ æıĲç¤º
ĠRev iew
ä¸ļåĨħ äººå£«
ĠBl ack
åī© ä½Ļ
éĢĨ è½¬
By tes
çģŃ çģ«
ven ue
Ġplay ed
èĬĤèĥ½ åĩıæİĴ
èĢ³ æľº
å½ĵåľ° çļĦ
æ³° å±±
ev ents
Ġfl uid
Ġpol ynomial
èĩªåĬ¨ é©¾é©¶
çļĦå¤§ å°ı
åĤ¨ èĥ½
Ġdi ameter
å½© èī²
æĬ¥åĳĬ ä¸Ń
äºĨä¸Ģ åľº
ä¸° çĶ°
å·® ä¸įå¤ļ
çł´ éĹ¨
æī¹ æ¬¡
è¿ĻäºĽ éĹ®é¢ĺ
åıį å°Ħ
ak s
æıĲä¾Ľ åķĨ
é¥ ¿
é¥ ¶
ç§° ä½ľ
ere nt
çĥŃ çĥĪ
åĽŀ äºĭ
Ġun ion
port ed
èĬĤ çļĦ
çľģ å§Ķ
æ°Ķ è´¨
ç»Ħ éķ¿
åķĨ ä¼ļ
èµ· æŃ¥
Ġv ectors
åºĶ åľ¨
Ġst atic
ĠA re
å¼Ģ ä¸ļ
åĲĮ ç±»
ä»ĸ è®¤ä¸º
åĲĪ åĶ±
åĮĸ çŁ³
æ± Ŀ
åĩº æīĭ
Ġe ast
et ies
åĴĮ ä¸ĵä¸ļ
ä¸į ä½İäºİ
Ġin sp
æľī åĪ©
it an
âĢ ¾
ç» ¸
Ġs and
çļĦ éľĢè¦ģ
s igned
s cre
p ower
G ET
A zure
æ°¨åŁº éħ¸
Ġmo ist
Att ribute
Ġemot ional
Ġheav y
éĽĩ ä¸»
clud ed
æĭĨ éĻ¤
Ġfocus ed
Ġcaus ing
ĠSo ftware
ĠEn ergy
ç¤ºèĮĥ åĮº
gr id
time out
é¦ĸåħĪ è¦ģ
è·¨ åĽ½
éĢłæĪĲ äºĨ
çŃ¾ è¯ģ
æľīåħ³ çļĦ
åī¯ æĢ»è£ģ
ç¨³ åģ¥
ict or
åĸĦ èī¯
å½±åĵį åĬĽçļĦ
éĢĤ éĩı
ĠJ upiter
å·¥ç¨ĭ æĸ½å·¥
åįĩ éĻį
æ¯ı ä½į
cl s
ä¼ĺ ç¾İ
åħ± åĪĽ
Ġ" <
ä¸¤ å¤©
è£ ¹
de p
éĽĨ èģļ
ä¼ł ä¸Ń
ä½ł æĺ¯
æ¡ Ĳ
èĥ °
æĪĸ ç¼º
æŁ ł
åĮº æĶ¿åºľ
å°± éľĢè¦ģ
æľĪ äº®
ĠA lex
ul pt
çŃī ä¸Ģç³»åĪĹ
é«ĺ éĽĦ
å¹´ çºª
äºĨ èĩªå·±çļĦ
Ġb atch
al i
ä¸Ģ ç«Ļå¼ı
ä¸Ģ çĻ¾
Ġc tx
âĢ ²
in clude
ê °
Ä Ļ
Ä ħ
z ing
M on
H K
D L
æĦī å¿«
Ġdecre ase
è¾© æĬ¤
off set
Ġinvolv ing
Ġperform ed
EN V
è¯ģåĪ¸ äº¤æĺĵæīĢ
ä¸½ çļĦ
åŃĺåľ¨ çĿĢ
èĨ Ģ
æī¾ åĪ°äºĨ
Ġpre v
Ġme at
Ġint elligence
ple x
æī¿ æİ¥
æ®µ æĹ¶éĹ´
ç»Ĩ èħ»
ok ing
50 1
çľŁ çĽ¸
åĮĹ æŀģ
åħĪ è¡Į
åģļ ä»Ģä¹Ī
art s
æµ· æĬ¥
æµģ åŁŁ
ä¸ĩ åĲį
ç² ª
æĦı æĦ¿
ĠP ost
Ġcon clusion
è° ħ
Ġon to
åħ¶ åľ¨
ä¹ĭ ç¾İ
æľĪ ä¸Ń
å®ŀ çļĦ
åı¯ æĥľ
å¤§ å®Ĺ
Ġin struction
Ġp od
ä¸Ģ å±Ĥ
or ge
çļĦ åı¯èĥ½æĢ§
çļĦ è´£ä»»
çļĦ èº«
E X
D ec
C urrency
Ġ å¯¹
ä½ıæĪ¿åĴĮ åŁİä¹¡å»ºè®¾
éĶ¦æłĩ èµĽ
ĠFound ation
Ġaltern ative
Ġincor por
call back
Ġclear ly
Ġmar ks
Ġgen e
å®ĺæĸ¹ ç½ĳç«Ļ
çŁ¥åĲį åº¦
æ¯« ä¸į
Ġplay ers
åĨįæ¬¡ åıĳçĶŁ
éĺ» çĩĥ
åĢº æĿĥ
èĵĿ çīĻ
Ġstart s
Ġhelp ed
Ġoff ic
ç²ī å°ĺ
åħ¨éĿ¢ çļĦ
#### #
åĪĨæŀĲ å¸Ī
åĨ· åĨ»
pr ing
çķĻ è¨Ģ
èĭ± å¯¸
pro gram
Ġnum py
åĩł ä¸ªæľĪ
æħ Į
ĠIn it
Ġcont ribute
æİĴ åºı
é©¬ åĪº
å·¥ç¨ĭ è®¾è®¡
æ¨¡ ç³Ĭ
åįİ çĽĽ
ich ard
Ġsh r
Ġk id
é£Ł æĿĲ
å®ĥ åľ¨
æĪĺ å£«
ud get
ĠG o
ä¼ĺ éĽħ
æĹł çĹĩçĬ¶
ĊĠĠĠĠĠĠĠĠĠĠĠĠ ĠĠĠ
è¿ĺ æ²¡
ä½¿ äºº
å¤© åłĤ
ag in
Ġst one
è¿Ļ ä»¶äºĭ
ä¸Ĭ åľº
å½ ¬
ä¸º èĩªå·±
ä¸į æķĮ
åľ¨ è¿Ļä¸Ģ
æĺ¯ æ²¡æľī
er ior
Ġt rac
çļĦ åŃ©åŃĲ
çļĦ åĪĽæĸ°
r ig
k ind
[ ]
, -
Ġparabol a
æ³¢ç½Ĺ èľľ
éªĦ åĤ²
Ġmanufact ure
PO ST
ç¨İæĶ¶ ä¼ĺæĥłæĶ¿çŃĸ
ìĿ Ħ
Ġdep th
èĸĦ èĨľ
ĠWh y
åħļå§Ķ åī¯ä¹¦è®°
æĭĽæłĩ æĸĩä»¶
Ġgu ide
æ²¿ çĿĢ
Ġcr uc
éĩįè¦ģçļĦ ä½ľçĶ¨
èµĦæł¼ è¯ģä¹¦
Ġref erred
ä¼° åĢ¼
Ġcall s
cont rol
Ġmost ly
åºĵ éĩĮ
Ġreg ist
çŁŃ æļĤ
log ging
åºı åĪĹ
çł´ ç¢İ
éĴ¢ æĿ¿
æķħ æĦı
å¤± è°ĥ
ä¿® åħ»
ĠIn formation
Ġcomp ute
åŃĹ ç¬¦
çĭ ł
Ġpl ot
ell ed
å®¢ äºº
æ£ ķ
åıĺ éĢŁ
èº º
èĤ² äºº
éª Ĥ
ĠE very
æĬ¥ éĢģ
åķĨ çĶ¨
æľį é¥°
èµĽ åĮº
ä»£ ä»·
æĪĳä»¬ å¿ħé¡»
æĥħ æĻ¯
æıĲ åıĬ
Ġst ack
ä¸» ç¼ĸ
ĠS pe
am ily
åħ¬ é¡·
åı¯ ä¾Ľ
om l
Ġn it
ä¸ª å°ıæĹ¶
ä¸ª åĽ½å®¶
ä¼ļ åĲĮ
åıĳ åĬĽ
âĢĿ (
ä»¥ ç¡®ä¿Ŀ
ic ens
å¸ ĸ
æĺ¯ çĶ¨
è¿ ¦
er ialize
çļĦ éĩį
m as
Ċ ĊĠĠĠĠĠĠĠĠĠĠĠĠĠĠĠĠĠĠĠĠ
åįİçĽĽ é¡¿
bred r
èĩªçĦ¶ç§ĳåŃ¦ åŁºéĩĳ
Ġsent ence
éĶģ å®ļ
Ġcontin uous
é»ĺ é»ĺ
Ġhead er
Ġec osystem
DE V
ç¹ģ æ®ĸ
Ġclass room
}) ^
az y
èĸ ĩ
çĿ£ ä¿ĥ
å¨ģ å»ī
ä¸ĢçĽ´ ä»¥æĿ¥
é¥® æ°´
Ġass ist
å¥ĩ æīį
ov ed
å¥¥ æŀĹ
bo se
å®¤ å¤ĸ
æĿ¿ æĿĲ
ä½ľä¸º ä¸ĢåĲį
ç»Ĩ èĩ´
åĳ¨ ä¸Ģ
Ġpl astic
å·¥ç¨ĭ é¡¹çĽ®
åı· åı¬
ä½İ çļĦ
çĽ´ è§Ĥ
å¸ĥ èİ±
ĠG reek
ç¤¾ ç§ĳ
ä¸¤ éĺŁ
æľįåĬ¡ åĴĮ
æĢ» éĿ¢ç§¯
ç»Ħ å§Ķä¼ļ
() ))
æĺİ äº®
ä¸ŃåĽ½ åħ±äº§åħļ
ä¸ī ä¸ªæľĪ
å¤ĸ æı´
å¤ĸ æ±ĩ
um in
Ġ( "
Ġ$ $\
æľĪ ç»ı
ĠS T
æĿ¥ è¿Ľè¡Į
å·¥ åºı
20 30
å¹´ åĿĩ
å¹´ éĩĳ
Ġm ort
Ġm ist
ä¸į å¯¹
ä¸Ń ä»ĭ
ar b
Ġf reedom
æĺ¯ åĽ½åĨħ
åĲ Ł
çļĦ æĹ¥åŃĲ
T ag
1 19
ç¬¬ä¸īä¸ĸ å¤ļæĿ°ç¾Įä½Ľ
ilos oph
contin ue
åħļçļĦäºĮåįģå¤§ ç²¾ç¥ŀ
ĠLog ic
Ġnumer ous
ä¼łæŁĵ çĹħ
Ġeval uate
~~ ~~
Ġexperi enced
Ġsatisf ies
æĸ°åĨł çĹħæ¯Ĵ
å¸¦é¢Ĩ ä¸ĭ
aut o
Ġallow ing
ĠSp an
Ġke ys
èĤł èĥĥ
Ġlead er
AT A
å´ Ń
Ã© s
æĿĤ è´¨
å»¶ æľŁ
Ġdec ided
Ġtest ed
ç«ł ç¨ĭ
Ġpart ners
ict ed
åĲĪä½ľ åįıè®®
Ġman ner
ä»Ģä¹Ī æĹ¶åĢĻ
Ġcomp il
çħ§ å°Ħ
æ£Ģ ç´¢
Ġch arg
ĠL anguage
ç®¡çĲĨ åĪ¶åº¦
ç«ĭ é¡¹
ang ing
æµ· åı£
Ġcom fort
èİ ĵ
Ġr ational
ä¼ģä¸ļ æĸĩåĮĸ
ĠP M
åħ¥ é©»
æ°´ åĩĨ
Ġg ram
ig en
æ± Ľ
æĮ ª
Ġm essages
Ġm it
åĴĮ ä½¿çĶ¨
ä¸į æŃ¢
ä¸Ń ä¸ĵ
Ġb odies
Ġf resh
Ġf ine
Ġw all
åľ¨ æİ¥åıĹ
æĺ¯ æĢİä¹Ī
ãĢĤ "
çļĦ åŃĺåľ¨
Ð ¿
| \
s en
V A
O ther
I oT
A g
% -
Ġ url
Ġ âĢĿ
Ġ ^
çī¡ ä¸¹
Ġdanger ous
Ġsurround ing
æĴ° åĨĻ
æĸ°åįİ ç¤¾
Ġmanufact uring
èĦ¾ æ°Ķ
åħ³èĬĤ çĤİ
Ġquadr ilateral
åħ¬å®ī æľºåħ³
ĠIm age
æĲ¬ è¿Ĳ
Ġexpress ions
Ġinvest ment
ecut or
Ġimpro ved
Ġview s
Ġredu ction
åĲ¸å¼ķ åĬĽ
Ġele v
ä¸¥æł¼ æĮīçħ§
Ġspe ech
èĤī ç±»
Ġinf ections
åħ±åĲĮ åĬªåĬĽ
ident ial
Ġsub stitute
è¡ĮæĶ¿ æ³ķè§Ħ
(' /
åıĳå¸ĥ åħ¬åĳĬ
èĩªçĦ¶ èµĦæºĲ
æĪĳåĽ½ çļĦ
å¥¥ æĸ¯åį¡
ä¸Ģå®ļ ç¨ĭåº¦ä¸Ĭ
ä½Ĩæĺ¯ åľ¨
Ġar my
Ġso ft
æĮī è§Ħå®ļ
ãģ ĵ
ç±³ é¥Ń
ber g
éľĢè¦ģ æ³¨æĦı
å¡ Į
æ¸¸ ä¹Ĳ
æİ¨ å±ķ
ĠL i
æĦŁ åĴĮ
è¢« åĬ¨
åķĨ è´¸
åĲĦ æł·çļĦ
ĠP aul
èī ĩ
çĶµ æ¢¯
å¼Ģ èĬ±
ul ating
ad ing
åĲĪ ä¸Ģ
é«ĺ ä½į
id ers
æŀ £
Ġd ro
Ġd b
ä¸º è¿Ľä¸ĢæŃ¥
ä¸Ń åĲ«æľī
Ġf ramework
Ġf aces
Ġp ed
æĺ¯ åĽ½å®¶
Ġs in
çļĦ æĸ¹åĲĳ
f aces
S ON
P AR
P e
L ong
F ailed
Ġoxy gen
Ġnuc lear
èĦ±è´« æĶ»åĿļ
Ġrepe ated
åıĬä»¥ä¸Ĭ åŃ¦åİĨ
FA ULT
ä¸»æ¼Ķ çļĦ
Ġimplement ed
æĭĴç»Ŀ æİ¥åıĹ
çķħ éĢļ
éĢĴ äº¤
æĭĵ å®½
çĳŀ åħ¸
çģ¾ éļ¾
åĭĩ æķ¢
åĨ° ç®±
ç»ĦæĪĲ åĳĺ
cent er
ç«ŀäºī åĬĽçļĦ
ash ion
Ġ200 1
éĹ» åĲį
åĺ ±
Ġany one
æĻºèĥ½ å®¶å±ħ
éľĢæ±Ĥ çļĦ
å®£ è®²
åīĤ çļĦ
ref erence
ĠSt e
own ed
Ġman ager
Ġ4 2
con vert
æĹ¶éĹ´ åĴĮ
çĥŃ çº¿
èĩªå·± åľ¨
ĠW rite
ç»Ħ è£ħ
ĠR un
èģĶ åĤ¨
Ġor ient
ä¼ģ äºĭä¸ļåįķä½į
æŁ Ħ
ä¸ī ä½į
è° Ń
æīĢ è¯´çļĦ
Ġst ation
ä¹ĭ éģĵ
è¿ĩ å¾Ģ
ç»ı è´¸
é«ĺ ç®¡
am l
id ity
ot ion
å¯¹ çħ§
æĪĳ å¾Ī
çº ¬
ä»¥ äººä¸ºæľ¬
as er
äºĨ ä»ĸ
Ġm aster
ä¸į å¦¨
ä¸į æ¸ħ
ä¸į çŃī
ä¸Ģ æĬĬ
or igin
Ġs uc
çļĦ åĩºçİ°
c up
a ver
$ ;
æŁł æª
æŁłæª ¬
åŃ¦å£« åŃ¦ä½į
ĠSer ver
ç®¡çĲĨä½ĵç³» è®¤è¯ģ
Ġwon der
top ic
å¿ł è¯ļ
Ġbro ther
èĩªä¸» çłĶåıĳ
ĠZ e
æĻ¶ ä½ĵ
å±ķå¼Ģ äºĨ
OR T
Ġdirect or
Ex p
æĹ¢ æĺ¯
ç§Ł éĩĳ
å¤ľ éĹ´
0000 000
col umn
éĿĻ èĦī
åģĩ å¦Ĥ
ç¼º å¤±
éĶĢåĶ® æĶ¶åħ¥
Ġar c
Ġ< =
åī§ åľº
ç¾¤ å²Ľ
æ±½ æ²¹
ä½ı äºĨ
å·²ç»ı æľī
éĻį éĽ¨
æ¼Ķ åĮĸ
åıį æĢĿ
ç©º åİĭ
éĤ£ æĺ¯
åįĹ æĺĮ
éĹ¨ çļĦ
çľĭ å¾ħ
äºĮ ç»´
å·² äºİ
ä¸ĩ ä¸ª
å¸¸ è¯Ĩ
åı¯ä»¥ éĢīæĭ©
åŁº åĩĨ
æĪĳä»¬ æľī
ĠP age
em p
çĦ °
æ°´ ç®±
Ġst ored
èģ Ĩ
ur b
åĬ¨ åĳĺ
ĠT oken
id ay
åĩº æ¼Ķ
åĩº èĩª
å·¥ å§Ķ
éĿ ¶
et t
Ġp our
ä¸Ģ åĿĹ
ä¸Ģ éģĵ
Ġt el
çļĦ æĪĺçķ¥
ï¼ ĵ
r h
d ess
T e
M achine
M e
I F
) -
ristop he
åıĳè¾¾ åĽ½å®¶
Ġflo at
åĢ¡ è®®
ç¢± æĢ§
å¤§å¹ħ åº¦
è¾ĸ åĮº
Ġpract ical
éº¦ åħĭ
åĢ¼å¾Ĺ æ³¨æĦıçļĦæĺ¯
æĬ¢ æĸŃ
Ġplay ing
ĠSp ace
Res ource
AC T
0000 00
çĲĥéĺŁ çļĦ
åĨ² æ´Ĺ
éĨ ļ
èĹ ķ
olog ists
åĪĿ åĪĽ
å·´ å·´
èµ° åĬ¿
ç¬¬ä¸Ģ æĿ¡
ç®Ĺ æĺ¯
åĬ¿ å¤´
åıĪ åĲį
å¸Ĥåľº è§Ħæ¨¡
åıĤ ä¼ļ
The n
è°ĥ åĬ¨
ĠF ore
ĠB us
æ°ĳ åĬŀ
èµĽ éģĵ
æĪĳä»¬ ä¹Ł
å°± è¢«
ĠS QL
ĠS l
un der
å¤ļ ä½į
å·¥ åĮł
æĹ¶ æ®µ
ä¸Ĭ è¯¾
å± ¿
Ġin deed
al ways
it ud
Ġs an
¸ °
O A
G S
E ach
æ³¢ç½Ĺèľľ å¤ļ
âĢ¾ âĢ¾
èĩªæĿ¥ æ°´
âĺ ħ
Ġcompre hens
ëĭ ¤
Ġinstr ument
Fr ame
Simpl ify
Ġconsist ent
Ġprinc iple
pat tern
Ġdiscuss ion
æĪĲçĨŁ çļĦ
UT H
å¼Ł åŃĲ
Ġbre ast
èĲ¥ä¸ļ æī§çħ§
è¶³çĲĥ ä¿±ä¹Ĳéĥ¨
æķĪçİĩ é«ĺ
Ġvis ible
ç§Ł è½¦
Ġed ges
Ġdet ailed
ser ial
ser ve
çłĶåıĳ ä¸Ńå¿ĥ
sc ape
æİĪ è¯¾
ä¸ĢèĪ¬ çļĦ
å®¢æĪ· æıĲä¾Ľ
åĸľ æĤ¦
çķĻ ä¸ĭäºĨ
æĻº åĬĽ
è¿ŀ ç»ĵ
åħļ ä¸Ńå¤®
çļĦäºº çī©
ĠJ oseph
ä¼Ĺ æīĢ
Ġsp end
æķĻèĤ² åĴĮ
ä¹Ĳ åĻ¨
11 6
åĬ© åŃ¦
çĥŃ æ³µ
è¯¥ å¦Ĥä½ķ
å°ĳ éĩı
ä¸¤ ä¾§
éĹ¨ æĪ·
ä¸ĩ åı°
èĪ Ĩ
ĠM B
os a
æĽ´ åĲįä¸º
ç¨ĭ å¼ı
çī© ä»·
se q
å°± å¼Ģå§ĭ
ĠC all
ĠC y
ĠA M
ä½ĵ çİ°åľ¨
ä¸İ ä¹ĭ
åĮĸ çĸĹ
æĸ° åŁİ
äº§ åľ°
Ġis land
Ġl atest
Ġre n
ä½ľ æĽ²
et ing
ä¸Ń æľŁ
æĺ¯ å°Ĩ
ä¸Ģ ç¾¤
Ġc ats
Ġs ing
u ated
V er
P at
A ction
2 30
* -
ristophe hur
ristophehur pe
ristophehurpe au
å¤ªå¹³ æ´ĭ
è¯Ī éªĹ
âĹ ı
Ġrow s
ä¼ļè®¡ å¸Ī
Ġinters ects
Ġinters ect
æ·ĺ å®Ŀ
Ġimpact s
Ġopt im
èĴ¸ åıĳ
æĲľ éĽĨ
ç¼´ è´¹
EN T
Ġprof ession
è´¯ ç©¿
æµĵ éĥģ
æ¯Ľ åĪ©çİĩ
att ribute
Ġsk ip
åĮĸåŃ¦ åĵģ
æĭį çħ§
Ġcre ates
åħ¬å¼Ģ çļĦ
ç¼º å¸Ń
Ġspec ifically
ç»Ŀ å¤§å¤ļæķ°
èģĮä¸ļ æĬĢèĥ½
olog ist
ä¹ĭåĲİ çļĦ
åįĥ ç±³
ook ie
åĩı åħį
çĶŁäº§ åİĤå®¶
åħī æ»ĳ
åı£ åĳ³
19 85
å®Į ç¾İçļĦ
Ġle ct
è¯ģ ä»¶
Ġ" .
æĶ¶ ç¼©
ä¸ĩ æĪ·
åĲĦ è¡Į
èµ· è¯ī
éĻ¢ æīĢ
å¹³ æĿ¿
å¤© æĸĩ
æľĢ éĩįè¦ģ
ch ristophehurpeau
éĢļ èĥĢ
åĬł æ·±
å®ļ åĲĳ
åĲİ åĨį
ĠS impl
çİ° ä»Ĭ
åħ¨ éķ¿
un a
us ers
æĪĳ çŁ¥éģĵ
ĊĠĠĠĠĠĠĠĠ ĠĠĠ
ic ian
Ġin tr
æľī æľŁå¾ĴåĪĳ
æľī åħ´è¶£
Ġw aves
çĶ «
in ity
p p
i pe
d st
b ad
S QL
Ġinfr astructure
çĪ±å¥½ èĢħ
Ġbox es
Ġjob s
Ġcontr ast
Ġfac ilities
éĽķ åĪ»
Ġexist ence
å®¿ èĪį
çıł æµ·
åŀĥåľ¾ æ¡¶
æķ¬ ä¸ļ
map s
work flow
fo o
ç¯ĩ ç«ł
Ġshe l
çĶļèĩ³ æĺ¯
Ġatt ribute
æĪĲç«ĭ çļĦ
å¤« å¦ĩ
äºĨä¸Ģ ä»½
Ġem phas
Ġrel ation
çŁŃ ä¿¡
Ġpre par
å¹³åı° çļĦ
Ġint ended
æĺŁ çº§
åĪĽæĸ° èĥ½åĬĽ
æĺ¯ä¸Ģ éĥ¨
Ġcomp ound
èĬ± çĶŁ
åĨľ åİĨ
å§ĭ å»ºäºİ
\[ \
æīį åįİ
æķ´ è½¦
ä¾Ľ çĥŃ
æīĭ çļĦ
æµ· é²ľ
æµģ çķħ
é£İ åĳ³
çī¹ æĸ¯æĭī
çĹ ´
å¹¶ è´Ń
åħ¬åı¸ å°Ĩ
çŁ «
éĿ¢ è²Į
ä¹ĭ å®¶
ul f
å¸Ĥ ä¸Ńå¿ĥ
æĹ¥ å¼Ģå§ĭ
è¿Ľ åİ»
ç« ĸ
Ġl anguages
Ġh ospital
Ġn odes
ä¼ļ è®©
st ant
et te
å¹´ ç¬¬
æł Ĺ
å¯ ¡
ä¸į æĩĤ
æĸ Ĳ
çļĦ æĶ¿çŃĸ
n am
k ins
V E
O s
M atch
M ore
H el
) <
Ġ ```
é¡µå²© æ°Ķ
Ġprep ared
Ġmach ines
Ġhous es
èĦĨ å¼±
åĭĺ å¯Ł
Ġmid point
Ġthought s
èµł éĢģ
å½¼ å¾Ĺ
åĲĽ åŃĲ
çĲĨæĥ³ çļĦ
ç§Ĵ æĹ¶
èµĦæľ¬ å¸Ĥåľº
Ġke pt
æģ¶ èĩŃ
Ex ample
199 1
ä¸įåı¯ æĪĸç¼º
æĬĹ æ°§åĮĸ
æ¦ Ħ
ä½Ļ é¡¹
Ġar riv
ĊĠĠĠĠĠĠĠĠĠĠĠĠĠĠĠĠĠĠĠĠ Ġ
13 5
æ²¹ çĶ°
é¢Ħ æ¡Ī
åįİ å¤ı
ä½¿çĶ¨ äºĨ
åĽŀ åĽ½
ĠR equest
ĠD ig
ĠB rown
åĲį äºº
å°Ĩ å¯¹
æīĢ è¿°
um ps
ĠT ri
am eters
äºİ ä¸Ģä½ĵçļĦ
åĳ µ
Ġd rive
Ġd river
Ġm sg
ä¸į æĦ¿
Ġb atter
Ġw ife
æĺ¯ ä¸ĸçķĮ
ä¸Ģ å¿ĥ
çļĦ æĦıæĢĿ
çļĦ ç»ĵæŀĦ
Ä ĩ
w arn
u z
u h
c ustom
S equence
( ||
Ġ ~
Ġexcell ent
Ġproced ure
è¢«åĳĬ äºº
æ¯Ķäºļ è¿ª
FF SET
hand le
Ġrecord ed
Bu ffer
Ġtre ated
å¤§åĬĽ åıĳå±ķ
åģ¶ çĦ¶
Ġpur poses
Ġansw ers
ĠSc ient
Ġappro aches
Ġpers pective
èĦ± æ°´
è´µ éĺ³
è¿ĲåĬ¨ ä¼ļ
ä¸įä¼ļ æľī
ç»ĵæŀĦ çļĦ
ãģ ķ
å¥¹ è¯´
åĽłä¸º å®ĥ
èĮĥ çķ´
åĽĽ æĺ¯
èĻ ŀ
è¾¾ æłĩ
æµ· åĨĽ
çľĭ å¥½
æĬĢæľ¯ æľįåĬ¡
ä¸ĩ è¾¾
çĿĢ çļĦ
æį® ä»ĭç»į
Ġit er
Ġy ield
æ°´ åĬ¡
æĸĩ ä¸Ń
éķ¿ è¿ľ
æīĢ éķ¿
åĬ¡ å¿ħ
èĢĮ è¿Ļ
Ġg ender
ĠS ie
åħ¨ æł¡
åĮĸ è§£
å¥ İ
ä¸º å¹¿å¤§
ç» ½
çļĦ ä¼łç»Ł
p ick
l ar
g b
P ost
/ *
ĠOff ice
izon tal
ä¸»èĲ¥ ä¸ļåĬ¡
Ġcup s
scrib ed
æł½ åŁ¹
Ġconcern s
ä¸ºæĤ¨ æıĲä¾Ľ
Ġdest roy
Ġcharacter istics
Ġkind s
Ġdescrib e
Ġoption al
ìĿ ĺ
Ġconf ir
Ġleg s
¡èĲ Ŀåįľ
Ġcontin ues
èĬĤèĥ½ çİ¯ä¿Ŀ
Pro v
å¯» å¸¸
è¸ ©
ĠCon n
èĦ± ç¡«
å»¶ è¿Ł
Ġrem ained
èĨ Ŀ
Ġdes ired
è¿Ļä¸Ģ åĪĩ
Ġpre gn
Ġset up
iven ess
ä¼¤ çĹħ
ĠCh annel
ĠCh ild
åºĹ éĵº
è½» æĺĵ
åı¤ åŁİ
è´¨éĩı åĴĮ
ç»Ħç»ĩ å¼Ģå±ķ
å¹² ç»Ĩèĥŀ
å¿ħ å®ļ
äºļ é©¬
äºļ åİĨ
ç»Ļ èĩªå·±
æīį èĥ½å¤Ł
Ġun iverse
åĽ½å®¶ åħ¬åĽŃ
çľģ æĶ¿åºľ
éĽĨ è®Ń
ĠN ative
ĠE vent
æİ¥ ä¸ĭæĿ¥çļĦ
èĥ ¡èĲĿåįľ
èµ· æºĲ
å¾Ī éĩįè¦ģ
ex per
éħ ª
æķ° é¢Ŀ
ç®¡ åĪ¶
æıĲ åĢ¡
Ġst ret
ir al
é£ Ļ
Ġg um
åĲĪ åĬĽ
ä¸İ äºº
æĸ° é«ĺ
å¯¹ è¯¥
Ġe fficiency
çŃ ·
ä»¥ åĨħ
åĴĮ æĸ°
ä¸Ń æ¯Ĵ
Ġb ed
éĩ ľ
re nder
l ang
k i
d r
c apt
\ }
D et
ĠCopy right
æ´½ è°Ī
Ġencour age
åłµ å¡ŀ
è°ĭ åĪĴ
èĤĮ èĤ¤
Ġassoci ation
æĹĭ å¾ĭ
Ġelect ro
æĺİç¡® æıĲåĩº
å©ļ ç¤¼
Ġdisc ount
éĺ¶æ®µ çļĦ
Ġ200 2
éĽ· è¾¾
çĿ£ å¯¼
èĥĮ åĲİçļĦ
åı³ ä¾§
å·¦ ä¾§
Ġrec ip
assert Raises
éĢĲ å¹´
å¥ĩ è¿¹
Ġform al
åı¦ è¡Į
èģļ åĲĪçī©
å¨ ĩ
ä½ı åľ¨
ans as
æ¸¸ çİ©
è¾ĥ å¼º
èĢĥ çłĶ
å±± åİ¿
å±± çļĦ
é© ¿
ä¸ĸ ä»£
ç»ĵ å±Ģ
Ġ{ "
æĹł å¥Ī
å¹³ å¸¸
è¡¨ æł¼
åħ¥ å¢ĥ
Ġcon vers
Ġcon v
est ed
æ³ķ åĪ¶
ur ance
æĹ¥ èĢ³
æĸ° èµĽåŃ£
åĩº è®©
çĲ ª
åĴĮ æĶ¯æĮģ
ä¸º æĪĳä»¬
Ġin h
æĺ¯ å¤§
Ī ĺ
T op
D own
Ġ æĪĳ
æĹ¥èĢ³ æĽ¼
åŃ£åĲİ èµĽ
Ġslight ly
Ġphen omen
Ġauth ors
åĳ½ä¸Ń çİĩ
ocr atic
Ġcamp aign
ĠHT TP
But ton
ĠComm ission
çķħ éĶĢ
Ġcorrect ly
ä¿Ĺ ç§°
åŁĥ åıĬ
æ© Ħ
æ©Ħ æ¦Ħ
çŀ ©
åĨ³èµĽ ä¸Ń
æĹ¶æľŁ çļĦ
Ġrun s
åĪ©æ¶¦ æĢ»é¢Ŀ
Ġsupport s
çļĦéĩįè¦ģ ç»ĦæĪĲéĥ¨åĪĨ
åĴ¨è¯¢ æľįåĬ¡
æĿĢ æŃ»
Ġgo als
åĢŁ çĶ±
ä½ľåĵģ çļĦ
ä¹° å®¶
åħ¸ èĮĥ
Ġnew sp
ä½Ļ ç¯ĩ
åĨĻ åŃĹ
è®² ç©¶
é¾Ļ äºķ
Ġsc ulpt
Ġ19 80
æ»¡ æ»¡
çļĦäºº ç¾¤
æ¸ħ æ°´
éĻĲ åº¦
è§Ĥ éŁ³
Ġim possible
ä¸ĸ éĹ´
ĠF re
ĠR eturn
äºĮ äºº
åĲĦ åįķä½į
èĥ ļ
å¹³ éĿĻ
ĠM ac
å°ı ç¨ĭåºı
åĢ ¦
å¦Ĥ æĿ¥
æĸĩ åĪĽ
å°± è¯Ĭ
å°± è¿Ļæł·
å¼Ģ å±Ģ
æľ¬ å¸Ĥ
æľº æĪ¿
é«ĺ é¢ĳ
åĪĨ å¼Ģ
Ġre ached
äºİ æŃ¤
et ric
åĽ½ ä¼ģ
Ġb and
æľī å¿ħè¦ģ
Ġp un
Ġs oci
on ed
Ġt argets
çļĦ æĦıè§ģ
v s
n ic
b ash
O ver
ĠSov iet
Ġmultip ly
Ġenh ance
å§ĳ å¨ĺ
åĬłå¯Ĩ è´§å¸ģ
ç½ķ è§ģ
é¢ĦåĳĬ çīĩ
ĠRuss ian
æµıè§Ī åĻ¨
Ġê °
åĽ½æ°ĳ ç»ıæµİ
ĠCont rol
Ġindic ate
sy nt
åºŁæ°´ å¤ĦçĲĨ
Ġfeel ing
å¿Ļ ç¢Į
ÑĢ Ð¾Ð
Ġsw itch
åĪºæ¿Ģ æĢ§
Al though
æ½® æ¹¿
è°· æŃĮ
èģĶèµĽ ä¸Ń
å°¤åħ¶ æĺ¯åľ¨
æģ¶ åĬ£
ä¼Ĭ æĸ¯
cont ents
åį«çĶŁ åģ¥åº·
Ġlist en
éŁ³ä¹Ĳ ä¼ļ
ç«ŀäºī å¯¹æīĭ
Ġco ff
è®¢ ç«ĭ
äººæīį çļĦ
èĭ¥ æĺ¯
é¥® çĶ¨æ°´
åĪ©çĶ¨ çİĩ
Ġcons c
åį° å°¼
åħ´ èµ·
Ġme ant
éĽĨåĽ¢ çļĦ
Ġro ute
ç®Ģ åĮĸ
ä¸¥ ç¦ģ
æĿĥ éĻĲ
çº¦ åįł
Ġch apter
èº« é«ĺ
åĲĳ å¾Ģ
ĠN ations
çľĭ å®Į
ĠE nd
ĠE v
ĠW he
äºĮ å¹´
å¼º è¿«
ä½Ĩ ä¹Ł
Ġv irt
em ia
æĽ´ éĩįè¦ģçļĦæĺ¯
èĢĮ åĲİ
æľ¬ æľºåħ³
ol es
çİ «
ä¸Ń åŀĭ
Ġw arn
åľ¨ åĨħ
å° §
Ġc ognitive
Ġc e
æĸ ĭ
n float
l ig
W rite
E A
C an
B U
ĠCour t
Ġhous ing
Ġrepl aced
âĢķ âĢķ
Ġrecogn ize
ä¸Ĭå¹´ åĲĮæľŁ
ĠPar is
Ġrespons ibility
åŁºç¡Ģè®¾æĸ½ å»ºè®¾
çī¢ åĽº
omet imes
æķ¢ äºİ
è¯¦ç»Ĩ çļĦ
Ġfin ally
Ġinit ially
Ġshow ing
Ġmet al
æĺİç¡® çļĦ
æ·· ä¹±
ç³»åĪĹ äº§åĵģ
Ġsub sequ
åĪĨæŀĲ åĴĮ
ç»ıèĲ¥ èĢħ
äº² åĪĩ
che n
é¢Ŀ å¤ĸ
çīĪ çļĦ
ä½ķ æĹ¶
å¥³ çİĭ
Ġpl ate
11 5
è½¬ éĢŁ
æ¢ ĵ
åħī çļĦ
åİŁ æĿ¥çļĦ
ĠN OT
èĮ İ
æĬ¥ çº¸
æĮģ ä¹ħ
åĲĦ æĸ¹éĿ¢
é£İ åĬĽ
ore an
èµĽ åľº
æĹł ç©·
ä¿¡ è®¿
å¤© å¤©
ri an
èĬ ľ
å°Ĩ ä»İ
éĽ Į
ä¹ĭ æĥħ
Ġg all
im a
æķ ŀ
åĴĮ åįİ
Ġb ug
Ġp or
åį ¿
ä¸Ģ åı·
ä¸Ģ åı°
Ġs emic
in f
e a
Y K
P arser
O ur
D I
: `
äºļé©¬ éĢĬ
ä¼ĹæīĢ åĳ¨
ë¡ ľ
é©¬åħĭæĢĿ ä¸»ä¹ī
Ġjour ney
æ¯ĶåĪ© æĹ¶
åĩºç§Ł è½¦
çº² è¦ģ
Ġdecre asing
dig est
æ·Ģ ç²ī
æĲ¬ è¿ģ
å·¥åķĨ æĪ·
èĤĿ èĦı
Ġmus cle
PC B
Ġprot ocol
Ġtem plate
ä¸¥æł¼ çļĦ
Com bin
load er
66 66
åħ¬åħ± äº¤éĢļ
åĨ² æ³¡
Ġsec ure
æ³¨æĦı äºĭé¡¹
ä½Ľ å±±
Ġunder st
Ġpre m
Ġag reed
Ġmay be
ãĤ ¢
ãĤ Ĭ
å¹³åı° ä¸Ĭ
åĽłæŃ¤ åľ¨
äººæ°ĳ åĮ»éĻ¢
è¿Ļä¸ª ä¸ĸçķĮ
åĩł çĤ¹
éļ¾ åħį
å¿ħ ä¸įåı¯
åįı å®ļ
åĨľ æĪ·
æ¸© æŁĶ
con sole
ell o
per ial
çłĶç©¶ æĪĲæŀľ
éĿŀ èĲ¥åĪ©
ç®¡çĲĨ ä¸Ńå¿ĥ
çİ¯ ç»ķ
è·¯ æĺĵ
ang ular
ĠF ile
ä½ł åľ¨
up per
ä½Ĩ å¦Ĥæŀľ
å®ī éĿĻ
ä¸ŃåĽ½ ç»ıæµİ
ĠP ers
å¤© ä½¿
è¡¨ è¿°
ap ed
å¾Ĺ åĩº
å¼Ģ æºĲ
å¤ļ åªĴä½ĵ
å·¥ ä»¶
ä¸Ĭ ä¸ĸçºª
el er
å¤§ èĩ´
Ġm obile
åĴĮ å¯¹
åĩ ¹
ä½ ĳ
er ry
re ement
Ġt um
çļĦ åĬŁæķĪ
Î ¼
i j
W A
V ER
G en
D K
åĲĦè¡Į åĲĦ
Ġbeaut iful
Ġprofess or
Ġengine ering
åįģåĽĽ æĿ¡
Ġemploy ees
Ġattack s
Add r
å·¡ åĽŀ
Ġcrit er
å¤įåĲĪ æĿĲæĸĻ
Ġsw im
èĦ¸ ä¸Ĭ
æĭĽæłĩ äºº
æĩ Ĵ
å°ıæĹ¶ åĨħ
æĮĩå¯¼ æĦıè§ģ
à½ ĸ
åĨ¬ èĻ«
æķĳ çģ¾
ä¸¤ä¸ª æľĪ
ĠPro t
æľĢåĲİ çļĦ
çĶµå½± èĬĤ
Ġass igned
sh ot
åĮĹäº¬ å¤§åŃ¦
åŃ¦éĻ¢ çļĦ
ĊĠĠĠĠĠĠĠĠĠĠĠĠĠĠĠĠĠĠĠĠ ĠĠ
åĿļ å¼º
low er
é¦Ļ åĳ³
å¯Į è£ķ
åºĶçĶ¨ çļĦ
éĿĴ å±±
ä½ľä¸º ä¸Ģç§į
éĻį æ¸©
åį³ æĺ¯
åħĭ ç½Ĺ
Ġsp ot
çĶŁæ´» åŀĥåľ¾
ä¸»è¦ģ ä»İäºĭ
ç³»ç»Ł åĴĮ
åħī çº¿
Ġun less
å®Į å·¥
é¢Ĩ è¢ĸ
æİ¥ è¿ŀ
ĠD et
èµ· çĿĢ
ä¸Ģä¸ª äººçļĦ
æį® è¯´
ä¼ģä¸ļ åıĳå±ķ
um es
ĠC R
å¦ Ħ
ï¼ļ âĢĺ
çŃī æĥħåĨµ
am ount
å·¥ åľ°
ä¸į ç¦ģ
Ġb inary
Ġf elt
åĲ ĵ
in er
çļĦ çĶŁåĳ½
y ou
m ode
d rop
] );
G e
D o
) [
åĨ¬èĻ« å¤ı
åĨ¬èĻ«å¤ı èįī
èģĨ åĲ¬
èĤ¡ä¸ľçļĦ åĩĢåĪ©æ¶¦
operator name
atur ally
Ġagricult ural
Ġliter ature
Ġcustom er
Ġconsum er
Ġdepend s
Ġprom pt
roll er
å»ī æĶ¿
åħħæ»¡ äºĨ
AL L
Ġoper ating
åĪ· æĸ°
åĪ¶å®ļ äºĨ
åĽ°éļ¾ çļĦ
Ġcr is
Ġeffect ively
ĠAn other
çĸ«æĥħ å½±åĵį
Ġgr and
çłģ å¤´
ä¼ļè®® ä¸Ĭ
æĶ» åħ³
Ġass ert
sh ort
å¿ħé¡» åľ¨
Ġno ise
æī¾ åĩº
å°¼ åħĭ
Ġdis k
åĨĽ äºº
ä¿® å»º
å®īåħ¨ éļĲæĤ£
Ġ' /
å°±æĺ¯ è¦ģ
åĨľ åľº
Ġwor se
çĶŁäº§ å·¥èīº
åĩĨ åħ¥
Ġle aving
è£ ¤
ĠD iff
è¿ĺ ä¸į
ä¸ĵ èģĮ
ex it
os c
ist ent
æĽ´ æĶ¹
è®¡ æĹ¶
äºĭ ä¾ĭ
åºĶ å±Ĭ
ĠC are
å¼Ģ ä¼ļ
ot ype
å®¶ åħ¬åı¸
åĪĨ åĮĸ
im eter
Ġre nder
è¡Į èµ°
ac ific
èµ Į
le an
Ġb right
Ġf lex
Ġp ret
Ġa id
Ĭ ¤
x id
b ow
M ost
L oad
! âĢĿ
éĦ Ĥ
ĠInst ead
Ser ver
Ġsuggest ed
è¿Ŀæ³ķ è¡Įä¸º
çī§ ä¸ļ
Ġide al
å±ķçİ° äºĨ
çļĦæ²»çĸĹ æĸ¹æ³ķ
é¸¡ èĽĭ
ç¬¬åįģ äºĮ
ç¬¬åįģ ä¸ī
åħ¼ å®¹
be ing
ĠEx ception
çĥ§ çĥ¤
AT ION
ä¸¾åĬŀ äºĨ
çĥŁ èĬ±
çĸĳ æĥĳ
ĠCom put
èĢĲ çĶ¨
Ġinter act
fig ure
Ġob vious
çĨ ı
å°¼ é»ĳ
ä¸įæĸŃ åıĳå±ķ
ä¸ªäºº åħ»èĢģéĩĳ
å¾Īå¤ļ çļĦ
ç»Ī ç©¶
ç»Ī çĤ¹
çĽ®åīį å·²
è¿Ļä¸ª æĹ¶åĢĻ
Ġcl osed
å½±åĵį äºĨ
å°±æĺ¯ ä¸Ģä¸ª
çİĩ é¢Ĩ
å¸¦ ä¸Ĭ
çĥŃ éĹ¹
æķĪ èĥ½
æľįåĬ¡ åķĨ
æĦŁ æ¿Ģ
ĠR obert
éĢł çº¸
æŃ£ ä¹ī
èĭ Ķ
Ġv ess
å½ĵ ä½ľ
ï¼Ľ ï¼Ī
æķĻ è®Ń
åīį çŀ»
çĤ ³
ä»ĸ å°±
åħ¬ çĶ¨
æİ Ģ
Ġd ream
åĴĮ ä¸Ń
Ġf lood
Ġf ert
Ġp ounds
çļĦ æķ°éĩı
w orld
p anda
c x
W ork
E ng
A rea
A ng
ë¥ ¼
å½Ĵå±ŀäºİ ä¸Ĭå¸Ĥåħ¬åı¸
Ġhundred s
æħķ å°¼é»ĳ
Ġdocument ation
ä¸¢ å¤±
ç£· éħ¸
åĽ½æľī ä¼ģä¸ļ
bol a
Ġtrad ition
Ġadv ice
âĦĥ ãĢĤ
reg ion
init ial
èİ« æĸ¯ç§ĳ
çĽĳçĿ£ ç®¡çĲĨå±Ģ
ä¹Ļ éĨĩ
ask et
åħ¶å®ŀ æĺ¯
çŁ¿ çī©è´¨
æ¾ ľ
ç»ıéªĮ åĴĮ
å© ī
å°Ħ çº¿
ool s
å¥¥ è¿ª
æ¯ĶèµĽ çļĦ
åį¡ å°Ķ
è¿Ļæł· ä¸Ģä¸ª
æĹħ ç¨ĭ
ç¦ı éŁ³
åĲĪä½ľ ç¤¾
Ġper mission
èı ±
æĬĬ èĩªå·±
æ£Ģ çĸ«
åŃĺ æĶ¾
å¿« èĪ¹
æīį æľī
å¸Ĥåľº çĽĳç®¡
å°Ķ å¤«
æĪ· åı£
Ġ3 3
åİŁ æľī
æł¼ æŀĹ
è·¯ åı£
æ±Ĥ èģĮ
ĠH en
ĠB el
æĹł åı¯
ç² ¥
ĠM iddle
res et
ĠP sych
æĽ´ èĥ½
èĢĮ éĿŀ
ä¸» éĺŁ
ad or
ĠT reat
æĸ¹ åı¯
é«ĺ æ¡£
åĪ° å¤Ħ
Ġre place
è¿Ļ åĲį
Ġh orm
åŃ¦ éĹ®
çĶŁ æŃ»
el come
Ġin vent
ä¸Ģ çľĭ
Ġc rops
Ġa ircraft
Ġa er
çļĦ æķ´ä½ĵ
çļ Ĥ
Ð ²
Ĥ ¬
o j
P ublic
Ġconstr aints
Ġclaim s
ä¸ªä½ĵ å·¥åķĨæĪ·
æĭ¨ æīĵ
ĠAm azon
Ġprint ing
Add ress
æıŃ ç¤º
èĤ¾ èĦı
å§ĭç»Ī åĿļæĮģ
è¾Ľ è¾£
è¯¦ è§ģ
èĤ¥ èĥĸ
IT Y
Ġgr ade
æķ°åŃĹ ç»ıæµİ
æł¸å¿ĥ æĬĢæľ¯
Ġlist ed
Ġmin ute
ins n
å®ŀéĻħ è¡ĮåĬ¨
arch y
iss ues
æĭ¥ æĬ±
çĻ» ä¸Ĭ
åĨł çĬ¶
Ġro b
å»ºçŃĳ è®¾è®¡
åĪĩ åīĬ
Ġout come
çĽ¸åħ³ è´Łè´£äºº
çĽ¸åħ³ ä¸ĵä¸ļ
æ²¹ èĦĤ
åĲĮæĹ¶ ä¹Łæĺ¯
åıĪ ä¸Ģ
èĬ± çļĦ
ak ers
é¦ĸ å®¶
éĺ² çĪĨ
Ġsh op
é£Ł åłĤ
æ·± åİļ
æĶ¹ å»º
ç²¾ æ¹Ľ
19 88
æ® ·
åįģ åĩł
æµģ ä½ĵ
æİ¥ çº³
ĠD an
èµ· ä¼ı
æłĩ æĿĨ
æĹł æ¯Ķ
ç¾İ èģĶåĤ¨
åı¯ä»¥ çľĭåĪ°
åı¯ä»¥ å°Ĩ
æ¬¡ çļĦ
çī¹ å°Ķ
éľ Ĩ
æ¶ ©
Ġbe ar
ĠC am
ä»ĸ äººçļĦ
çŃī ä¼ĺçĤ¹
çŃī æ´»åĬ¨
æ± Ģ
äºº å¯¹
Ġw alls
åľ¨ åĵªéĩĮ
åį ī
is hes
Ġs ampl
Ġs ession
çļĦ æľªæĿ¥
ì ļ
p kg
h h
\ (
P Q
. ]
Ġ è¿Ļ
å®ª æ³ķ
ĠAN D
çĮľ æµĭ
Ġintrodu ction
One Pass
ĊĊĉĉ ĉ
Ġder ived
èµĭ èĥ½
Ġaccount s
Ġsat ell
ĠComm it
Ġben ch
é¥Ń åºĹ
å¢Ļ ä½ĵ
æ²¿ çº¿
Ã¤ l
ä¼´ æľī
Ġhelp ing
å¤® è§Ĩ
çĽĸ å¸½
": "
Ġ7 2
Ġfun g
ãĤ µ
ç¬¬äºĮ å¤©
éĥ¨éĹ¨ çļĦ
è¿Ļæł· ä¸Ģ
å±ħ å®¶
éĴ¢ ä¸Ŀ
åĪĿ å§ĭ
å»ºçŃĳ å¸Ī
Ġsc an
Ġ19 99
25 00
ç¬¬ä¸Ģ ä½į
åı² å¯Ĩ
æĴ ķ
Ġne ut
éĩĩ æļĸ
ĠU TC
ĠU r
å®¢ éĺŁ
èİ· èĥľ
æŀĦ éĢł
Ġle af
çľģ éĥ¨
åıĺ è¿ģ
ĠL atin
æĬĢæľ¯ äººåĳĺ
é£İ æīĩ
èµ· æĿ¥çļĦ
åŁº å»º
å®ī å¸Ĥ
çī¹ è®¸
Ġv ib
çĦ ī
å°ı é¢Ŀ
åĲĮ çŃī
ä¹Ł éĥ½
ĠS on
çİ° è¡Į
æĹ¥ åħĥ
æĹ¥ åĲİ
am i
Ġl ie
æĪĳ çĽ¸ä¿¡
æ² ¾
çĶŁ æºĲ
el i
Ġm ixed
ä¸º ä¸Ģ
Ġp enc
åľ¨ æķ´ä¸ª
Ġo cean
ä¸Ģ å¹´çļĦ
Ġa udio
ì §
Ñ ħ
u pload
l ass
d ates
K e
E nd
irg in
å¾ĹçĽĬ äºİ
Fact ory
é³ŀ å±ĳ
Ġdrink ing
ä¸įä»ħä»ħ æĺ¯
Ġkill ed
Ġwalk ing
å§¿ æĢģ
åºŀ å¤§çļĦ
ç¨į å¾®
ç¤¾äº¤ åªĴä½ĵ
ç§ī æĮģ
åħ¬å®ī å±Ģ
íķ ľ
è´µå·ŀ çľģ
å·´é»İ åľ£
>> >
å¿ĹæĦ¿ æľįåĬ¡
{} ",
å·¥åķĨ è¡ĮæĶ¿
æįĲ æ¬¾
ĠNew s
å¡« åħħ
Ġexpl ained
Ġexpl an
çŃ¹ å¤ĩ
ä¸ºä¸» çļĦ
param eters
åķĨåĵģ æĪ¿
èĢģå¸Ī çļĦ
cont ains
çļĦå¤§ åĬĽ
åĲ¯ çĶ¨
çģµ æķı
alth y
Ġdes c
23 5
æİ§åĪ¶ åĻ¨
ĠIt s
åºĶçĶ¨ åŀĭ
åħ¶ä»ĸ äºº
18 00
Ġcl oud
pro tocol
åĽ¾ çº¸
åıį æĶ»
11 3
19 86
äº§åĵģ åĴĮ
å½± éĻ¢
æ°Ķ åĬ¨
Ġr ail
ä½Ĩ å®ĥ
æĹł ç¼ĺ
å¾Ī ä¹ħ
ri age
å¹¶ æıĲä¾Ľ
å°Ĩ è¿Ľä¸ĢæŃ¥
æīĢ èĩ´
æį ŀ
ĠC ase
åĲĮ ä¸Ģä¸ª
ĠS ervices
åħ¨ èµĦ
æĦ ļ
åħ¬ è¯ģ
æĭ ±
Ġl ose
æĪĳ åı¸
æ² Ĳ
å¤§ éĹ¨
è´ ©
Ġd ictionary
ro ke
åĴ ª
Ġb ought
åľ¨ é¦Ļæ¸¯
Ġt ips
Ġt ip
d yn
äº§åŃ¦ çłĶ
ĠMedic ine
Ġsch ol
åĽ½èµĦ å§Ķ
à¥ į
èħķ è¡¨
ĠJew s
Le vel
Ġautom atically
è¾Ī åŃĲ
Ġmot or
lin ux
Ġsit uations
Ġsay ing
å²ģçļĦ çĲĥåĳĺ
èı² å¾ĭ
Ġgovern ments
ä¾µ å®³
æļĤ è¡Į
æ¦ľ é¦ĸ
ik ip
æľĿ çĿĢ
class es
Ġend s
Ġsk learn
é¢Ĩå¯¼ ä¸ĭ
èĦĳ è¡Ģç®¡
ĠPro cess
ä¿ĿæĮģ åľ¨
ä½Ľ æ³ķ
èĹ »
ç»¼åĲĪ ç´łè´¨
åİĨåı² æĸĩåĮĸ
ren ce
çľ¼ åħī
è®¡åĪĴ çļĦ
åī¯ æł¡éķ¿
å®ĮæĪĲ çļĦ
æī§ çĿĢ
å·¥ä¸ļ åĮĸ
è½» è½»
æĹ© å°±
Ġ5 2
Ġ19 90
ç®Ģ æ´ģ
ç®Ģ åİĨ
Ġap point
ide os
è¶Ĭ å¥½
äº¿ æ¬§åħĥ
éĢŁ çİĩ
ä½İ åİĭ
åı£ æľį
æ²¡ ä»Ģä¹Ī
æ£ ĺ
æĦŁ çļĦ
ä¸ĸ çļĦ
ĠH D
ĠW il
å¼º åĬ¿
æ°ĳ çĶ¨
å½ĵ å±Ģ
çĸ ¡
éĩı åĮĸ
æīĢ ç§°
åħ¶ éĹ´
åħ¨ èĩªåĬ¨
å¤ļ å¤ļ
å¯¹ äººä½ĵ
åĪ° åľº
Ġh az
ä¸į æ»¡
Ġp ure
Ġp il
Ġw aters
åľ¨ è¿ĻäºĽ
Ġs ounds
in et
çļĦ è§Ĵèī²
p ipeline
m ic
G M
èı²å¾ĭ å®¾
åįģä¸ĥ æĿ¡
Ġmix ture
åįģåħŃ æĿ¡
sm ithy
fort unately
std out
sk ip
OD O
Ġdiscuss ed
Ġseg ments
æģĲ æĢķ
å¤©æ´¥ å¸Ĥ
Ġnet works
Ġintern et
å¹´åīį çļĦ
åıĳçĶµ æľºç»Ħ
èĪĴ æľį
Ġinterest s
Ġelect rical
Ġlog ic
æļ´ åĬĽ
Ġpop ulations
DE L
è£ģ å®ļ
å·¦åı³ çļĦ
æľĿ éĺ³
Ġbr anch
æ±ĩ çİĩ
åķĨä¸ļ æ¨¡å¼ı
çľĭåĪ° çļĦ
Ġco ins
Ġte a
è§Ħæ¨¡ çļĦ
åªĴ ä»ĭ
åŃĺåľ¨ äºİ
åĵª æĢķ
è¿Ļæĺ¯ åĽłä¸º
ä»Ĭå¹´ å¤ıå¤©
St yle
çŁŃ è§Ĩé¢ĳ
åıĳå¸ĥ ä¼ļä¸Ĭ
åĨ· åĩĿ
åİĨåı² æĤłä¹ħ
Ġexp ensive
Ġequ als
å½ķ éŁ³
ãĥ ©
Ġap plic
åħ¶ä»ĸ çļĦ
çŁ³ å¤´
éĻį èĩ³
pro t
è¯Ħ åĪĨ
çª ĥ
çİ¯å¢ĥ æ±¡æŁĵ
ong o
æ¼Ķ æĬĢ
av as
çĶŁæ´» ä¸ŃçļĦ
ç»´ å°Ķ
é¦ĸ è¦ģ
æĪĺ å¹³
é¡¹çĽ® ç®¡çĲĨ
ĠG ard
ĠL ord
ĠE con
ĠD ocument
ĠB et
Ġwh om
ä½Ĩ æĪĳä»¬
ç½ĳ æł¼
æĦı çļĦ
å®ī å¾·
åĲį ä¹ī
ab ul
èĲ İ
åĳĺ çļĦ
åĿ ŀ
ç®¡ æĿĲ
æıĲ éĹ®
ä¹ĭ äºº
ĠA ccess
é«ĺ æĢ§èĥ½
ol ic
ec k
Ġh air
å¹´ åĴĮ
äºĨ èĩªå·±
åľ¨ æĹ¥æľ¬
åľ¨ èģĮ
ä¸Ģ ä¸Ģ
çļĦ è¯´æ³ķ
çļĦ åįķä½į
y t
t race
r ates
m n
h ard
\ "
C opy
C ar
Ġdivers ity
ä¹Įé¾Ļ èĮ¶
raz il
Ġing red
åĲĪä¼Ļ äºº
ĠNet work
ç¡®è¯Ĭ çĹħä¾ĭ
Bl ock
åĦĴ å®¶
Ġ\): **
å¹» æĥ³
åįģäºĮ äºĶ
ĠWh ite
èķ ī
çľŁçļĦ å¾Ī
Ġlim its
opt im
Ġì ŀ
fo ot
Ġext ension
view s
ĠAn alysis
æīĵéĢł åĩº
è¯į æ±ĩ
æĪĺçķ¥ æĢ§
ten ance
ĠPro fess
Ġ/ >
éģĩ è§ģ
æ³¨æĦı åĪ°
Ġpre pare
çĻ» åľº
Ġexp on
æ¿Ģ çĥĪçļĦ
å°¼ å°Ķ
In tern
è¡Ģ èĦĤ
äºĴ è¡¥
çº¢ æĸĳ
çº¢ åĪ©
è¿ĻäºĽ éĥ½æĺ¯
åİ¿ å§Ķ
Ġcont ained
åĳ¨ äºĶ
Ġres olution
é¢Ħ éĢī
èĢģ çĻ¾å§ĵ
æĶ¾ ä¸ĭ
19 84
Ġ3 4
èĢĥ è¯ģ
ial og
çĪ ª
æİ¥ åľ°
ĠB ig
å¸¸ å§Ķ
èĭ Ľ
Ġv ital
em pl
ag o
åºĶ åĬĽ
ä¹ĭ ç§°
æľ¬ æľĪ
å¸Ĥ äººæ°ĳæĶ¿åºľ
ä½ĵ åĬĽ
çŃī æľįåĬ¡
äºİ ä¸Ģä½ĵ
Ġth ick
ä¸ª åŁİå¸Ĥ
ä¼ļ ç»Ļ
çĶŁ äºİ
å¤§ èĥĨ
Ġd ust
ä¸į ä½³
ä¸į çĦ¶
ä¸į æĹ¶
ed ges
æľī ä¸¤
Ġw itness
æĺ¯ è°ģ
al a
it z
ä¸Ģ æĿ¯
åĲ »
çļĦ çĲĨè§£
p her
k in
e per
b ian
V isual
S L
R F
M icrosoft
H ash
) ',
" -
Ġ ..
Ġ ä»İ
Ġ åħ¬åı¸
Ġcruc ial
æĳ©æīĺ è½¦
Ġneighbor hood
gru ening
åı¤èĢģ çļĦ
åīįä¸ī åŃ£åº¦
æ¶Į çİ°
å¸¸è§Ħ èµĽ
Ġfamil iar
åįģäºĶ æĿ¡
å§Ĳ å¦¹
æģĭ çĪ±
ä¸Ģæµģ çļĦ
æĪ¿åľ°äº§ å¼Ģåıĳ
åĪĨå¸ĥ å¼ı
Ġadv ance
äºļæ´² æĿ¯
éģĵè·¯ ä¸Ĭ
ä¸¾è¡Į äºĨ
sl ot
èľ Ģ
ĠPro ve
ĠPro v
èį£ èĢĢ
çĶ² çº§
æ¶Īè´¹ åĵģ
åĨ· éĿĻ
å°Ħ ä¸Ń
ä»£è¡¨ åĽ¢
å·¥ä¸ļ å¤§åŃ¦
Ġsc ope
Ġstr ict
çİĭ åŃĲ
ãģ £
æĺ¯ä¸Ģ é¡¹
æĪĲä¸º ä¸Ģä¸ª
æĻ¯ èī²
æ²¹ å¢¨
åħĭ çļĦ
ĠU RL
çľŁ å¿ĥ
Ġtr ait
å¾· åįİ
éĿŀ çī©è´¨
å±± å¤§
èĦ ĵ
Ġ" /
ç¤¾ åĽ¢
ä¸¤ åľ°
Ġde lete
è¢« äºº
ĠW rit
ĠP en
ri end
æģ ³
ab i
Ġpro pos
Ġcon clude
å¿ĥ å¾Ĺ
èĢĮ åıĪ
ä¹ĭ åĪĿ
é«ĺ æĸ°åĮº
åľ° æĿ¿
Ġl ung
im ary
Ġn one
Ġn a
è¦ģ åıĬæĹ¶
è¦ģ ä¹Ī
èĥ½ è®©
æĢ ľ
ä¸į åĥı
å¸ ·
æľī è¿ĩ
Ġw ww
Ġc ouncil
Ġs elling
çļĦ åĲĪä½ľ
çļĦ æīĭ
p u
l od
j ust
b gruening
L inux
G u
A meric
æĹłçĹĩçĬ¶ æĦŁæŁĵèĢħ
ĠTex as
å·¥ä¸ļåĴĮ ä¿¡æģ¯åĮĸ
Ġnutri ents
Ġnorm ally
Ġadvant age
æĸ°ä¸Ģ è½®
tim estamp
Ġpossib ly
éĺĲ è¿°
Ġtell s
Ġprinc ipal
Ġson ar
å³¡ è°·
è¡° èĢģ
åıįæĺł äºĨ
åĪĨå¸ĥ åľ¨
Ðµ ÑĢ
Ġgen es
Ġmark ed
çıį çıł
Ġcomplet ion
Ġwrit er
ä»įçĦ¶ æĺ¯
ĠQ ue
Ġins pect
Ġloc ations
ä¿ĥè¿Ľ äºĨ
ç½ĳç«Ļ çļĦ
Ġbu ffer
èĵ ī
åľ°æĸ¹ æĶ¿åºľ
ix els
ä»»ä½ķ äºº
åħ³ç³» çļĦ
ç»ıèĲ¥ ç®¡çĲĨ
ä»£è¡¨ äºº
æĹı èĩªæ²»
çľ¼ éķľ
èĲ½ æĪ·
æĶ¿åºľ éĩĩè´Ń
çĪ± ä½ł
é¦ĸ è½®
Ġsh ut
å¸Ĥåľº åĮĸ
nd rome
Ġch urch
åģļ ä¸Ģä¸ª
ĠL ake
çĻ½ äºĳ
ä¸ľ çĽŁ
åĮ» æĬ¤
ĠR ad
æ°ĳ èŃ¦
åı¯ä»¥ è®©
è´¨ çļĦ
çĦ Ļ
ab c
æķ° ä½į
if acts
åħ¶ åĲİ
ï¼ī âĢĿ
æĹ¥ çħ§
å¤ļ ä¸º
ut f
Ġto ur
Ġb ind
Ġp ump
åľ¨ å¯¹
ä¸Ģ æľ¬
Ġc atch
or ative
Ġs now
çļĦ é¢ľèī²
çļĦ åįķ
w er
u able
o ose
O B
L ine
D uring
B N
A b
Ġatm osphere
ĠCong ress
Ġinstit utions
Ġrapid ly
Ġhar vest
Ġsuccessful ly
aly tics
Ġapp arent
æķĮ äºº
ç¡« åĮĸ
Par ams
Wh y
ĠOn ly
èĸª éħ¬
æĬķæłĩ æĸĩä»¶
æ¡ĥ èĬ±
çī©çĲĨ åŃ¦
è½¨ è¿¹
å®¾ é¦Ĩ
èµŀ åĬ©
èį¯çī© æ²»çĸĹ
åĬłåħ¥ äºĨ
Ġown er
Ġref ers
å¤ľ æĻļ
çĶŁæĢģ ç³»ç»Ł
Ġinf ected
å»ºç«ĭ åģ¥åħ¨
è¿İ æĪĺ
å®Ŀ è´µ
cre ated
å®³ äºº
è§Ĵ èĲ½
Ġbut ton
èİ·å¾Ĺ èĢħ
å¤ª å¤§
æķ°æį® ä¸Ńå¿ĥ
å¥³ çĶŁ
ä½İ æĶ¶åħ¥
Ġch ronic
æĢ» æĶ¯
è¢« è®¤ä¸ºæĺ¯
ç»Ħ çļĦ
ä½ł çŁ¥éģĵ
ä¸ĩ å¤ļ
Ġr at
åı¯ä»¥ ä½¿çĶ¨
ap se
Ġ- *-
åĪ¶ çº¦
éĥ¨ èĲ½
ul ong
ï¼ļ ï¼Ī
çŃī äº§åĵģ
æĪĳ è¯´
st op
Ġm amm
ä¸į ä¸Ģå®ļ
ä¸į é«ĺ
Ġb ill
äºº èº«
åº Ĳ
åľ¨ åīį
Ġa pt
çļĦ åģ¥åº·
p riv
m icrosoft
b ound
L a
Ġ 99
åı²å¯Ĩ æĸ¯
èĨ³ é£Ł
åİķ æīĢ
èĪ¬èĭ¥ æ³¢ç½Ĺèľľå¤ļ
ä¸įå¿ĺ åĪĿå¿ĥ
Ġtra ffic
Ġeval uation
Ġimm une
Ġorigin ally
æµ¸ æ³¡
å§Ĳ å§Ĳ
åĭŁ éĽĨ
åĢ¾ æĸľ
æ¬² æľĽ
ç¦»å¼Ģ äºĨ
æĿľ åħ°çī¹
çıį è´µ
Ġprot ected
Ġorgan ic
ç»ĵæĿŁ äºĨ
Ġinteg ration
å¥ĭ è¿Ľ
AR T
Ġtri ed
Ġent ity
çīĻ é½¿
Ġlarg ely
åºĶå½ĵ æĮīçħ§
ä½ĵç³» å»ºè®¾
è¿İ æĿ¥äºĨ
Ġreg ional
Ġform ation
éħ¸ æĢ§
åīĤ éĩı
ä½Ļ å®¶
åºķ èķ´
åºķ æĸĻ
Ġman ual
ge bra
æĿĳ åºĦ
Ġap art
çĽĬ çĶŁ
çļĦä¸Ģ å¤§
æĺ¯ä¸Ģ æ¬¾
éĻį å¹ħ
æĭī åĬ¨
çļ® çĲĥ
å¦Ĥæŀľ æľī
åįİ ä¸ľ
å®¢ æľį
Ġyou th
æ¯ı èĤ¡
æĪ· ç±į
é» Ķ
æŀĦ çŃĳ
åĻ¨ åĴĮ
ĠL ife
ä¸¤ ä¸ªäºº
ĠN on
ĠH aw
}{ (
Ġ{ :?}",
è½¦ éĺŁ
å¸¸ å¹´
rac y
Ġv ast
å¤ĸ åĮħ
å¤ĸ è¡¨
çĽ¸ éģĩ
å¹¶ èİ·å¾Ĺ
æ¯Ķ æķ°
æĢ§ åľ°
am ps
å¯¹ æĪĳä»¬
åĩº èº«
æ² Ľ
Ġh op
ä¿ ¯
ä¼ļ éĢłæĪĲ
st s
å¤§ åİħ
å¤§ åį«
Ġd ocker
Ġw ave
æĺ¯ ä¼ģä¸ļ
åį Ĵ
ä¸Ģ åħ±
ä¸Ģ æĹ¶
Ġc alc
å® µ
Ġt all
Ġt x
çļĦ éĶĢåĶ®
Ģ åŃĲ
} _{
s uch
s ome
r at
n ote
n orm
n ative
g ov
d x
c ert
O nce
3 80
2 80
Ġ æĪĸ
ä¼ĹæīĢåĳ¨ çŁ¥
å¾ģæ±ĤæĦıè§ģ ç¨¿
æĦ¤ æĢĴ
Ġdiag onal
æĹłç¼Ŀ éĴ¢ç®¡
à¾ ±
Ġsubst ant
Ġir r
________ ________
åĹ ľ
Ġcover s
../ ../
çļĦçĥŃ æĥħ
trans form
é¢ģ åıĳçļĦ
Ġhapp ened
err ors
Test Case
å¡« åŁĭ
åĶĲ ä»£
æĹĹ ä¸ĭçļĦ
ĠEx pl
Ġmet abol
ç©ºæ°Ķ è´¨éĩı
æ²ī é»ĺ
æĺİç¡® äºĨ
Ġmon ot
Ġposs ibility
... )
åħ³éĶ® è¯į
æķĳ æ²»
æİ¥åıĹ äºĨ
åĨ³å®ļ äºĨ
éŃ Ħ
path s
åºĶå½ĵ åľ¨
éĩįçĤ¹ é¡¹çĽ®
ç²¾ç¥ŀ åĴĮ
ç¬¬äºĮ æĿ¡
åĨĻ éģĵ
éĥ¨åĪĨ åľ°åĮº
åĥı ç´ł
ĠV ari
æĮī æĳ©
æł¸ å®ŀ
Ġhas h
Ġcont ents
éħį æĸ¹
å¿ħ ä¿®
é¢Ħ å¤ĩ
æŁ¥ æī¾
Ġen able
let ion
éĻĲ æľŁ
è¯¥ åī§
æºĲ èĩª
æł¼ å°Ķ
è·¯ çĶ±
ĠD etermine
æĹł åĬĽ
åĲį å½ķ
ä¿Ŀ å®Ī
æľĢ éĩįè¦ģçļĦæĺ¯
å°Ĩ è¾¾åĪ°
éķ¿ åŁİ
èĢĮ ä¸Ĭ
æ³ķ æ¡Ī
å¼Ģ åľº
ul y
åĬĽ å£«
ç¨ ł
å®¶ åįıä¼ļ
åĩº æ°´
æĭ ¦
ec ess
Ġn ations
ä¸Ĭ æĿ¥
âĢĿ )
åŃ ľ
ä¼ ½
âĢ §
Ġthe orem
çļĦ æĿĲæĸĻ
çļĦ å¯¹
Å Ľ
n ac
m igr
j ava
h igh
g g
d one
T arget
> >,
< &
" ãĢĤ
Ġderiv ative
ç³Ł ç³ķ
Ġded icated
åµĮ åħ¥
Ġadopt ed
Ġpoll ution
Ġpurch ase
åħ¬åħ±åį«çĶŁ äºĭä»¶
çĭ® åŃĲ
Ġcoordin ate
Ġfill ed
-------------------------------- --------------------------------
Ġachie ved
å¾Īå¥½ åľ°
Ġdescrib es
cy cl
Ġturn s
åıĳçĶµ æľº
Ġlab els
èĦī åĨ²
An other
èµŀ èªī
è¿¹ è±¡
ç¬¬åįģ åĽĽ
åĪĽä½ľ çļĦ
æ´¥ è´´
æĿ° åħĭ
Ġline ar
ĠRes ponse
æĹ¢ å¾Ģ
Ġtri al
36 5
çĶ° åĽŃ
åĢŁ æŃ¤
ç¬¬ä¸ī åŃ£åº¦
æĬĹ åİŁ
èīºæľ¯ çļĦ
ĠCh ange
æľīåħ³ äºĭé¡¹
çºª æ£Ģ
æ³¢ çī¹
æľºæŀĦ åĴĮ
çĭ¬ åħ·
éĿŀå¸¸ éĩįè¦ģçļĦ
åıĮ æīĭ
æĻ® æŁ¥
çģ« è½¦ç«Ļ
åĪĩ æį¢
èĲ½ åľ¨
ç§ĳæĬĢ éĥ¨
çĽĳ çĲĨ
æĺ¯ä¸Ģ äºĽ
}$ :
å¿ħ å°Ĩ
éĻ¤ éĿŀ
åĨľ å®¶
çĶŁæ´» åľ¨
å§ĭ äºİ
æ¨¡ ä»¿
é¦ĸ åĪĽ
æ²¡ èĥ½
ç¦ ¹
æĦŁ æħ¨
éĽĨ ç¬¬
è·¯ æ®µ
æµ· æ°´
Ġus age
ĠD el
éĴ ©
ä¸Ģä¸ª ä¸ª
ĠP H
èĲ ĥ
Ġcon ver
åĿ ł
åĮº åĴĮ
åīį èĢħ
èĢĮ æĪĲçļĦ
æĸ° äºº
æ± ķ
åĪĨ ä¹ĭä¸Ģ
éĺ ľ
Ġl ifest
Ġre pos
è¦ģ çĤ¹
è´ ŀ
ä¸į åŃķ
ro tt
Ġb alls
æľī å¾Īå¤§çļĦ
Ġf abric
æĺ¯ ä½ł
ä¸Ģ å¦Ĥ
è® ¶
åľ Ń
he ast
çļĦ å¤ĦçĲĨ
çļĦ åĲİ
p ic
o or
l ists
h u
c ers
Z E
G F
C alcul
Ġ ri
ikip edia
Ġcoff ee
Ġstrugg le
Ġrout ine
Ġwest ern
Ġhyd ro
PV C
Up date
ç²¤ æ¸¯æ¾³
æĬĽ åħī
Ġauthor ity
dat abase
FI LE
å¥¶ å¥¶
Ġamount s
æ¯« æĹłçĸĳ
åĬłå¿« æİ¨è¿Ľ
æ¯ıä¸ª äººçļĦ
Ġtyp ical
Ġless on
åĪĽä¸ļ èĢħ
éĢŁåº¦ å¿«
èµĦäº§ ç®¡çĲĨ
Ġfact s
Ġsu itable
Ġed itor
ä¸Ŀ ç»¸
Ġhelp ful
æł¸å¿ĥ ç«ŀäºīåĬĽ
æ¾ İ
Ġoff ered
è´µ æĹı
éĻĪ ä»£è°¢
è®¯ æģ¯
åıĤä¸İ äºĨ
ç´§ åĩĳ
åĲ¬ åĬĽ
æ½ į
æĪı æĽ²
ä»ĭ åħ¥
è´¢ çī©
Ġsc ores
åľŁ å·¥
Ġqu al
åŃ¦çĶŁ åľ¨
ĠV ictor
çĻ¾ è´§
çĻ¾ ç§ĳ
æĺ¯ä¸Ģ ä»¶
åĩł æ¬¡
éļ¾ å¾Ĺ
å¦Ĥæŀľ æĪĳä»¬
æŀģ éĻĲ
å·¥ç¨ĭ çļĦ
Ġen viron
ä¸ĵä¸ļ ä»İäºĭ
ip her
Ġ3 7
è°ĥ çĲĨ
åģļ å¤§
é¢Ĩ è·ĳ
ç¦ ¾
è£ Ļ
ĠF urther
çĿĢ éĩį
ç¥ Ģ
ç½ĳ çĤ¹
åı¯ä»¥ çĽ´æİ¥
çĲĥ æĺŁ
çī¹ çº³
çĤ¹ æ»´
æĥħ åķĨ
åĲį å¸Ī
çĸ ±
ç¾ ŀ
ct ic
ä»ĸ å°Ĩ
ĠT ur
è¿Ļ å°Ĩ
ä½ľ åĩºäºĨ
el ly
Ġd ensity
åĴĮ æ²»çĸĹ
äºº æł¼
çļĦ åİĭåĬĽ
çļĦ èģĮä¸ļ
çļĦ äºĨè§£
q a
n m
j ob
f ast
a ud
G O
A c
æ¯«æĹłçĸĳ éĹ®
Ġcris is
å·ħ å³°
å·¥ä¿¡ éĥ¨
riev ed
Ġopin ion
æĮ« æĬĺ
Ġinstruct ions
éĩĮç¨ĭ ç¢ĳ
Ġbehavi our
Ġaccur ate
Ġhyper bola
ĠAc ad
Ġenum erate
Ġmor ning
Ġaddress es
Ar ray
çºªå½ķ çīĩ
Ġperiod s
åħļåĳĺ å¹²éĥ¨
Ġcour ses
æļ´ éĽ¨
æİĮ å£°
iter al
Ġinst ances
æķ£ çĥŃ
ä¹Ŀ é¾Ļ
èįī æ¡Ī
sh ould
Ġpr ison
ov a
Ġ6 00
ific ial
Ġcol umns
ä¸´ æ²Ĥ
ãĤ ¨
Ġro ugh
éĿŀå¸¸ æľī
æīĢä»¥ è¯´
16 8
pro p
åĽłä¸º åľ¨
du le
Ġ' '
æĳ Ķ
æ¸© åĴĮ
ak istan
èĩ´ ä½¿
Ġtr av
Ġ0 7
cl oud
åģļ å¼º
åįĹ éĿŀ
ĠL ong
åĸ ĺ
ĊĠĠĠ Ċ
ä¸ĩ åįĥçĵ¦
åĲĦ æľī
ĠB ible
çĥ ĥ
ä¸ī äºº
Ġare n
çĿ ¹
Ġas ync
ç®¡ ç½ĳ
çĶµ èĥ½
éĿ¢ åĮħ
ä¹Ł è¶ĬæĿ¥è¶Ĭ
ĠS olution
è¿ĩ é«ĺ
åĬ¨ æľº
åĪĨ åī²
è¡Į è½¦
è¡Į æĥħ
åŃ¦ åīį
çĶŁ èĤĸ
Ġm oon
ä¸į åħ·å¤ĩ
ro us
æī Ķ
åľ¨ çĶŁæ´»ä¸Ń
æĺ¯ ä¸ĸçķĮä¸Ĭ
æĺ¯ çļĦ
ä¸Ģ çķª
Ġt ank
Ð ´
t rack
l ie
N B
M ACH
avas cript
æĺ¾å¾® éķľ
Ġdom estic
èĶĵ å»¶
ĠDiv ision
è§Ħç«ł åĪ¶åº¦
æºĥ çĸ¡
çĪµ å£«
Ġveget ables
Ġcred it
Mod ule
æ£Ģå¯Ł éĻ¢
del ta
Ġrecogn ized
æĮ¤ åĩº
Ġregular ly
éĽĨæĪĲ çĶµè·¯
âĸ ²
èĿ ´
Ġdat etime
ĠAp ache
Ġpath s
æĬ½ è±¡
è¯¸ å¦Ĥ
"] )
åĨ° éĽª
çĺ Ļ
çĺĻ çĹĴ
å¹ķ å¢Ļ
èģĺ è¯·
ä¼° ä»·
æľĭåıĭ åľĪ
éŁ³ä¹Ĳ åŃ¦éĻ¢
å½Ĵ å±ŀ
ser ialize
æĭ¿ çĿĢ
è¯ī æ±Ĥ
sh are
Ġfun c
èĩªçĦ¶ çļĦ
aw n
Ġcons ecutive
ãĥ ŀ
åŁİå¸Ĥ è§ĦåĪĴ
Ġdis order
åĪĽæĸ° åıĳå±ķ
çĪ± ä¸Ĭ
çĪ± äºº
å¥³ ç¥ŀ
åħī æ³½
éĢī è´Ń
ç¤¾ ç¾¤
çģ ¸
ĠW omen
èĩ³ æŃ¤
å¢ŀ æĶ¶
èį Ķ
èµĽ ç¨ĭ
Ġ+ \
ä»İ ä¸į
ĠM ax
æŁ ¬
ä¸ī å¤©
éĶ ¥
åħ¬åı¸ ä»¥
æľ¯ è¯Ń
ï¼Ľ âĢľ
éĢļ è½¦
se lect
èĢĮ çĶŁ
ĠA v
ul as
Ġg ather
un te
ç»ı çĶ±
çŃī æĬĢæľ¯
ot os
us hed
åī ĥ
åĪĨ è£Ĥ
åĪĨ çº§
åı¯ è§Ĩ
å¤§ ç±»
åĴĮ çĶŁäº§
Ġb rief
åľ¨ ä¸ĸçķĮ
Ġc ere
Ġs ud
å ¬
r ating
o is
f inal
+ âĢĿ
" #
èĿ´ èĿ¶
éĿŀçī©è´¨ æĸĩåĮĸéģĹäº§
å½Ĵå±ŀäºİä¸Ĭå¸Ĥåħ¬åı¸ èĤ¡ä¸ľçļĦåĩĢåĪ©æ¶¦
å¥¥æŀĹ åĮ¹
ĠEnvironment al
pay load
é¢ł è¦Ĩ
Ġinj ury
åĲŀ åĲĲ
åıī è½¦
æŁı æŀĹ
æĢ»éĥ¨ ä½įäºİ
call ed
)= \
Ġcur riculum
Ġconc rete
tain er
æ»¨ æµ·
ĠPh il
opt ional
ç¥Ŀ è´º
Ġkey word
é¼ĵ èĪŀ
æ²ī ç§¯
____ __
è¯¯ è§£
å´ İ
éļĶ éŁ³
ç¡®å®ļ çļĦ
æĳĦ æ°ı
Ġinf o
Ġpol ar
ä½ĵèĤ² åľº
åĨ³å®ļ çļĦ
Ġatt ributes
ç»§ç»Ń æķĻèĤ²
enc ode
Ġover l
å¥ĩ æĢª
ç«¯ çļĦ
å£° ç§°
In it
å®¡ è§Ĩ
çĽ®åīį ä¸ºæŃ¢
ç§ĳæĬĢ ä¼ģä¸ļ
éħį æľī
æŁ¥ éĺħ
å¼ķ èµĦ
å¤´ çĹĽ
æ¸ħ çĥŃ
é¦ĸ èĬĤ
ĠO s
éĿŀ åĩ¡
æ¯ı ä¸Ģæ¬¡
æİ¨ è¿Ł
èĲ¥ åķĨ
èī² æ³½
æīĭ åĨĮ
æ±Ĥ ç²¾
æ°Ķ åĬ¿
ĠD ise
ä¸ĩ å®¶
èµĽ åīį
çĲĥ çļĦ
å®ī éĺ²
ex tern
ĠP ubl
ãĢĭ ï¼ī
æľĢ ç¾İ
å¿ĥ ä¸ŃçļĦ
éĽ ¯
Ġst ated
åĬł çıŃ
å°± å¿ħé¡»
å°± è¶Ĭ
ĠC ancer
ä¹ĭ ä½Ļ
ä¹Ł æ¯Ķè¾ĥ
ad ow
ĠT oday
çŃī çĹĩçĬ¶
am il
åľ° å¸¦
å¯¹ ä½ł
Ġn aturally
èĥ½ ä¸º
è´ ¬
åĴĮ åºĶçĶ¨
åĴĮ æ°´
ä¸į åĪ©äºİ
ä¸į å®ī
ä¸Ń æĸŃ
Ġb ond
ä¸Ģ åı£
in ters
çļĦ æĿ¡ä»¶
Ñ ĩ
} /
v ision
b asic
U nder
N SE
F ilter
2 25
å·´é»İåľ£ æĹ¥èĢ³æĽ¼
ĠFin ally
Ġcateg ories
çªģåıĳ åħ¬åħ±åį«çĶŁäºĭä»¶
Ġsug ars
Ġfarm ers
################ ################
å¼¥ è¡¥
Ġincreasing ly
ĠMed ical
éĻĦè¿ĳ çļĦ
Ġconsum ers
OC K
process or
ç¾İæľ¯ é¦Ĩ
åı¯éĿł çļĦ
ä»ªåĻ¨ ä»ªè¡¨
ĠRe port
çľŁå®ŀ æĢ§
çľŁå®ŀ çļĦ
èĪªç©º èĪªå¤©
æľ¬ç§ĳ ä¸ĵä¸ļ
Ġtreat ments
éľĩ æĴ¼
æĥĬ è®¶
AS E
Ġsecond ary
åıĳæĮ¥ äºĨ
Ġsign als
Ġfl ag
å¹¿æ³Ľ åºĶçĶ¨
åĵĪ åħ°å¾·
plic ated
sc ope
å®ŀæĸ½ æĸ¹æ¡Ī
Ġdes pite
ç²¾ç¥ŀ çļĦ
æ¶² æĻ¶
par allel
erm an
ä¸įæĸŃ å®ĮåĸĦ
åĪĿ å®¡
ãĥ ķ
Ġso ap
éŁ³ åĵį
å°±æĺ¯ åľ¨
äºĶ ä¸Ģ
èĩ´ çĻĮ
èĩ´ å¯Į
let ed
per form
æĪĺ å½¹
çłĶç©¶ æĬ¥åĳĬ
all oc
åģļ ä¸º
åģļ äºº
ĠG overnment
æĦŁ åı¹
de qu
Ġhe ard
é¢ĺ çĽ®
æĹł æ¯Ĵ
åı¯ä»¥ ä»İ
ĠM r
æĪĳä»¬ åºĶè¯¥
ex port
ect angle
æķ° çļĦ
ç§ĳ å®¤
ç§į æĹı
qu eryset
æīĢ è¯´
ĠS ign
åħ¨ è¿ĩç¨ĭ
è¿ĩ å¤§
äº§ æķĻ
ä½ľ çļĦ
et ry
æł Ī
åĴĮ åĽ½éĻħ
äºº éĢī
ing ly
en ess
} -\
t wo
r floor
r u
l floor
g ers
f c
E l
E F
Ġ ç¬¬
æĻ®æ´± èĮ¶
åı¯è¡Į æĢ§
éĺ¿éĩĮ å·´å·´
ĠSpec ial
Ġmedic ations
........ ........
æ·ĺæ±° èµĽ
Ġaccept ed
Ġprinc iples
æļĳ æľŁ
æįķ æįī
é¥± æ»¡
ç¾½ æ¯Ľ
çĵ¶ é¢Ī
ç¢İ çīĩ
æĬ± æĢ¨
æıĴ åħ¥
ĠComm and
Ġrepresent ation
Ġmus ical
åĭ¤ å¥ĭ
æĿĨ èıĮ
çĹħæ¯Ĵ æĦŁæŁĵ
æ© ĺ
æľīæīĢ å¸®åĬ©
æ¦ľ æł·
Ġsom ew
met rics
æ²ī æµ¸
Ġext ent
Ġdisc over
AC HE
Ġread er
åħ³éĶ® æĬĢæľ¯
èľ Ĺ
Ġdet ection
åĮ»çĸĹ åį«çĶŁ
æ´Ĺ æīĭ
ser de
pon ents
æ³¨æĦı åĬĽ
Ġprodu cing
èĢĮä¸Ķ è¿ĺ
çŁŃ ç¼º
Ġag es
æį¢ çĥŃåĻ¨
çıŃ ä¸»ä»»
ç¦ı çī¹
é»Ħ çīĮ
æĮī éĴ®
è´Ł è½½
åı¯èĥ½ å¯¼èĩ´
æŀģ èĩ´
åİĨ ä»£
åįĩ èĩ³
åįİ åĮĹ
å¾· çļĦ
æķ´ é½Ĳ
èĢģ åħ¬
å¸Ĥåľº ç«ŀäºī
æ·± æĢĿ
çĽ´ çº¿
cl i
åįĹ éĢļ
åıĺ åİĭåĻ¨
åİ» çľĭ
ĠL ike
æľįåĬ¡ æľºæŀĦ
åİŁ å®¡
æĢ» çļĦ
çľĭ è¿ĩ
æµģ è¡ĮçļĦ
ĠH it
èģĶ éĢļ
é£İ æĥħ
æŀľ å®ŀ
æĹł æĦı
å¼ı å»ºçŃĳ
åıĳå±ķ æĶ¹éĿ©
åıĳå±ķ åĪ°
å·¥ä½ľ ä¼ļè®®
ap h
ç§ĳ å¤§åŃ¦
æ¯Ķ å°Ķ
æľĢ å°ı
ate ver
æīĢ æľª
å»º æľī
ä¹ĭ åĬĽ
å¼Ģ åĬŀ
ä¹Ł éĿŀå¸¸
åĬĽ æ±Ĥ
æľº è½¦
æĹ¥ åĩĮæĻ¨
ä¸İ ç¤¾ä¼ļ
èĤ ĩ
ĠT er
å¯¹ ä»ĸ
im ination
Ġre cept
ä¸Ĭ éĹ¨
Ġd type
ä¸į éļ¾
Ġin ject
åľ¨ å·¥ä½ľ
Ġc rop
ãĢĤ âĢĻ
Ġt ropical
çļĦ è¡Įä¸ļ
çļĦ ä»ĸ
w ait
s is
p H
m k
k io
f all
U I
P G
F iles
C ell
Ġconsc ious
Ġhypothes is
Ġantibiot ics
åĩ¸ æĺ¾
hold ers
åĲīæŀĹ çľģ
æĵħ èĩª
Ġdraw ing
ĠAdd ed
Ġnecess arily
Col umn
å»ī æ´ģ
ç»ĺ åĪ¶
âĢ¦âĢ¦ âĢĿ
Ġelect ed
Ġprogram ming
æģĴ æĺŁ
ç¬¬åĽĽ èĬĤ
ĠCl ick
Ġcirc uit
éķ¿æľŁ ä»¥æĿ¥
è®°èĢħ ä»İ
Ġref er
æ¾ Ī
èĦ± é¢ĸ
æ°¸ æģĴ
æķ£ åıĳ
æľīæķĪ æľŁ
è¿ĺæľī å¾Īå¤ļ
å®Ŀ çŁ³
ç§¯æŀģ æĢ§
å¸® å¿Ļ
åħŃ ä¸ª
çªģ åıĺ
åį´ ä¸į
è®² å¸Ī
Ġev il
åħħ å®ŀ
çº¢ æĹĹ
å·²ç»ı æĺ¯
çļĦä¸Ģ éĿ¢
æĬķèµĦ çļĦ
éŁ³ ç®±
çŁ³ èĭ±
åĽłä¸º ä»ĸ
ä¹ł ä¿Ĺ
str onom
å±Ģ å±Ģéķ¿
åĽĽ åĳ¨
æ·± åĬłå·¥
æĶ¯ éħį
12 6
èĢĥ éĩı
de rer
çľĭ å¾Ĺ
ĠE c
æĬ¥ éħ¬
ĠB razil
Ġr h
ä½Ĩ ä»İ
ç¾İ åĳ³
Ġwe ap
ä¸ĵ çº¿
ap ache
ç®¡ å§Ķä¼ļ
éĩį çĹĩ
ĠS al
é«ĺ åĩº
Ġl ayout
Ġl ists
im it
ä¸Ĭ æ¼Ķ
âĢĿ ï¼ļ
å¹´ æĬ¥
Ġm ere
æľī çļĦäºº
åľ¨ åŃ¦æł¡
å° ¹
ä¸Ģ ç»ı
or ate
Ġs alt
re y
çļĦ éŁ³ä¹Ĳ
çļĦ è½¦
ï¼ ĸ
s ync
k es
b log
U RE
G R
B ar
å¸· å¹ķ
ç»½ æĶ¾
ç©ºåİĭ æľº
Ġsurg ery
èģļä¸Ļçĥ¯ éħ°èĥº
Ġforest s
Ġleaders hip
cp u
Ġsold iers
åįģåħ« æĿ¡
ĠĠĠĠĠĠĠĠĠĠĠĠĠĠĠĠĠĠĠĠĠĠĠĠĠĠĠĠĠĠĠĠ ĠĠĠĠĠĠĠĠĠĠĠĠĠĠĠĠĠĠĠĠĠĠĠĠĠĠĠĠĠĠĠĠ
Ġport ion
Ġhapp y
æľ¬èº« çļĦ
ĠEn ter
åıĺå¾Ĺ æĽ´åĬł
EN D
æīİ æł¹
æĪĲéĥ½ å¸Ĥ
ĠÐ ²
Ġgood s
ä¸¥æł¼ æī§è¡Į
èĩªçĶ± éĢīæĭ©
user name
Ġident ical
åĪĬ çĻ»
å¼ĢæĶ¾ å¼ı
ĠAn n
bin ary
æĢĿæĥ³ æĶ¿æ²»
éª¨ è´¨
ç¢³ åĮĸ
å¹¿æ³Ľ çĶ¨äºİ
è¯Ĭ æīĢ
åĲĮæ¯Ķ å¿«éĢŁå¢ŀéķ¿
Ġtrans lation
Ġtrans ition
åĲ¯ ç¤º
vent ional
å®ģ éĿĻ
Ġinter actions
äºĨä¸Ģ æī¹
Ġsub t
ä¸ĩåħĥ ä»¥ä¸Ĭ
çŁ¥è¯Ĩ çļĦ
èģĮä¸ļ éĻ¢æł¡
ä»į æĺ¯
åĲ¦ è®¤
å²ģ æĹ¶
Ġequ ality
ç¼ĸ è¯ĳ
æī¹ éĩı
åħ´ å»º
äººæ°ĳ ä»£è¡¨å¤§ä¼ļ
æ²³ éģĵ
å¤ª å¤ļçļĦ
åĽłä¸º ä»ĸä»¬
ok ed
Ġall erg
Ġsp here
é¥ ¥
å±Ģ çļĦ
æ¸¸ è§Ī
åı£ å²¸
19 82
åıª åī©
æİ¨ çī¹
ub le
ĊĠĠĠĠĠĠĠĠĠĠĠĠĠĠĠĠ ĠĠ
oc ity
ĠM al
ä¸ī çĻ¾
åħ¥ ä½ı
æķ° åĢ¼
ãĢĭ ï¼ļ
æķĻ èģĮå·¥
èĬ ¸
Ġst ick
ĠC he
æľĪ é¥¼
ul s
å®ŀ ä¸ļ
ä»¬ åľ¨
çŃī ä¿¡æģ¯
çŃī ä¸ĵä¸ļ
æĿ¥ åĪ°äºĨ
å¯¹ èĩªå·±çļĦ
åĩº éĹ¨
Ġl icense
æĹ¶ è¦ģ
ä¸Ĭ åŃ¦
ä¸Ĭ æĺ¯
åİ ¢
ä¸į å®ļ
ro le
Ġb ow
Ġp urs
Ġc ub
ä» Ĩ
çļĦ åĲįåŃĹ
p al
m achine
h ook
f ound
c op
b ered
] ))
H C
Ġconsequ ences
TY PE
é¡½ åĽº
writ er
mem ory
ĠAN Y
éŁ§ æĢ§
Ġtalk ing
Ġentire ly
çĬ¹ è±«
Ġcur ve
è¡° éĢĢ
åĴĮç¤¾ä¼ļ ä¿Ŀéļľ
ç±»ä¼¼ äºİ
ä¸ºä»Ģä¹Ī è¦ģ
çŀ Ĵ
éĺ» åĬĽ
æĻ®éĢļ çļĦ
ĊĠĠĠĠĠĠĠĠĠĠĠĠĠĠĠĠĠĠĠĠĠĠĠĠĠĠĠĠĠĠĠĠ ĠĠĠĠĠĠĠ
Ġmod ified
äº¦ åı¯
å³° ä¼ļ
Ġfl our
Ġtrans formation
line ar
Ġrec ycl
èįī åľ°
æ±ī æĹı
æ°´å¹³ åĴĮ
ä¸ºäºĨ è®©
çªģ åĩºçļĦ
æ¹ĸ æ³Ĭ
åĲ¸ å°ĺ
æ¬¢ åĸľ
åĨħå®¹ åĮħæĭ¬
å¼Ģåıĳ åķĨ
çĭ¬ èĩª
æĭ© ä¼ĺ
ĠK ansas
éĤ ĳ
ç¬¬ä¸Ģ æ¬¾
ç§ĳæĬĢ åĽŃ
åĩł ä½ķ
åĨľ ä½ľçī©
çĶŁæ´» ä¹łæĥ¯
__ .__
è¯ķ è¡Į
ä½¿çĶ¨ æĿĥ
æ¯ı å¹´çļĦ
19 87
Ġch ord
ä¸¤ é¡¹
è·¯ éĿ¢
ĠW IT
ĠR h
ç¥ ģ
æį® æĬ¥
æĹł æīĢ
Ġwe igh
å¸¸ å§Ķä¼ļ
ä¸ŃåĽ½ å¤§éĻĨ
ä¸ŃåĽ½ çī¹èī²
å°ı åº·
ap ps
éĩı å¤§
åºĶ åıĬæĹ¶
Ġst ages
Ġst ake
ä¸» æĿ¿
æľ¬ ä¼ļ
åĵģ åĳ³
us es
æĪĳ æīĢ
Ġre venue
åĳ ķ
çĶ¨ æīĭ
ä»¥ æ»¡è¶³
ä¸Ń æĹ¥
Ġb order
Ġf irm
æĹ ·
Ġs aved
çļĦ èº«ä»½
çļĦ çĶ¨æĪ·
r ule
m o
l anguage
f d
b ounds
J ava
D æīĵåį°
D ep
C V
migr ations
æļĸæ°Ķ çīĩ
alax y
é©¬æĭī æĿ¾
çĥ¹ é¥
çĥ¹é¥ ª
æ¶¦æ»ĳ æ²¹
Ġchemical s
vari ant
ä»² è£ģ
çĪ· çĪ·
å¸½ åŃĲ
ĠGe orge
Ġparticip ate
åŁİéķĩ åĮĸ
ç¡« éħ¸
Ġflow ers
np m
æİĺ éĩĳ
Ġhard ware
é¢ģ å¸ĥ
å±ķè§Ī ä¼ļ
ç¦»åŃĲ çĶµæ±ł
è¿« åĪĩ
è®¾ç«ĭ çļĦ
man agement
ĠAr g
AS K
ä¸įåı¯ éģ¿åħį
è¶£ åĳ³
add ing
èĽ ®
è§Ħæ¨¡ åĮĸ
ä»ĺ è´¹
sh ift
åĲ¬ è¯´
Ġno qa
ä¿ĥ éĶĢ
Ġequ ally
åıĳçĶŁ åıĺåĮĸ
èī¯ æĢ§
æłĩåĩĨ åĴĮ
Ġout do
çİĭ æľĿ
éĵ¶ ä¿Ŀ
Ġdis orders
æĻ¯ è±¡
æ²¹ æ¼Ĩ
éļ¾ å¿ĺ
äºļ åĨł
çº¦ æľī
ç©º çĻ½
æ¢ µ
å¸Ĥåľº èĲ¥éĶĢ
åı° éĺ¶
æĢ» å»ºçŃĳéĿ¢ç§¯
ç«ĭ æ¡Ī
ä¸ĩ éĩĮ
ç¼ Ģ
æº ī
é£İ äºĳ
åıĳå±ķ æĪĲä¸º
ĠP acific
æĥħ äºº
å¹¶ æĹł
Ġy uan
éķ¿ å¾ģ
éĢļ åį¡
å®ļ çĤ¹
ĠS af
ĠS il
çŃī åĢĻ
om m
çĶ¨ å·¥
âĢĿ ,
æķ ·
Ġm m
ic ip
ä¸į åĸľæ¬¢
åľ¨ éĤ£éĩĮ
at al
re act
Ġt ables
çļĦ ä»»åĬ¡
y our
c v
L S
L D
A rt
A F
èģĮä¸ļæĬĢæľ¯ åŃ¦éĻ¢
cond itions
Ġimmedi ate
9999 9999
å¹¿æĴŃ çĶµè§Ĩ
Ġclos ely
æĺ¯ä¸Ģå®¶ éĽĨ
åĽºå®ļ èµĦäº§
Ġbusiness es
ä¸»åĬŀ æĸ¹
æłı çĽ®
èĸĦ å¼±
Ã¡ s
ĠPl us
Ġeas tern
é»ĺ è®¤
Ġexpl ains
ĠInd ians
Ġgrow n
ä¿ĿéĻ© åħ¬åı¸
ffic ients
AB LE
met ric
olv es
åľĨ æŁ±
èļ Ĥ
Ġcor rel
åĪĨåĪ« å¢ŀéķ¿
Ġsm art
éĻĪ è¿°
Ġbu f
åĵª ç§į
Ġunder lying
ç»ĵæŀĦ è°ĥæķ´
åħŃ å¹´
äºĨè§£ äºĨ
ob e
å¯Ĩ çļĦ
ç¨İ çļĦ
ĠV iew
æł¸ çĶµç«Ļ
çļĦä¸Ģ ä»½
15 5
ç½® äºİ
pro file
çĽ¸åħ³ è§Ħå®ļ
Ġper man
å¦Ĥæŀľ è¯´
Ġ4 4
æ²¡æľī ä»Ģä¹Ī
å±Ģ åĬ¿
11 4
ext end
è¾ĥ å¿«
åģļ åĪ°äºĨ
çİ¯ çĲĥ
ĠE mp
ĠE st
ĠF ree
äº¤ è°Ī
ç»ĵ æł¸
å¤Ħ å¥³
éĩĮ éĿ¢çļĦ
Ġ{ \
æ· Ħ
ç½ĳ åĿĢ
åĲį è¯į
å¹¶ åĲĳ
æķ° åįĥ
èĬ Ļ
ç³ Ļ
çł Į
çŁ ®
ï¼ī ï¼Ī
ä»ĸ åĴĮ
ig ate
åľ° åĪ©
Ġre in
Ġn orthern
ä¸Ĭ åįĬ
ä¼ļ åĦ¿
ac ent
ä»¥ å¤ª
as p
å¤§ äºĭ
ä¸į åºĶè¯¥
ä¸į ç»Ŀ
ä¸į æĺİ
ä¸Ń è·¯
ed it
Ġf ly
Ġf re
ä¸Ģ å®¡
åĲ µ
Ġa dequ
Ġt aught
é ĸ
f ix
S peed
L en
. ")
' {
çİ« çĳ°
æľĪä¸Ń æĹ¬
Ġpric es
âĸł âĸł
æŃ§ è§Ĩ
Ġadminist ration
Ident ify
Ġvers ions
å¼Ģå¹ķ å¼ı
Ġconstruct ed
rypt ed
æ·ĭ å·´
Âł Âł
çĨĬ çĮ«
æĮ¤ åİĭ
å¤ĸåĽ½ è¯Ń
æĹº çĽĽ
èī° è¾Ľ
}= \
Ġappe ared
éĺŁä¼į å»ºè®¾
opt ion
ä¸Ģå®ļè¦ģ æ³¨æĦı
æİī äºĨ
Ġ$( -
Ġest imate
urs ive
ç§ĳçłĶ éĻ¢æīĢ
ä¸įåı¯ å¾Ĺ
ä¿Ŀè¯ģ äºĨ
æ±¡æŁĵ éĺ²æ²»
åºĨ åħ¸
Ġph ilosoph
è®¢ è´Ń
åŁºéĩĳ ç»ıçĲĨ
æ°§ æ°Ķ
çī¹åĪ« çļĦ
ĊĠĠĠĠĠĠĠĠĠĠĠĠĠĠĠĠĠĠĠĠĠĠĠĠ ĠĠ
åĨ· æ°´
Ġ6 5
åī¯ å±Ģéķ¿
å®ĮæĪĲ åĲİ
åį¡ æĭī
ç®Ģ è¦ģ
åŁİå¸Ĥ å»ºè®¾
ç§ĳåŃ¦ åıĳå±ķ
ĠV M
æĸĩåĮĸ èīºæľ¯
çĭ Ĳ
åĳĬ åĪ«
å®¢ å®¶
åĽĽ èĤ¢
Ġ3 8
åİŁ åĳĬ
åıĹ ä¼Ĺ
ä¼ł éĢģ
éª ı
äº¤ ç»Ļ
çĿĢ æīĭ
ĠM il
çī¹ æľīçļĦ
æŁ ¿
å½ĵ éĢī
çĽ¸ å¯¹äºİ
ap plication
åŃĲ åĴĮ
ag ues
æıĲ æĹ©
um er
éģ ´
å¼Ģ è¾Ł
å®ŀ åĬ¡
è¿Ľ åĮĸ
ä¸İ æĪĳä»¬
æ¯ ¯
Ġn ine
st one
ä¸º åŃ¦çĶŁ
or al
Ġs port
Ġthe rm
re le
çļĦ å®¶åºŃ
çļĦ æ³ķå¾ĭ
çļĦ ä»£è¡¨
ï¼ Ĺ
ë ĵ
} \]
n el
b us
_ .
\ }$,
P ack
L ayout
< ()
3 45
Ġ åĽ½å®¶
åĲĦè¡ĮåĲĦ ä¸ļ
Ġdiag ram
Ġmount ain
åĤ¬åĮĸ åīĤ
åįłæľī çİĩ
ĠChar les
Ġjoin ed
LI CE
aa S
HO ST
AG E
å¤ļæł· åĮĸ
éĶĻè¯¯ çļĦ
Ġcover age
Bu ild
åģ¶ å°Ķ
Ġpres ident
ç²® æ²¹
CO DE
ç§Ł åĢŁ
à½ ¼
ä¼¦ çĲĨ
'] ['
Ġpol ice
Ġdet ail
Ġph r
æŃĮ åĶ±
sc an
çľ¼ ç§ĳ
è½» åŀĭ
Ġ19 60
ãĥ Ń
own er
å¾Ģ æĿ¥
è¨Ģ è¯Ń
åĩı å°ı
æł¸ ç®Ĺ
ä¾ĭ å¤ĸ
çļĦäºº åı£
åŃĹ åı·
è¡Įä¸ļ çļĦåıĳå±ķ
è¡Įä¸ļ åĨħ
ire ments
æİĴ æ°Ķ
åĳ¨ åħŃ
å£« åħµ
å£« é¡¿
ç«Ļ çļĦ
ä¿¡æģ¯ ç³»ç»Ł
Ġen abled
é¥ º
å¾· çĶ²
12 4
19 80
è®© åŃ©åŃĲ
åı° ä¸Ĭ
ĠG lobal
é¢Ĩ è¡Ķ
åıĺ éĩı
ĠL eg
Ġde bug
ä½ł å°±
ĠM ill
ĠP R
å°ı æĹ¶åĢĻ
éĥ½ çŁ¥éģĵ
æıĲ çĲ´
å¢ ©
Ġst reet
ä¸ĭ ä¸Ģä»£
ĠS ep
åĬ¨ èĥ½
å¯¹ æľ¬
åĩº åİĤ
åĪ° çİ°åľ¨
æ² ģ
il ing
æĹ¶ åºĶ
ä¸į éĢĤåĲĪ
äºº éĻħ
æľī ä¸ĭåĪĹ
åľ¨ ä»ĸçļĦ
åľ¨ åĽ½å®¶
æĺ¯ çĶ±äºİ
æĺ¯ ä»ĸ
Ġc md
er as
on a
æľ Ķ
Ġt aste
çļĦ ç»ıéªĮ
h olds
W rap
P OS
L ib
3 20
èĦ±é¢ĸ èĢĮåĩº
æĬĸ éŁ³
Ġmagnet ic
Ġcam era
Ġreve aled
Ġmedic ine
Ġdiagn osis
ä¸įä¸Ģæł· çļĦ
ha ust
Ġinitial izes
çĬ¯ç½ª çļĦ
Par ameters
éŀ į
Ġbelie f
Ġbro ken
çĭ¬ç«ĭ çļĦ
æ¯« åħĭ
æľĢé«ĺ äººæ°ĳæ³ķéĻ¢
åħ¼ èģĮ
çº¯ ç²¹
æľīä¸Ģ çĤ¹
èģĶç³» æĸ¹å¼ı
Ġpat ron
ç¡¬ è´¨
åªĴä½ĵ æĬ¥éģĵ
åĮºåŁŁ çļĦ
æķĳ æĬ¤
ç¢³ ä¸ŃåĴĮ
çİ© æ³ķ
çĽ®æłĩ æĺ¯
St e
Ġag ency
æĶ¯æĮģ åĴĮ
Ġob serve
èĭı èģĶ
æİ§åĪ¶ åľ¨
æĶ¿çŃĸ åĴĮ
è¿Ļç§į çĸ¾çĹħ
Ġpe er
è¿Ļæł· åģļ
Ġcomm ands
è¡Ģ æ¸ħ
14 5
å¾® æ³¢
éĺ³ æŀģ
éĵ¶ æ²³
æĺŁ ç³»
è´¨éĩı ç®¡çĲĨ
å¼ł å®¶
å¤ª åŃĲ
Ġap ps
åĦ¿ å¥³
åıĪ è¦ģ
åıĪ èĥ½
æ¨¡ æĿ¿
æľª çŁ¥
Ġk ing
æ·± èĢķ
Ġun e
19 0
ä¹¦ åºĹ
è®© å¥¹
äº¤ åĵį
è¿Ĳ ç®Ĺ
æĹł å®³
ĠM ont
çĤ¹ è¯Ħ
em bed
åħ¥ ä¾µ
å¥½ å¥ĩ
å°Ĩ æĮģç»Ń
æį ı
åľº éĿ¢
èĢĮ è¢«
ce ived
ĠC ur
æľ¬ èĬĤ
ĠS y
ĠT O
ut ch
è¿Ļ åľºæ¯ĶèµĽ
Ġn erv
ar ia
Ġf oss
åľ¨ æ¬§æ´²
ä¸Ģ æīĢ
es is
çļ ±
z ip
t ick
U V
P lease
N H
F acebook
E B
A v
) ):
& #
Ġ æĸ°
éģ´ éĢī
çĽĬçĶŁ èıĮ
abul ary
çľģéĥ¨ çº§
åıĺéĢŁ ç®±
READ ME
ä¸ĢæĹł äºĮ
ç²¾çĽĬ æ±Ĥç²¾
ollow ing
hist ory
ĠPort al
æĭĽåķĨ å¼ķèµĦ
Ġpref er
Ġcollect ions
æĸ°åħ´ äº§ä¸ļ
ãĥ³ ãĥĪ
åıł åĬł
Ġsens itive
Ġparam s
æĤ² ä¼¤
æĭĨ è¿ģ
check ed
book s
çģ° å°ĺ
cript or
å¤ļå°ĳ éĴ±
ä¹¡æĿĳ æĹħæ¸¸
Ġdel iver
ä¹³ åĮĸ
IP O
åĳĬè¯ī ä½ł
Test s
Ġorgan ized
çļĦè¯Ŀ é¢ĺ
çĽĳçĿ£ æ£ĢæŁ¥
Ġpass age
èģĶèµĽ çļĦ
æĸĹ äºī
Ġmed ian
æĪĲæľ¬ ä½İ
Ã© es
é¢Ĩå¯¼ èĢħ
éģĹ è¿¹
Ġval uable
çĮ® è¡Ģ
é£ŀ èĪ¹
è¿ĺæĺ¯ è¦ģ
åįĥ éĩĮ
åıĳçİ° çļĦ
ç¿ ©
]( ./
åıĮ åĲĳ
èµ° è¿ĩ
ç½Ĺ çº³
çļĦä¸Ģ èĩ´
æ²»çĸĹ æķĪæŀľ
çª Ł
éļ¾ éģĵ
åĨľ çĶ°
Ġj ump
é¢Ħ åĶ®
äºļ æ³°
æµĭ è¯Ħ
è®º è¯ģ
è¶ħ æłĩ
æĶ¾ ç¼ĵ
åĽŀ é¦Ī
åħī èį£
ĠN av
çĹħ çĹĩ
è¥¿ èĴĻ
è¢ į
pl an
å¹³ åİŁ
ĠM ass
ĠP akistan
å°ı å°ıçļĦ
çĹ °
Ġy ields
se ed
ĠC ost
æľĪ èµ·
å¼Ģ æ°´
èĩª æľī
æĸ° é¢ĸ
ig m
çŃī åĬŁèĥ½
æĿ¥ çĶµ
im inal
è¡Į åĪĹ
æĹ¶ å¸¸
st orage
ä¸º ç¤¾ä¼ļ
ä¸į åłª
ä¸į åİ»
ä¸Ń åįĪ
Ġb rown
Ġb lo
æľī ä¸¤ä¸ª
æĺ¯ åħ¨åĽ½
Ġc ents
Ġt ail
çļĦ èī¯å¥½
çļĦ æĦıä¹ī
çļĦ ä¸ļåĬ¡
x ford
v ard
t orch
s yn
l atest
M ut
L icense
E O
7 50
$ :**
Ġ Ñģ
äº§æķĻ èŀįåĲĪ
ĠHen ry
constr aint
åĢĻéĢī äºº
ìĦ ľ
Ġscen ario
Ġult imately
ĠLab or
ĠMus lim
å¸¸æĢģ åĮĸ
Ġaware ness
Ġaccom pl
ç° ¿
Ġcompet ition
Ġcook ies
Ġhistor ic
å¯ĵ æĦı
Ġexam ine
HT TP
Ġcontain ers
åħ¨ä½ĵ åĳĺå·¥
edu ce
Ġaffect s
pack age
ane ously
çĮª èĤī
éĿ¢ä¸´ çļĦ
ĠAp ps
çŁ¥åĲį çļĦ
Ġes c
å¹³åĿĩ åĢ¼
mat ches
Ġsl ice
Ġcommun ic
çİī çŁ³
ä¹ĺ çĶ¨è½¦
å®« é¢Ī
ç½ļ çĲĥ
Ġhealth care
à½ Ħ
æŃ£å¼ı æĪĲç«ĭ
Ġz one
æ¦Ĥ æĭ¬
ev en
anc el
Ġstate ments
é¡¶ çĤ¹
è°Ī åıĬ
Ġ9 5
è¿½ åĬł
æ¯Ĵ ç´ł
è¡ĮæĶ¿ åĮº
âĢĶâĢĶ âĢľ
çŁŃ æĹ¶éĹ´åĨħ
éĢģ è¾¾
== >
çĭ¬ ä¸ĢæĹłäºĮ
ãĥ «
Ġout er
Ġman ip
def ined
16 9
æĶ¿åºľ éĥ¨éĹ¨
ĠIn s
Ġ4 9
çľŁ çļĦæĺ¯
è¯· èģĶç³»
è¶ħ åĩº
å®¢ æĪ¿
çłĶç©¶ è¡¨æĺİ
åħī çº¤
19 2
Ġ3 60
å®Į äºĨ
æł¼ éĩĮ
çĹħ çĲĨ
Ġ2 50
åĲĦ å¼ı
ĠB ro
èµ· åĪ°äºĨ
åı¯ä»¥ çľĭåĩº
ĊĠĠĠĠĠĠĠĠĠĠĠĠ Ġ
å¹³ ç±³
ĠM ag
æĪĳä»¬ è¿ĺ
ä¸ī åĽ½
å¤© æīį
å¤ĸ åķĨ
ap shot
èĬ ĭ
æľĢ å°ĳ
æ¶ §
èĢĮ è¿ĻäºĽ
åĬł å°Ķ
éĥ¨ åĴĮ
ä¸» è§Ĥ
ä¹ĭ æĪĺ
ĠA ction
å¼Ģ éĹ¨
ad der
ä½ĵ å¤ĸ
ä¾ Ī
æ¸ ¤
ä¸İ åĲĪä½ľ
å¤ļ æł·çļĦ
å¯¹ çİ¯å¢ĥ
åĩº çº¿
åĩº éģĵ
Ġre ward
Ġre ject
Ġre pro
åıĳ æĸĩ
å¤§ éĿ¢ç§¯
èµ £
Ġd ot
Ġm igration
åĴĮ æĸĩåĮĸ
ä¸º åħ¬åı¸
Ġb ones
Ġf fi
Ġp ipeline
åľ¨ æĪĳä»¬çļĦ
æĺ¯ ç¾İåĽ½
al ar
it o
en abled
at i
å® Ľ
re pr
å¤ ¯
åı ®
çļĦ èĢĥçĶŁ
çļĦ è¶ĭåĬ¿
çļĦ æľīæķĪ
çļĦ è®¾å¤ĩ
çļĦ ç¥ŀ
ì ł
w s
v l
i pl
b urg
T wo
P RO
L M
C re
. âĢĻ
Ġ ``
Ġunderst ood
èĥļ èĥİ
Ġtox ic
çģ¿ çĥĤ
Hand ler
Ġcoe fficients
å®ł çī©
çĶĺèĤĥ çľģ
zer os
Ġprior ity
Ġep is
æľīå®³ çī©è´¨
Ġapply ing
SC I
çģĮ æºī
Ġâ ī
Ġfac ilit
Ġfil ename
Ġindust ries
Ġver ify
ç¾Ĭ èĤī
ploy ment
åĳĬè¯ī è®°èĢħ
serv ices
åĭĴ ç´¢
Ġless ons
Ġcommun icate
æº¶ æĢ§
Ġext ensive
Ġer a
æ»ĳ éĽª
ç¤¼ ä»ª
Ġknow ing
èĦ± èĲ½
éĽ¨ æŀĹ
Ġatt ached
set up
è¿Ľä¸ĢæŃ¥ æıĲé«ĺ
Ġrec overy
ä¸Ģèµ· æĿ¥çľĭçľĭ
æ¸¸æĪı ä¸Ń
Ġfe ver
Ġam b
ĠY et
æ¯Ķè¾ĥ å¥½
åĨ· åºĵ
Ġwork er
å®¢æĪ· éľĢæ±Ĥ
åĨĻ åĩº
é¢Ŀ åº¦
Ġsc re
çº¢ æľ¨
Ġall oc
åĢ¼ çıŃ
è®® åĳĺ
çĶŁäº§ åĬĽ
æīĵ å·¥
æīĵ äºĨ
å¸Ĥåľº ä»½é¢Ŀ
Ġ3 9
åıĸ åĲĳ
å¸Ī åĤħ
åıĺ å¼Ĥ
åĮ» åĬ¡
ĠN ag
ĠN or
ä»» åĳ½
å¼º èµĽ
ĠB ay
å¾Ī ç®Ģåįķ
æ´» å¡ŀ
çī¹ è´¨
å½ĵ åľº
Ġpro position
ç®¡ è¾ĸ
å°Ĩ çĲĥ
å°Ĩ è¦ģ
åº¦ é«ĺ
ir s
ä¸ĭ è¾¾
ĠS olving
ĠS u
ä¸İ æĹ¶
åĩº åľŁ
Ġl ambda
è¿Ļ æĺ¯ä¸Ģç§į
ä½ľ åĩºçļĦ
om y
å·¥ æľŁ
è¦ģ å¤ļ
çŃ Ŀ
æĬ Ħ
åĴĮ å°ı
ä¸į åı¯ä»¥
ä¸Ń ä¹ĭ
Ġb udget
Ġb an
åľ¨ éĤ£
es ity
Ġa th
çļĦ èĩªçĦ¶
v a
t witter
i ene
e ffect
c hers
c ss
b ench
Q Q
M eta
M ethod
2 10
% (
Ġ ðŁ
Ġ ä¸ŃåĽ½
Ġ çŃī
èļĤ èļģ
ĠCommit tee
æł¡ä¼ģ åĲĪä½ľ
èĩ³åħ³ éĩįè¦ģ
å°ıå¾® ä¼ģä¸ļ
æ°´åľŁ ä¿ĿæĮģ
äºĴèģĶ äºĴéĢļ
ĠBo ard
åįģä¹Ŀ æĿ¡
cel es
Ġappear ance
å¹½ é»ĺ
æĶ¿åºľä¿¡æģ¯åħ¬å¼Ģ å·¥ä½ľ
Ġque ue
çĮĽ é¾Ļ
äººåĬĽèµĦæºĲ ç®¡çĲĨ
æĺ¥èĬĤ æľŁéĹ´
Result s
Ar gs
ĠComm on
çŁ³æ²¹ åĮĸå·¥
é«ĺæķĪ çļĦ
è¿ģ ç§»
Ġhead ers
åĶ¯ æľī
èĩªçĶ± è´¸æĺĵ
ĠSc iences
circ le
ĠEx p
work er
bl ue
æī¬ å£°
ä»İèĢĮ ä½¿
çĥŁ æ°Ķ
éª¨ æĬĺ
Ġsk y
èĦ± åıĳ
é¥® éħĴ
æŁĲ ä¸Ģ
ä¸ĢèĪ¬ åľ¨
æľ¨ åħ°
èģļ ä¼ļ
åºķ å±Ĥ
æĺ¥ é£İ
17 5
å£° èªī
éĿŀå¸¸ å¥½
åħ¶ä¸Ń æľī
å¨ ¥
ç½Ĺ èĮ¨
éĿĴ åħī
çļĦä¸Ģ éĥ¨
ä»ħ ä¾Ľ
è¯Ħ å§Ķ
è¯Ħ æłĩ
ãĢĤâĢĿ âĢľ
é¢Ħ è®¢
å¿« æīĭ
çº¦ åĲĪ
çİĩ éĺŁ
è§Ĩ ç½ĳ
çłĶç©¶ ä¼ļ
è¯¥ æł¡
åĮĹ æµ·
pt lc
æµ· åĨħå¤ĸ
ĠE lect
åŀ Ħ
æĹł èī²
os celes
æĽ´ ä½³
Ġcon j
éĥ½ ä¸įæĺ¯
éĢļ åĳĬ
çĶµ éĩı
å®ļ éĩı
å¼Ģ æĶ¯
æľ¬ æ¡Ī
çĲĨ æŁ¥
ä¸ļ ä½Ļ
å¹´ ä¸Ń
Ġd ram
Ġm useum
åĮ Ī
Ġp apers
Ġs ke
Ġs od
å¤ Ń
Ġt ract
çļĦ èĮĥåĽ´
ï¼ ķ
{ "
r ank
r ays
p d
f etch
b ols
S earch
R equ
H A
B it
Ġ å¤§
ãģķ ãĤĮ
Head er
çŁ³å¢¨ çĥ¯
ä¼ļå±ķ ä¸Ńå¿ĥ
å¥¢ ä¾Ī
chang ed
ĠSec urity
Ġanc est
pan ic
åĳ¼åĲ¸ éģĵ
Ġemploy ment
èĬ³ é¦Ļ
èħĲèļĢ æĢ§
GB T
Ġfeel ings
Ġid x
ĠEng ine
oun s
è¡¨éĿ¢ çļĦ
ply ing
åĶ± çīĩ
éĩįå¤§ é¡¹çĽ®
è´´ è¿ĳ
Ġdisc overy
å®ŀè·µ æ´»åĬ¨
Ġtri p
Ġbr idge
å®¶åºŃ çļĦ
Ġcor ner
æĢ§èĥ½ å¥½
æ¾ ¡
æĢ¥ éľĢ
åħ¬å¼Ģ èµĽ
éĽ¨ æ°´
ä¿ĿæĮģ çĿĢ
æĹ¥æľ¬ çļĦ
èĹ ī
ä¸ĩåħĥ çļĦ
ific ate
åįł æĢ»
è½» å¾®
åį« åĨķ
Ġ19 70
ç®Ģ çĽ´
èµ° å»Ĭ
åĪĽæĸ° é©±åĬ¨
å±Ĥ å±Ĥ
ç§ĳæĬĢ åŀĭ
çĽĳ äºĭ
åĽłä¸º æĪĳ
çı Ģ
Ġcomp r
åİĭ è¿«
ĠJ er
åŃĺ æ´»
åĳ¨ ä¸ī
ast ro
ç»Ļ åĩº
èĢģ é¹°
çłĶç©¶ åıĳçİ°
è¾ĥ å·®
åı° é£İ
æĥ³ ä¸įåĪ°
ĠG ames
åįĹ æµ·
å±± èĦī
æĸ¯ èĴĤ
end ar
Ġ" -
åĮ» ä¿Ŀ
Ġhe aring
æīĭ æ¸¸
ĠH ind
æİ¥ å¤´
äºĮ éĽ¶
é£İ æ¹¿
ĠB ank
oc racy
æ¬¡ ä¼ļè®®
çĽ¸ ä¼ł
äºĭ åĲİ
å¥½ äºĭ
æĻ ĥ
åĵģ å°Ŀ
ä¹Ł å¼Ģå§ĭ
æľº èĥ½
ĠS uch
ä¸İ åºĶçĶ¨
æĸ° ä¸ŃåĽ½
é«ĺ ç´łè´¨
åĩº å±Ģ
Ġl ayers
Ġl ay
il on
çĶ¨ åľ¨
ä¸º çĽ®çļĦ
ic ast
ic ing
ä¸Ń æµ·
ed er
ä¸Ģ åįĥ
en a
çļĦ æĿĥåĪ©
ï¼ Ļ
} ]
g ame
c ounter
U P
T OP
P ref
P a
O ptions
M F
H ER
B asic
( __
é¢ĦéĢī èµĽ
ĠSimilar ly
çĽ¸è¾ĥ äºİ
æľīèī² éĩĳå±ŀ
Ġast h
Ġcoe fficient
Ġcou ple
Ġagricult ure
Ġtrig ger
æ¯Ķä¸Ĭå¹´ åĲĮæľŁ
åħ¬äº¤ è½¦
çŁŃæľŁ åĨħ
LI ST
åıĳè¨Ģ äºº
çĥĺå¹² æľº
Ð°Ð ¼
çķľ ç¦½
æīĭç»Ń è´¹
å¸ĪèĮĥ åŃ¦éĻ¢
Ġrespons es
æ»ĭ åĳ³
Config uration
Ġvert ical
åľ°çĲĨ ä½įç½®
è¯± å¯¼
Ġpo ison
æĶ¶éĽĨ åĻ¨
åį³ä½¿ æĺ¯
Ã¡ l
Ġdig est
è§Ĥä¼Ĺ çļĦ
éĥĳ å·ŀå¸Ĥ
åİŁåĪĻ ä¸Ĭ
__( ...)
ç»Łä¸Ģ çļĦ
Ġtyp ing
ĠX HTML
Ġpass word
Pro gram
æ¶¨ ä»·
ID S
ä¸ªæľĪ çļĦ
att able
çº¸ è´¨
Ġcent uries
Ġcent ers
åħ¬å¼Ģ æĭĽèģĺ
åħ¨éĿ¢ åıĳå±ķ
æ±ī åŃĹ
Ġag ent
éĢģ ä¸Ĭ
çĶ³è¯· è¡¨
Ġar ter
Ġsy ndrome
Ġ< ==>
å°½ åĬĽ
æķħ ä¹¡
åħ¶ä¸Ń ä¸Ģä¸ª
éĤ ±
Ġdis s
çļĦä¸Ģ å¤©
è¯Ħ çº§
æ²¹ çĥŁ
èį¯ åīĤ
åħĭ å°Ķ
ç¤¾ä¼ļ ä¿ĿéĻ©
çľŁ äºº
å¤´ èĦĳ
æľª æĪĲå¹´äºº
åıĤ äºĪ
çłĶç©¶ æĸ¹åĲĳ
æİ¨ å´ĩ
æ¼ ĵ
åĽ½å®¶ èĩªçĦ¶ç§ĳåŃ¦åŁºéĩĳ
ĠG ood
ä¼ĺ äºİ
çİ¯ åį«
ĠE C
ĠW ood
ĠR ichard
åĲĦ åĮº
Ġr ig
æį® ç»Łè®¡
em a
ab il
äºĭ è¿¹
åĨħ å¿ĥçļĦ
æĸĩ æĳĺ
um a
èĢĮ å¯¹äºİ
å¾Ĺ ä¸įåĪ°
ä¹ĭ ä½ľ
åħ¨ ç¤¾ä¼ļ
è¿ĩ å¹´
ĠT ODO
é«ĺ å±±
åħ¬ ç«ĭ
åĩº åĵģ
è¦ģ çŁ¥éģĵ
å¤§ æµ·
Ġf le
Ġc oding
Ġc row
or ough
çļĦ åĽłç´ł
çļĦ åİŁ
çļĦ è·¯
çļĦ æľ¬
çļĦ åı¯
v ars
S F
> "
< (),
# "
PAR AM
ĠLib rary
Ġcontroll ed
Ġaf ford
å¦¥ åĸĦ
èĬĿ éº»
Ġdoct ors
Ġclos er
åºŀ å¤§
Cont ent
Ġlimit ations
ç¢§ èŀº
èĩŃ æ°§
æ¡ĥ åĽŃ
âĳ £
å£ģ çĶ»
æ¨ª åĲĳ
æ³ī æ°´
æĸĩæĺİ çļĦ
Ġplan es
ç¹ģ åįİ
ĠCl imate
ç¬ĳ å®¹
ç§ĳçłĶ æĪĲæŀľ
æ¶Ĥ è£ħ
AC ç±³åħ°
col lection
èĢĲ çĥŃ
Ġtrans mission
ä»ĭç»į ä¸Ģä¸ĭ
è¡Ĺ å¤´
è¿ĺæľī ä¸Ģä¸ª
è¡ĮæĶ¿ è¡Įä¸º
Ġag encies
Ġag ree
ov es
Ġact s
Ġacc um
ä»£è¡¨ çĿĢ
å¥¥ æĭī
åıĳçĶŁ åĻ¨
æī¹ å¤į
é»Ħ æµ·
ĠK n
ç»Ħç»ĩ åĴĮ
åĩı å¼±
16 00
è¯Ŀ è¯´
èı ł
æ¼Ķ èīº
æ¼Ķ åıĺ
èĬ± åįī
èĤ¡ å¸Ĥ
äºļ çī¹
å»ºè®¾ åįķä½į
ost er
12 2
end or
ĠW ild
æĬĢæľ¯ çłĶåıĳ
èģĶ æĥ³
ĠD en
èİ ¹
Ġex ceed
å¾Ī å°ı
è¿ĺ æľª
ĠM o
ä¸ĵ è®¿
åħ¬åı¸ ä¸İ
éĥ½ ä¸įä¼ļ
åĪ¶ çīĩ
æıĲ æ¡Ī
å°Ĩ ä¸įä¼ļ
Ġst rip
ĠC ath
å®ļ äºİ
ad ed
åĮĸ èĤ¥
ĠT im
äº§ åĩº
è¿Ļ å¯¹äºİ
ä¸ª è§ĴçĲĥ
ent e
as hes
ä¸Ń ä¸ľ
ä¸Ń å¸Ĥ
ä¸Ģ éĿ¢
w as
v ille
t ex
s ol
D raw
çŃ· åŃĲ
Ġnit rogen
scre en
Ġdynam ic
Ġbehavi ors
Ġsymmet ry
çļĦç»ıèĲ¥ çĲĨå¿µ
æ²³æµģ åŁŁ
Ġda ughter
åħīä¼ı åıĳçĶµ
åĭĺ æİ¢
gress ive
ocol ate
è¸ı å®ŀ
æķ¦ çħĮ
ĠAd minist
åķĨåĬ¡ éĥ¨
åħįè´¹ åľ¨çº¿è§Ĥçľĭ
å¦Ĥä»Ĭ çļĦ
li ament
èŀįåĲĪ åıĳå±ķ
å¡« æĸĻ
æĽ¿ æį¢
ĠSc an
Ġcap able
Ã¤ n
Pro tocol
åħħåĪĨ çļĦ
Ġsu ffer
}) ]
Ġknow s
ä¸°å¯Į å¤ļå½©
}} .
çĳ ľ
åĽ¢éĺŁ çļĦ
ç²ī ç¢İ
Ġdist ances
Ġprodu ces
27 0
igh ter
ä¹° åħ¥
ç¥¨ æį®
æī¾ ä¸įåĪ°
åĨ· éĵ¾
å¾ģ æľį
æĽ¾ ä»»
èĴ ²
å¼Ģåıĳ èĢħ
çĻ½çĻľé£İ æĺ¯ä¸Ģç§į
å±ħ çĦ¶
In valid
åįĬ å²Ľ
13 6
Ġdis pl
Ġap pre
çļĦä¸Ģ çĶŁ
å¹² æĹ±
åĳ½ åĲįä¸º
åı¯èĥ½ çļĦ
åĽ½éĻħ è´¸æĺĵ
ĠJ ack
å¦Ĥæŀľ åľ¨
åĨľ æŀĹ
ack ing
å·ŀ çļĦ
é¦ĸ éĢī
åı· ä¸º
ä½İ ä¸ĭ
é£Ł æ¬²
æĪĺ åľº
ĠO ly
nd ering
cl aim
çº¿ æĢ§
æĦŁ æĤŁ
de velop
çľĭ ä¸Ĭåİ»
æµģ æµª
è¥¿ æ´ĭ
ĠR om
é£İ æĻ¯åĮº
Ġex change
æĦı åĽ¾
ĠM ethod
ĠM A
æĪĳä»¬ å¸ĮæľĽ
çĹ ĺ
å¹¶ èĥ½
éĥ½ æ²¡
æľĢ å¿«
æĬĢ å¸Ī
æ°´ ä½ĵ
çĤ ¬
èĢħ ä¼ĺåħĪ
éĿ¢ æĸĻ
å¼Ģ çļĦ
ĠS ant
æĹ¥ å¿Ĺ
èĩª åı¤
èĤ ´
æĸ° è½¦
ĠT ake
åĩº æµ·
æĭ Ń
Ġre action
è¿Ļ ä»¶
Ġn arrow
et her
ä»¥ åĲİçļĦ
ou ch
å¤§ èĥľ
Ġd ent
Ġm ir
èĢ ¿
åĴ Ĵ
æī ¯
ion i
ed y
æľī ä»»ä½ķ
Ġc art
ä¼ º
Ġt one
u ke
p a
f idl
d em
b our
H DP
C or
2 11
, \
, '
Ġ echo
éĿĴåħī çľ¼
åĲŀåĲĲ éĩı
è¿Ń ä»£
Ġunivers al
Fin ally
defin itions
Ġproport ion
Ġmill ions
ĠKe ep
sig ma
ç§¯åĪĨ æ¦ľ
åĪĨæĶ¯ æľºæŀĦ
åħ¬åħĥ åīį
é»ĳèī²ç´ł ç»Ĩèĥŀ
æ¸Ķ ä¸ļ
æ£ļ æĪ·
ĠBrit ain
leg al
Ġcombin ations
éŀ Ń
çº¿ä¸Ĭ çº¿ä¸ĭ
Ġmus cles
è¿Ļä¹Ī å¤ļ
Ġtop ics
å·§ å¦Ļ
æľīäºº è¯´
Ġelect ronic
æ´ŀ å¯Ł
å¦ĩ å¹¼
net work
è¯ģåĪ¸ æĬķèµĦåŁºéĩĳ
è·ĳ éģĵ
çļĦæľĢ é«ĺ
ç»´æĬ¤ å»ºè®¾
ĊĠĠĠĠĠĠĠĠĠĠĠĠĠĠĠĠĠĠĠĠĠĠĠĠĠĠĠĠĠĠĠĠ ĠĠĠĠĠĠĠĠĠĠĠĠĠĠĠĠ
Ġser de
ä¼° ç®Ĺ
æĶ¹éĿ© çļĦ
è®¨ åİĮ
èĽ Ľ
äº¤éĢļ å¤§åŃ¦
Ġdec line
Ġdef ic
æľ¨ èĢ³
æ¶² ä½į
éĢģ ç»Ļ
æĽ¾ å¤ļæ¬¡
éħ¸ ç¢±
åħ¨çĲĥ åĮĸ
Ġar ms
æ³¢ å°Ķ
å·¥ä¸ļ è®¾è®¡
äº¿åħĥ äººæ°ĳå¸ģ
æ¥ ·
Ġcomm ission
åĿļ åĽº
å»ºçŃĳ çļĦ
å®ŀçİ° èĲ¥ä¸ļæĶ¶åħ¥
åŁİå¸Ĥ ç»´æĬ¤å»ºè®¾
eg o
ä¸¥ åİī
çĶ³ è¯ī
Ġman aged
è¨Ģ è®º
åİ¿ åŁŁ
éļ¾ çĤ¹
ä¼Ĺ äºº
åıį è¶ħ
å¥³ åıĭ
ç³»ç»Ł çŃī
æ¸ħ éĨĴ
æ¸ħ ä»£
çĶŁäº§ è®¾å¤ĩ
è½¬ ä¸º
åĬŁ èĢĹ
ä½İ è°ĥ
æĹ¶éĹ´ éĩĮ
çĽ´ æµģ
åĽŀ åİ»
Ġun c
åıª å¥½
å¸Ī å¾·
æĬķ èº«
åŁİ åİ¿
ĠL and
ä¾Ľ éľĢ
ĠN ature
éĹ¨ åīį
å¯¼ åħ¥
ĠW ell
æİ¥ åĬĽ
è¿Ĳ ç»´
è§Ħ ç¨ĭ
å¾Ī åı¯èĥ½
Ġor dered
æĦı åĲĳ
ex ception
Ġv an
åħ¥ åħļ
çĶµ æŀģ
éĿ¢ æĿ¿
if iers
ä¹ĭ å¤ľ
æ³ķ è¯Ń
å¼Ģ è½¦
åĲĮ åĲį
ä¹Ł åĽłæŃ¤
æľº çŃī
æĹ¥ æ¶Īæģ¯
ä¸İ æĬĢæľ¯
æĸ° åıĳå±ķ
äº§ éĶĢ
Ġre verse
åĵ º
è¡Į éĶĢ
æµ Ĭ
st udio
Ġd uration
Ġd ress
åĴĮ ä½ł
ä¸į è§ī
ä¸į æģ¯
æĺ¯ æł¹æį®
Ġc ars
he im
in as
ì Ĭ¤
r ules
r and
l icense
g reen
f ish
R ep
C BA
. |
č čĊ
åİŁå®¡ ç¬¬ä¸īäºº
Ġcomprehens ive
icens ed
Ġvulner able
ä¹Ĵä¹ĵ çĲĥ
Ġsac r
ç»ıçºª äºº
Inter face
çĶĦ éĢī
Ġsche ma
Ġpict ures
ç° §
Option al
ĠGu ide
åĪĳäºĭ è´£ä»»
ĠIsl am
olec ular
Ġinterval s
æ³ķäºº æĪĸèĢħåħ¶ä»ĸ
Ġinstall ed
ç¾İæľ¯ åŃ¦éĻ¢
æĬ± çĿĢ
å¾Īå¤§ ç¨ĭåº¦ä¸Ĭ
Ġrece iving
ç»ıåħ¸ çļĦ
const ants
ĠCol umb
çĹħæĥħ çļĦ
æĹ¥èµ· æĸ½è¡Į
å®ĭ ä»£
åĪĳ æ³ķ
ä¹ĭéĹ´çļĦ åħ³ç³»
å¿ĺ äºĨ
è´« è¡Ģ
æ°§åĮĸ çī©
Ġext ended
å§Ĩ å·´
å®īè£ħ åľ¨
çĦ¶åĲİ åĨį
æ´Ľ éĺ³
AC K
æĿĢ äºº
'] :
äºĭä¸ļ çļĦ
ç«ŀäºī ä¼ĺåĬ¿
Ġ> >
æ´Ĺ åĩĢ
æķĪæŀľ å¥½
èĮĥåĽ´ çļĦ
çİ°ä»£ åĮĸçļĦ
å¤« æĸ¯åŁº
Ġsim ult
æ¯Ĵ æĢ§
åŁºæľ¬ çļĦ
ç»Ŀ æľĽ
åıĳçİ° èĩªå·±
ian a
åĬ³ åĬĽå£«
çł´ äº§
æ¬§ æĸĩ
æ³¢ å£«é¡¿
å·¥ä¸ļ çĶŁäº§
åı¤ éķĩ
åŃ¦çĶŁ ä»¬
å¤± è¸ª
èĲ½ åĪ°
çĽĳ çĭ±
çļĦä¸Ģ ç³»åĪĹ
Ġcl im
æľĽ è¿ľ
æ²¹ çļĦ
çİ¯å¢ĥ å½±åĵį
å®īåħ¨ ç®¡çĲĨ
æĸĩåĮĸ æĹħæ¸¸
Ġ' {}
å¿« é¤Ĳ
ä¸ĵä¸ļ çŁ¥è¯Ĩ
å¤į å®¡
åĽĽ åįģ
æ·± æĦŁ
å¸¦ éĺŁ
ä¹¦ çļĦ
åħĪ çĶŁçļĦ
èĬĤ åģĩæĹ¥
åįĹ å®ģ
åİŁ æĸĩ
éĹ¨ ç¦ģ
å¯¼ æ¸¸
Ġr ural
ess ions
é¦ ħ
Ġal ter
ä»İ é«ĺ
ä¸ī åŃ£åº¦
åĲį èĥľ
çĽ¸ èī²è°±
Ġpro file
æķ° çĽ®
æķ° ä¸º
éĹ´ éļĶ
åºĶ æľī
çĤ «
Ġst able
Ġ( (
ĠA ccount
åĲĮ ä»ģ
ä»ĸ ä¸İ
åħ¨ ç§°
è¿Ľ é£Ł
ĠT able
åľ° åĿĹ
åľ° è¡¨
åī Ķ
è¦ģ ä»¥
ä¸Ĭ åı¸
20 000
çĶŁ æľº
äºĨ ä¸įå°ĳ
ä¸º ä¹ĭ
ic an
ä¸į ç¨³å®ļ
Ġp ig
Ġw al
an i
is p
or ical
Ġs ick
in ition
j e
c am
b ing
[ (
N ames
D irectory
D ict
C ov
, $
) </
' /
Ġ ä»¥
èĲ¥åķĨ çİ¯å¢ĥ
å¥¥æŀĹåĮ¹ åħĭ
åīĥ é¡»
Ġenviron ments
itud es
dep th
çµ® åĩĿ
neg ative
Ġvill age
Ġwait ing
Ġlabor atory
ĠInst all
ĠDE V
å¯¹åºĶ çļĦ
Ġmechan ism
ĠOb ject
Ġstat ist
IG HT
ste al
CP U
ç©Ĩ éĩĮ
And roid
ĠPr inc
çĸı æĿ¾
å·¡ è§Ĩ
èħº çĻĮ
éĤ» è¿ĳ
Ġteam s
Ap ple
MA X
å¼ºåº¦ é«ĺ
å¼Ł å¼Ł
æļĹ ç¤º
æľĢå¤§ éĻĲåº¦
åĩŃ è¯ģ
çŃ¹ åĪĴ
ĠSp aces
ä¸ģ ä¿Ĭ
Cl one
æµª æ½®
Pro perty
ç©¿ è¿ĩ
åĦ¿ç«¥ çļĦ
Ġsee ing
Ġread ers
Ã© t
åıĹåĪ° å½±åĵį
Ġdef e
æŃĮ å£°
") );
(' --
éĥ½æĺ¯ åľ¨
æĪı æ³ķ
åį´ åľ¨
13 4
äººæ°ĳ çļĦ
åħį å¾ģ
Ġdo or
åĩł çİĩ
æĢĿ æĶ¿
form ed
æĸĩåĮĸ äº§ä¸ļ
æ±Ł æ¹ĸ
æŁ¥ å¤Ħ
æ¨¡ ç»Ħ
çĬ Ģ
Ġ0 8
çłĶç©¶ èĢħ
ç²¾ åįİ
åĮ» ç§ĳå¤§åŃ¦
åĮ» çĶ¨
ĠF igure
è¿Ĳ æ²³
ä¸ĩ ä½Ļ
è§£ æŀĲ
åĪĽ ä¸ĭ
è½¦ åºĬ
è½¦ èº«
ĠB ack
ç¥ ł
ä¼ģä¸ļ åĲįç§°
th od
ä¸ŃåĽ½ å¸Ĥåľº
Ġv ent
åĲį çīĮ
Ġpro ceed
åħ¬åı¸ åĴĮ
Ġcon vey
æ¯Ķ åĸ»
åĿ ¯
ag ers
um my
Ġst om
Ġst re
ä¹ĭ æĦı
å®ļ ä¸º
å¼Ģ æľĹ
ä¹Ł æĺ¯ä¸Ģ
ç¬ ĥ
ad y
ĠS end
ä¾ į
çŃī åĨħå®¹
æĥ ķ
us ive
åĪĨ ç®¡
å¯¹ çĹĩ
åĩº ä¼Ĺ
è¿Ļ ä¸ī
å·¥ ä¼¤
åŃ¦ åĪĨ
åĽ½ åĢº
å¤§ å±Ģ
ä¸į ä¸Ģ
Ġin valid
Ġf ashion
åľ¨ è®¾è®¡
ä¸Ģ å¤Ħ
Ġc ott
or ph
çļĦ æĥ³æ³ķ
çļĦ åĨħ
Ã µ
r as
d ouble
` ]
] ]
M in
B o
> \
) /
ç¢§èŀº æĺ¥
ĠEmp ire
æŁ¬ åŁĶ
æŁ¬åŁĶ å¯¨
Ġprofession als
åıĹè®¿ èĢħ
åįļå£«çĶŁ å¯¼å¸Ī
Lear ning
ĠMex ico
Ġalgorith m
Ġhabit at
Ġcompos ition
çĩĥæĸĻ çĶµæ±ł
ä¸Ńè¶ħ èģĶèµĽ
US D
IV E
æ»¡æĦı åº¦
éĤ» å±ħ
è¿Ī è¿Ľ
è´§å¸ģ æĶ¿çŃĸ
Sub stitute
alle y
Ġaut o
èĢ¶ åĴĮåįİ
å¾Ģå¾Ģ æĺ¯
An alysis
Ġlo op
ç¥Ŀ æĦ¿
Ġlog ical
é¢ľ åĢ¼
ĠSc ott
èĤł çĻĮ
åģı æĸ¹
èµĦäº§ è¯Ħä¼°
èµĦäº§ çļĦ
èİ± åĿŀ
èµĦæł¼ å®¡æŁ¥
å°ģ éĿ¢
æ´Ĺ è¡£
Ġop ening
ON E
æĻļ æľŁ
éĺ¶ çº§
ä»ĺ æ¬¾
æİ¢ ç©¶
åª ļ
å®ŀæĸ½ çļĦ
ç¬¬ä¸ī èĬĤ
ä»į æľª
Ġkn ew
éĢģ åĩº
è¡Ģ ç³ĸ
13 7
åıĭ æĥħ
çİĭ æŁĲ
ä½ľä¸º ä¸ŃåĽ½
æĬķèµĦ äºº
Ġx y
èĬ± æł·
ä¸»è¦ģ çĶ±
ä»ĸä»¬ å¯¹
çĶŁäº§ æĢ»åĢ¼
Ġsh aring
å¤į ä¹ł
out ube
è¿ĳ è·Ŀç¦»
æĶ¹ èī¯
for ward
åĪ« çļĦ
æ® ´
ass ets
æł¡ åĨħ
èī² è°ĥ
æĢ» åħ±
Ġ{ },
å¾Ī å¼º
å·¥ä½ľ ç«Ļ
è¿ĺ åħ·æľī
ä¸ĵ äºº
éħ ĭ
ap pe
çł º
åĨħ æĸ¯
Ġbe ans
ĠC at
æĹ¥ åħī
è¿Ľ ä¿®
èĩª éĹŃ
çŃī å¤ļé¡¹
çŃī å½¢å¼ı
é«ĺ å°Ķå¤«
å¤ļ çī¹
åľ° å½¢
Ġl atter
Ġl ots
åı¯ ä½¿
Ġre write
Ġre ly
è¿Ļ å¼ł
æĪĲ å¥Ĺ
Ġh a
è¦ģ åģļ
ä¸ª é¡¹çĽ®
ä¼ļ å¼ķèµ·
åĽ½ åºĨ
åĽ½ ä¼ļ
èµ İ
äºĨ åĲĹ
å¯ ŀ
åĴĮ å®ĮåĸĦ
åĴĮ åĪĽæĸ°
å¸ ľ
å¸ ĺ
Ġw arning
æĪ ļ
en able
in cluding
çļĦ çŁ¥è¯Ĩ
çļĦ ç½ĳç»ľ
è ĺ
k top
b orn
a ux
P ASS
P F
M iss
9 34
% ï¼ī
Ġ ï¼ī
ĠMart in
ä¸Ńè¥¿ åĮ»
åħļç»Ħ ä¹¦è®°
Ġguid ance
Ġofficial s
Ġthous and
Ġprote ins
Ġestim ates
Ġdemonstr ate
Ġharm ful
ĠSub stituting
ĠCar ol
Ġclean ing
çĭĹ çĭĹ
ç¾½ ç»Ĵ
åĹ ½
ĠAdd itionally
Ġcertain ly
Ġconf irm
èī¾ ä¼¦
Ġopen ed
è®¾ç«ĭ äºĨ
Ġhead s
å¹´è½» çļĦ
çŀ Ħ
æĸ°éĹ» åıĳå¸ĥä¼ļ
èĤ¥ æĸĻ
ç©ºæ°Ķ ä¸Ń
Ġdiv iding
æĻ®éĢļ è¯Ŀ
é²ģ è¿ħ
Ġworld wide
åĮ»åŃ¦ ä¼ļ
ç»¿èī² çİ¯ä¿Ŀ
çĺ ¾
çĲĨè®º åĴĮ
çĥŁ èįī
åĬ± å¿Ĺ
Ġfunction al
äºĭä¸ļ åıĳå±ķ
çŁ¿ äº§
Ġpol y
çĶŁçī© åĮ»åŃ¦
æĴŃ ç§į
æ±½è½¦ éĽ¶éĥ¨ä»¶
åĸľ çĪ±çļĦ
ç¬¬äºĮ å±Ĭ
çķĻ åŃ¦çĶŁ
å¤§å®¶ åľ¨
åįļ å®¢
Ġstr ings
çĽ®åīį åľ¨
æ¬¾ é¡¹
åİ¿ å¸Ĥ
çĽĳ å±Ģ
ail ing
åĩł ä½į
è®¾å¤ĩ æľīéĻĲåħ¬åı¸
çļ® éĿ©
èĬ± äºĨ
ä»¥åıĬ å¯¹
äºĶ çĻ¾
ä¸»è¦ģ äº§åĵģ
Ġpl ugin
è¶Ĭ å¤ļ
æ¸ħ æĻ¨
æ·± å¤Ħ
çłĶç©¶ æľºæŀĦ
åĽŀ åĪ°äºĨ
ä¸ľ äºļ
æł¼ å¤ĸ
æł¼ åĬĽ
è¢« è§Ĩä¸º
èĮ ģ
ĠW AR
ä½ł èĥ½
ĠR ay
å·² æĺ¯
Ġcom ments
ĠD og
åĪĽ ä¼¤
èµ· èįī
æĹł éļľç¢į
Ġal pha
çĥ ģ
res ize
éĩĳ å¥ĸ
ä¿Ŀ åį«
éĩı èº«
åīį åįģ
éĽ ģ
æľ¬ åľº
Ġg host
åħ¨ çº¿
ç¨ ļ
æĥ ¹
am ing
ot i
et es
el lect
çĽ ¯
Ġd ur
Ġd ut
åĴĮ äº§åĵģ
ä¸º å®ĹæĹ¨
ä¸º ä»ĸä»¬
åĴ ı
Ġp and
ä¸Ģ å¤ľ
is er
or ity
çļĦ æĥħç»ª
çļĦ ä¸ªäºº
t ake
t age
s leep
g est
W here
V S
P AT
I B
E m
> ",
$ **:
Ġsud den
ç²¤æ¸¯æ¾³ å¤§æ¹¾åĮº
Ġlifest yle
Ġpret ty
ĠSpan ish
Ġveh icle
ä¸ºä»£è¡¨ çļĦ
Ġmolec ules
Ġvacc ine
æ¤İ éĹ´
PH P
åİī å®³
ç«Ń è¯ļ
vari able
Ġvisit ors
Ġcal ories
è¾¾æĪĲ åįıè®®
æĲľç´¢ å¼ķæĵİ
ĠMed ia
èİ² èĬ±
Or der
ĠPart y
ION S
å¿½ çĦ¶
ä¸ĭéĿ¢ å°±
åĲĪæł¼ çļĦ
åĮħåĲ« äºĨ
é«ĺè´¨éĩı çļĦ
AM P
åĩ¯ æģ©
å°Ĭ æķ¬
Ġì Ŀ
æĪĲéķ¿ çļĦ
åĵ¥ åĵ¥
AB CD
Com ponent
æµĵ ç¼©
Ġmain tenance
æ®Ĭ èį£
çļĦé«ĺ éĢŁ
Ġfl ight
Ġsm ooth
æĭ¿ åĩº
è®¢ éĺħ
éĻĦ çĿĢ
çİ°ä»£ åĨľä¸ļ
èģĮä¸ļ éģĵå¾·
åĲĥ çļĦ
åħŃ å¤§
Ġtime out
æ¦ ¨
ç¬¬äºĮ èĬĤ
èģļ éħ¯
å·¥ä¸ļ æľºåĻ¨äºº
Ġpart ies
eg u
çĶ³ èĬ±
ç¬¬ä¸Ģ åŃ£åº¦
æł¸ æ¡ĥ
èĭ± å°º
æ²¹ èıľ
çļ® è´¨
å®īåħ¨ åĴĮ
æĸĩåĮĸ äº¤æµģ
èĳ «
èĳ« èĬ¦
Ġne ither
éĩĩ æĳĺ
Ġres erv
åįİ ä¾¨
ä¹Ĳ éĺŁ
åı· åıĬ
åĬŁ å¾·
out e
çĥŃ çĶµ
èĬĤ æ°Ķ
å±± åľ°
ĠN ode
æ°Ķ ç®¡
ĠR ob
ke ep
æĺİ ä»£
èµĽ è½¦
Ġor al
æ´» çĿĢ
å®ī æħ°
è¯´ æľį
ex ist
éĹ´ æĸŃ
åĪ¶ æĪĲçļĦ
æĸĩ åĩŃ
åīį æīĢæľª
åīį æ¬¾
åĬł çĽĸ
ä¸» æīĵ
ä¹Ł æĽ¾
ot ic
åĪĨ å·®
åħ¬ è®¤
åĩº è´§
æĭ ¯
æ¯ Ĺ
åı¯ çĪ±çļĦ
æĪĳ æ²¡æľī
im ation
å·¥ åŃ¦
æĹ¶ åĪĨ
ä¸Ĭ åıĳè¡¨
ä¸į æĦ¿æĦı
ä¸į èĥľ
ä¸į å·²
èĢ į
ä¸Ń ç§ĳéĻ¢
ä¸Ń éĶĭ
ä¸Ń å¹´
æľī èĥ½åĬĽ
Ġp arser
æĺ¯ éĽĨ
è¯ Ģ
ãĢĤ ï¼ī
Ġt ons
ï¼ Ķ
ì ľ
y aml
h idden
g ression
d jango
* /
ä¸ģä¿Ĭ æĻĸ
<() >
à½² à¼ĭ
Ġbin omial
Ġelimin ate
Ġdriv ing
Ġsymmet ric
Ġsynt ax
Ġhor izontal
Ġhor se
CON F
Ġgir l
ĠLear n
ĠRev olution
æ³Ħ éľ²
En c
AG S
èĢķ åľ°
Ġdifficult y
Bu f
Ġcomput ers
èĿ ī
ä»£çĲĨ äºº
Ġcult ures
æĿľ ç»Ŀ
ĠÐ ·
ĠInd ex
å¢ŀå¼º äºĨ
åħ¼ é¡¾
ä¸¹ éº¦
ĠEx ample
é¢ĨåħĪ åľ°ä½į
bl ing
Pro ject
å®ľ å±ħ
Ġmed ication
ä¼´ éļı
Ġed it
åıĳå±ķçļĦ éĩįè¦ģ
Ġche cks
æ¢¦ å¹»
å¡ĳ æĢ§
é¢Ĩå¯¼ åĴĮ
èŃ¦ æĥķ
éģĩ åĪ°äºĨ
æİ¢ å¯»
åĲĦç§į åĲĦæł·çļĦ
ç´¢ å¼ķ
Ġpre val
éĿ© æĸ°
ä»¤ æĪĳ
ck now
å°Ħ åĩ»
Ġform ing
ç¿ ĺ
åĬŁèĥ½ éļľç¢į
æ¦ Ĩ
ä½ľçĶ¨ çļĦ
Ġstud ied
åį´ åıĪ
å·¥ä¸ļ ä¼ģä¸ļ
è¾¹ å¢ĥ
å°½ çļĦ
è´¢ æĬ¥
çīĪ åħ¨åĽ½
ç®Ģ ä¾¿
ç®Ģ çº¦
äººæ°ĳ éĵ¶è¡Į
ç»Ī æŀģ
Ġman ifest
å·²ç»ı å¼Ģå§ĭ
æ²¹ æ°Ķ
Ġwill ing
Ġcomp ounds
ĠJ ac
çĪ± å°Ķ
åĪĻ ä¸º
åĨį çİ°
åįİ ä¸Ń
çĶŁäº§ åĪ¶éĢł
Ġ0 6
12 9
ç²¾ éĢī
éĢī åıĸ
åŁİ çļĦ
ĠR oad
åŀ ¦
ĠB udd
ä½Ĩ åħ¶
å¾Ī éķ¿
åı¯ä»¥ ä½¿
å®ī å¨ľ
ä¸ĵ æ¡Ī
os ion
èĲ ¤
ate way
æ°´ æ³µ
ĠC ivil
ĠA S
Ġis osceles
è¦ģ ä»İ
ä¸Ĭ éĻĲ
ac le
çĶŁ æ°Ķ
Ġd ental
Ġm othur
éĢ Ľ
ä¸Ń èģĮ
ä¸Ń æĢ§
Ġp ars
Ġw ish
æĺ¯ éľĢè¦ģ
åĪ ĥ
he a
Ġt race
r ons
m othur
c mp
W ind
V C
P ad
M W
F ound
C ould
7 000
% ,
å§Ĩå·´ ä½©
å°ıé¢Ŀ è´·æ¬¾
ĠBus iness
Ġmaint aining
Vari able
æĬµæĬĹ åĬĽ
Ġsynt hes
Ġemerg ency
cor pus
Ġsurv ival
Ġquant um
rupt ion
ĠEl iz
çģ«éĶħ åºķæĸĻ
æŁĲç§į ç¨ĭåº¦
Ġmicro b
çĶ±æŃ¤ åı¯è§ģ
èĦĤèĤª éħ¸
Ġexam ines
ä¸Ĭä¸ĭ æ¸¸
æµ© çī¹
Ġemploy ed
èĥİ åĦ¿
ä»¿ çľŁ
conn ected
Ġcy l
æİĴæĶ¾ æłĩåĩĨ
Ġpres crib
Ġcare er
Ġoper ator
æĬķåħ¥ ä½¿çĶ¨
oid s
åĵ¥ ä¼¦
èĴĻ å¾·
å¥ĭ åĬĽ
èĢ³ æľµ
æĦıä¹ī ä¸Ĭ
ç»¿èī² å»ºçŃĳ
è¯¯ å·®
ME NT
anc is
ä½ĵèĤ² é¦Ĩ
åŁ¹è®Ń çıŃ
æĭ¿ åĪ°äºĨ
åĺ ħ
é¡º åºĶ
è¿ĲåĬ¨ çļĦ
Ġour s
æĶ» éĹ¨
ä½Ľ éĻĢ
Ġass istance
éĶĢåĶ® çļĦ
èģĮä¸ļ åŁ¹è®Ń
Ġadd s
æľ¨ è´¨
åĬ³ å·¥
ç¬¬äºĮ åŃ£
ç¬¬äºĮ å¤§
åıĮ éĩį
14 4
æīĢä»¥ æĪĳä»¬
å¢ŀéķ¿ çİĩ
æĺ¯ä¸Ģ æīĢ
åĬ¿ åĬĽ
æĪ¿ ä¼ģ
åĳ¨ åĽĽ
ä¸»è¦ģ ä»¥
ä»ĸä»¬ æĺ¯
ĠO per
19 78
cl ick
æŀĦ ä»¶
å¸ĥ éĩĮ
åħ± æĮ¯
å¹¿ æ±½
ĠN atural
æł¼ æĸ¯
åįķ æĽ²
ĠE astern
é£İ éĩĩ
Ġr ab
pl ant
ä¸ŃåĽ½ ä¼ģä¸ļ
os aur
åħ¥ éĹ¨
å¹¶ ä¸įèĥ½
ç®¡ çº¿
ag ger
åĨħ ç½®
å°± æĬĬ
ir th
å±ķ åİħ
ä¹ĭ ä»¥
ä¸ĭ è°ĥ
æľº çĲĨ
ĠS ym
èĩª åĬ©
ĠT ry
çŃī åĽ½å®¶
å¤ļ åĬŁèĥ½
åľ° åľ¨
Ġl it
è¿Ļ æĹ¶åĢĻ
Ġn om
æĹ¶ èĩ³
ä¸ª çľģ
ä¸Ĭ æĬ¥
åıĳ çĤİ
st eps
el a
å¤§ åĲĮ
äºĨ æĪĳçļĦ
ä¸º å¥ĳæľº
ä¸į å¥½çļĦ
ro at
åĨ ¤
åĮ ª
åľ¨ ç¬¬
åľ¨ å»º
Ġc raft
çļĦ ä¼ĺçĤ¹
çļĦ éĩįçĤ¹
w ing
k r
[ ![
N C
M at
E num
D ate
B B
( ?
( $
èĮģ å£®
æ£ļæĪ· åĮº
åĨłçĬ¶ çĹħæ¯Ĵ
Combin ing
çŁ« æŃ£
åĴ³ åĹ½
æĻ®æĥł éĩĳèŀį
ä¸Ĭè¯ī äºº
Ġwarm ing
Ġaccur acy
Ġsus pect
================ ================
ä¸ºä¸»é¢ĺ çļĦ
Ġphot ograph
Ġphot os
TE ST
éĻª åĲĮ
Ġbi ological
ç²Ĺ ç³Ļ
çĬ¯ç½ª å«Įçĸĳäºº
éĵ¸ ä»¶
inter val
Ġfr uits
Ġgu ard
CO VID
ç¬¬åįģ äºĶ
fl at
Ġlook ed
ç¹ģ å¤ļ
æľºåĻ¨ åŃ¦ä¹ł
ta h
çī¹çĤ¹ æĺ¯
éĩĳå±ŀ æĿĲæĸĻ
Ġmod ify
Ġmod ul
éķ¿æľŁ çļĦ
é²ľ èī³
éª¨ éª
br idge
å·¨ äºº
æ³¨åĨĮ çļĦ
å¤® ä¼ģ
èĮĥåĽ´ åĨħçļĦ
åħ³ç³» åĪ°
ari os
èģĮä¸ļ åŃ¦éĻ¢
å¼Ĥ æĢ§
ä¼¤ åĬ¿
ram id
åĤ į
è½» è´¨
ãĥ Ĺ
å¨ Ł
eg ration
åºĶçĶ¨ é¢ĨåŁŁ
ç¬¬ä¸Ģ åĲį
æĥħåĨµ çļĦ
16 3
ĠTh rough
Ġper imeter
çİ¯å¢ĥ çĽĳæµĭ
ok ia
Ġj u
é¢Ħ åħĪ
é¢Ħ æĬ¥
åİĨ æĹ¶
éĹ®é¢ĺ æĺ¯
ä¸ĸçķĮ ä¸Ģæµģ
ç»Ļ ä»ĸä»¬
ost ic
are st
è¯¥ é¡¹
è¾ĥ éķ¿
å±± æµ·
çľģ åĨħ
èº« å¤Ħ
ç®¡çĲĨ çŃī
åİŁ æľīçļĦ
åıĹ ä½ĵ
å·² ä¹ħ
åķĨ éĵ¶è¡Į
æ· ³
æ· ¬
æĪĳä»¬ çŁ¥éģĵ
Ġv eter
ä¸ī äºļ
ĠP an
å¤© æĸĩåŃ¦
å°ı éº¦
åĽł åºĶ
å¤ĸ å£³
å§ ¨
åħ¬åı¸ äºİ
æľŁ æ»¡
ag ram
åħ³ ç¨İ
å°± è¿ŀ
å°± å¥½
Ġ( @
ĠC alcul
ĠC ond
ä¸» è®²
ä¹ĭ å¹´
å¼Ģ ç«¯
æľ¬ é¡¹çĽ®
æľ¬ æł¡
åĲĮ å¿ĥ
ä¹Ł æĺ¯ä¸Ģç§į
åĲİ åĭ¤
æĸ° åĵģç§į
å¤ļ ä¹ħ
ol on
åĪ° ä½İ
æĪĳ å±Ģ
è¦ģ æ¯Ķ
è¦ģ çĶ¨
ä¸Ĭ è°ĥ
å¹´ å¤įæĹ¦
å¹´ æĪĳåĽ½
äºĨ ä»ĸçļĦ
çĽ ı
ä¸º ä»ĸ
ro ck
éĢ Ĺ
le arning
ä¸Ń ä¹Ł
Ġs ight
Ġa head
çļĦ çĪ±æĥħ
çļĦ æĢ§èĥ½
u v
t ed
c in
S chema
P al
N on
L ocal
H ub
E ar
D iff
C he
) ](#
Ġ ib
Ġ ip
Ġ æį®
Ġ äºº
å¹´å¤įæĹ¦ çīĪåħ¨åĽ½
æ³ķäººæĪĸèĢħåħ¶ä»ĸ ç»Ħç»ĩ
Ġsampl ing
Ġmoist ure
Ġexperim ents
ĠDist rict
Ġeg gs
//////// ////////
Ġdim ensions
åľ£è¯ŀ èĬĤ
Ġtro ops
Ġfeed back
Ġdou bt
å¸¸åĬ¡ å§Ķåĳĺä¼ļ
ãģ« ãĤĪ
èĬ¬ åħ°
æĮĩæĮ¥ éĥ¨
ĠSup port
Ġfund ing
Ġfund s
æ±¡æ°´å¤ĦçĲĨ è®¾å¤ĩ
ä¸ĵç§ĳ æİĴåĲį
ä¸ĵç§ĳæİĴåĲį No
æĪĴ çĥŁ
Ġhouse hold
ĠAd v
Ġens uring
ä¸įåĨį æĺ¯
ane ous
Un it
osp her
pre vious
çº½ åį¡æĸ¯
Ġwrit es
Ġobject ive
Ġident ifying
æķı æį·
ä¸įå°ĳ äºº
å®½ å¸¦
Ġser ialize
å°ıæĹ¶ çļĦ
à½ º
Ġche st
Ã© n
è¿Ŀ çºª
ä¸¥éĩį å½±åĵį
Ġsm oking
åĨ² åİĭ
ä»¥ä¸ĭ æĺ¯
å¯¼èĩ´ äºĨ
ä¿ĿæĬ¤ åĮº
åĤ »
åī¯ æľ¬
èĪª è¿Ĳ
å¼Ģåıĳ åĴĮ
éĵģ çŁ¿çŁ³
13 1
ãĥ ģ
åı¤ è¿¹
çģ« å±±
ç§ĳæĬĢ èĤ¡ä»½æľīéĻĲåħ¬åı¸
18 8
çĽ¸åħ³ ä¿¡æģ¯
é¢Ħ åĪ¶
å¤´ çļ®
æ¸ħ çħ§
ç»´ äºļ
Ġtr ained
å°Ķ æĽ¼
æĮĩ å®ļçļĦ
æ³¨ å®ļ
åı£ åı·
è®© æĽ´å¤ļ
ĠL ine
ĠW here
äºĮ éĨĩ
å·² è¾¾
æĮģ æľīäºº
ĠB ur
ä½Ĩ å¯¹äºİ
ç½ĳ æ°ĳ
å®ī å¿ĥ
ä¸ŃåĽ½ åĪ¶éĢł
ä»İ ä¸¥
æĪĳä»¬ æīĢ
æĪĳä»¬ æĺ¯
Ġv ideos
éľ ¾
ab its
ä¿Ŀ å®ļ
è° İ
æ°´ ä½į
æĸĩ äºº
éķ¿ çº¦
æīĢ ç¤º
åıĬ æĹ©
å®ļ å¾ĭ
ä½ĵ æ¸©
åħ¨ å±Ģ
è¿ĩ åī©
è¿ĩ ç¡¬
ä¸İ åĽ½éĻħ
ä¸İ æľįåĬ¡
ä¸İ ä»ĸ
åĮĸ ç®¡çĲĨ
æ± ŀ
Ġre q
ä¸Ĭ ä¹Ł
åŃ¦ æĬ¥
å¹´ åħ¬åı¸
Ġb ath
Ġw ages
al and
is k
Ġc ab
ĠĠĠĠĠĠĠĠ ĠĠ
at he
çļĦ è¯Ńè¨Ģ
v ault
e b
b les
b id
] ï¼Į
O H
D ay
ĠAcad emy
é¢ģå¥ĸ åħ¸ç¤¼
Ġcateg ory
yg on
Ġadj acent
Ref erence
æ³ķå®ļ ä»£è¡¨äºº
æļĳ åģĩ
ç§¯ç´¯ äºĨ
ç¨Ģ éĩĬ
SC N
Ġyoung er
Ġlib r
čĊčĊ čĊ
Node Placeholder
Ġgl uc
æĪ¿åľ°äº§ å¸Ĥåľº
ĠÃ ¥
çĹħæĥħ åĬłéĩį
Ġcare ful
éĺ´ éĺ³
Data Element
Ġstudy ing
ç»ĵæĿŁ æĹ¶
DE S
æ¶īåıĬ åĪ°
ä¿Ħ è¯Ń
åĪĬ çī©
Ġmet adata
çĥŁ åı°
æ±ĩ éĽĨ
Ġfound ed
æĳĦ åıĸ
Ġmin im
è¯Ĺ è¯į
ann a
éĢĢ è¿ĺ
æĮīçħ§ è§Ħå®ļ
ident ity
Ġdec imal
æĹħæ¸¸ æĻ¯åĮº
set s
æŃ¦ æľ¯
è§ĦåĪĴ åĴĮ
æĿ¯ åĨłåĨĽ
Ġreg ul
ç»¼åĲĪ å¾ģ
å¥¥ åľ°åĪ©
å¼Ģåıĳ åĪ©çĶ¨
æĺ¥ èĹ¤
çĭ¬ è¡Į
è´¢ ç¨İ
æī¹ åĪ¤
æĭĽ åĭŁ
æĭĽ èĢĥ
å¾Īå¤ļ æĹ¶åĢĻ
13 00
ĠK now
èµ° ä¸Ĭ
ĠV irgin
å·²ç»ı è¢«
åİ¿ äººæ°ĳæĶ¿åºľ
ç§ĳæĬĢ çļĦ
æĻº åºĵ
åħļ åı²
ç»Ĩ å¿ĥ
çİ¯å¢ĥ åį«çĶŁ
åıį å¼¹
åħĭ åĬĽ
Ġab und
å·¥ç¨ĭ è´¨éĩı
è§ģ è¿ĩ
ç§° èµŀ
é¦ĸ é¡µ
è½¬ åıĳ
Ġse lection
12 1
éĤ£ å¤©
Ġun safe
è®© æĤ¨
æĥ³ çĿĢ
ĠL ead
Ġ" #
ä¸¤ å®¶
ä¼ł åĩº
çľĭ ä¸įåĪ°
æµģ è½¬
çģ ¶
ĠF ederal
è¥¿ æ±ī
æľį ä»İ
ub ern
Ġwe ights
å¸¸ æĺ¥èĹ¤
è¯´ äºĨ
éģĵ æķĻ
å¹³ è¡Į
ĠM or
ĠP lease
ĠP ract
ĠP ass
å¤© èµĭ
ç¾ ¡
åºĶ æľīçļĦ
å°Ĩ çĶ±
éķ¿ å¯¿
se y
åĬł ä¹ĭ
ir ts
ir ation
ĠC irc
æľ¬ è½®
æľ¬ ç½ĳ
åĵģ ç±»
å®ŀ æĪĺ
ä¹Ł ä¸įè¦ģ
çİ° æĹ¶
çİ° ä¸º
èĩª å¼º
æĸ° èĢģ
é«ĺ ç²¾åº¦
æ± ²
id ates
Ġl os
æĹ¶ èĬĤ
åıĳ åĩºçļĦ
ac cept
åŃ¦ ä¸ĵä¸ļ
åĽ½ äºº
å¤§ æ£ļ
Ġd rivers
Ġm ac
ä¸į ä¾¿
èĢ ½
èĢ »
Ġp u
Ġp H
Ġw ound
æĺ¯ ä¸İ
ä¸Ģ è¯į
Ġt ags
çļĦ æł·åŃĲ
} },
r id
e enth
W i
V is
P N
M ac
D D
2 32
ospher ic
Ġappre ci
Ġrepos itory
ä¸įç¡®å®ļ æĢ§
ĠHash Map
éļ¶ å±ŀäºİ
ç»ĳ æŀ¶
Ġinform ed
Ġnumer ator
ĠAb out
ä¸ĵä¸ļæĬĢæľ¯ äººåĳĺ
è½¬ä¼ļ çªĹåı£
çº·çº· è¡¨ç¤º
äººåĬĽèµĦæºĲ åĴĮç¤¾ä¼ļä¿Ŀéļľ
å¯ĨåĪĩ çĽ¸åħ³
ilder ness
ĠEar ly
omet ry
Ap plication
Ġlow est
Ġfew er
Ġland scape
.... ..
Ġconn ections
Ġpres ents
è¯ķéªĮ åĮº
äº¿ç¾İåħĥ çļĦ
åĩºçīĪ çļĦ
init ely
å®£ä¼ł çīĩ
Ġbo ost
æľĿ é²ľ
çĶŁåĳ½ åĳ¨æľŁ
çļĦæĸ° éĹ»
äº¦ æľī
åķĨä¸ļ éĵ¶è¡Į
è¯º è´Ŀå°Ķ
åĽ¢éĺŁ åĲĪä½ľ
éĻĪ åĪĹ
Ġbu ilder
å®Ī æ³ķ
æŃ¦ å¤·
ç¬¬ä¸ī æĿ¡
æį¢ çĥŃ
åī¯ éĥ¨éķ¿
æīĢæľī æĿĥ
å¹´çļĦ åıĳå±ķ
æĭĽ çīĮ
Ġ5 4
çģ« çĪĨ
ç¬¬ä¸Ģ æī¹
ĠV an
15 8
15 6
æ®µ çļĦ
è¿Ļä¸ª äºº
ĠTh ree
æĪĲä¸º ä¸ŃåĽ½
åħļ æĶ¿
äº¬ æ´¥
è¡Įä¸ļ æłĩåĩĨ
åıį æĬĹ
åħĭ èİ±
åĪĻ åľ¨
æ¸ħ æ¾Ī
æ¸ħ ç®Ĺ
è®º è¿°
æ¶Ī æŀģ
æīĵ æłĩ
Ġk an
ip es
ĠO xford
ĠO h
æĶ¾ å®½
åĽŀ éģ¿
ç²¾ ç¾İ
19 89
åı° åįĹ
åĮĹ å¤§
ä»· çļĦ
ĠN ext
ä¸ĸ äºº
æīĭ æĮĩ
æĶ¶ çĽĺ
ĠE X
ĠH ub
çĹħ åİŁ
è¥¿ çĵľ
äº¤ æ±ĩ
ä½ł éľĢè¦ģ
éĴ ĵ
Ġex plicit
ä½Ĩ éļıçĿĢ
é¦ ı
å¹³ æķ´
çī¹ æĭī
ex amples
éĩĳ æĸ¯
æĽ´ è¦ģ
Ġcon ven
ĠI II
æ°´ ä¸Ĭ
Ġst yles
åĬł åĽº
çĶµ åı°
å¾Ĺ åĲį
ĠC hem
ĠC urrent
ĠA rea
ĠA qu
å¼Ģ äºĳ
ĠS outhern
æĹ¥ æľŁéĹ´
çŃī è¯¸å¤ļ
å¯¹ æĪĳä»¬çļĦ
åı¯ å®ŀçİ°
ou st
å¹´ ç»Ī
Ġm g
åĴĮ çĶŁæ´»
Ġb oy
åį ¤
ä¸Ģ ä¸Ŀ
ä¸Ģ å£°
Ġc a
Ġs ections
Ġs ed
Ġa ward
Ġt iny
çļĦ åĦ¿åŃĲ
çļĦ åĲ«éĩı
çļĦ çĲĨæĥ³
çļĦ æ¸©åº¦
z ed
y an
p in
k ernel
W idget
S M
D i
> ::
Ġ ĊĠĠĠĠĠĠĠĠ
ubern etes
çº½åį¡æĸ¯ å°Ķ
ç©ĨéĩĮ å°¼å¥¥
æľĽè¿ľ éķľ
Ġcalc ium
ĠRet rieved
Ġcolle agues
Ġkil omet
äº¨ åĪ©
Ġinstit ution
Ġtransport ation
æķ°æİ§ æľºåºĬ
æĭľä»ģ æħķå°¼é»ĳ
wide hat
Ġsurv ive
ĠSm ith
å®ŀçĶ¨ æĸ°åŀĭ
=\ {
æĹłäºº æľº
è¯¾åłĤ æķĻåŃ¦
$( $
Ġimm igr
ç¬¬åħŃ æĿ¡
iet nam
è´¾ è·ĥ
çİĽ ä¸½
Ġcrit ic
Ġfil m
å»ºæĪĲ åĲİ
äºİæĺ¯ ä»¥
Ġrepresent ing
æµ¦ ä¸ľ
Ġdel ay
é£İæł¼ çļĦ
af ka
çº½ å¸¦
ĠPl ant
Ġredu ces
ĊĠĠĠĠĠĠĠĠĠĠĠĠĠĠĠĠĠĠĠĠĠĠĠĠĠĠĠĠ Ġ
å¡« è¡¥
Ġexpl o
oun ced
éĥ½ä¼ļ æľī
ĠCl in
æ»ĳ åĨ°
å³° åĢ¼
Ġprocess ed
çļ®èĤ¤ çļĦ
åĪ¶åº¦ çļĦ
ç¢³ æİĴæĶ¾
}) ^{
èĢĲ é«ĺæ¸©
Ġpar alle
éº Ĵ
Ġdec ade
äººä»¬ åľ¨
ä»¥ä¸ĭ ç½ļæ¬¾
åĪĨéĴŁ åĲİ
ä½³ ç»©
ç³»åĪĹ æ´»åĬ¨
äºĨä¸Ģ æĿ¡
å®Ŀ è´µçļĦ
ç»ĵæŀĦ æĢ§
çľ¼ ä¸Ń
å¥¥ å§Ķä¼ļ
ç½ĳç»ľ çļĦ
æĸ¹æ³ķ åĴĮ
we et
å½ķ åĪ¶
éħĴ åºĦ
ra f
éĺ³ åı°
éĤ ¹
åħ·æľī éĩįè¦ģ
æĸŃ è£Ĥ
èĤ¡ æģ¯
Ġab use
é¢Ħ èµĽ
å·¥ç¨ĭ éĻ¢
æľª å¿ħ
èĢģ é¾Ħ
ĠO FFSET
æ¨ Ĭ
æĶ¾ åĪ°
æ·± è¿ľ
å¸¦ åĪ°
åĮħ è£¹
æ³¨ éĶĢ
åı° è¯į
å¸ĥ å°Ķ
æĥ³ çŁ¥éģĵ
äº§åĵģ çłĶåıĳ
Ġ" \
æł¡ å¤ĸ
** ,
ĠE D
ĠW at
Ġr an
ç¥ Ľ
æĺİ äºĨ
æĹł ç§ģ
ç¾İ æĻ¯
op edia
ä¸ŃåĽ½ å®¶
ä»İ ä¸Ģä¸ª
éĶ ¯
åĲį åı«
éĩĳ çļĦ
å¤ĸ å¢Ļ
å¤ĸ åľ¨
ä¿Ŀ å®ī
äºĭ åħĪ
ĠI ss
åºĶ æ³¨æĦı
éĽ į
èĢĮ æľī
Ġst anding
è¶ Ł
ir a
éĥ¨ éĥ¨éķ¿
ĠA uthor
æ´ ¼
ä¸İ çİ¯å¢ĥ
ig ma
ol a
åĪĨ è¡Į
Ġre nt
ä¿ Ń
ä¸Ĭ æ¦ľ
as ets
åĽ½ éģĵ
å¤§ è±Ĩ
å¤§ å¤«
è´ ¼
å¹´ ä¸ĸçķĮæĿ¯
å¹´ éķ¿
Ġto ler
Ġd ans
Ġw et
åľ¨ ç½ĳä¸Ĭ
è¯ «
Ġo u
ä½ ¼
re ction
çļĦ éĩĳ
ë ¦
ĭ ľ
Ģ ì
y cle
t ical
k o
h our
T ree
L ook
G I
E val
. ),
æĭ¯ æķĳ
thod ox
æ½į åĿĬ
Ġsubsequ ent
cour se
Ġdiscr imin
clus ive
æ°¯åĮĸ éĵĿ
alog ue
SI ZE
çĹķ è¿¹
å¼Ģå·¥ å»ºè®¾
ĠStud ies
Form atter
çºł æŃ£
å¼ĢåĲ¯ äºĨ
è¾© è®º
çłĤ æµĨ
rodu ction
ĠFr ank
ç±»ä¼¼ çļĦ
Ġtre nd
éŃĶ æľ¯
ĠStr uct
Al so
å£® è§Ĥ
è·Į å¹ħ
é¥®é£Ł ä¹łæĥ¯
Ġtem p
ç¥ĸ åħĪ
æµĻæ±Ł å¤§åŃ¦
ĠSc ot
ĠEx t
Pro cess
ç¼ĵ åĨ²
åĬŀåħ¬ æ¥¼
åĨľä¸ļ å¤§åŃ¦
}) $
åĮ»çĸĹ æľįåĬ¡
åıªæľī åľ¨
ç«¥ å¹´
Ġdi verse
hed ron
ä½Ľ ç½Ĺ
è´£ä»» å¿ĥ
çĶ² éĨĩ
å¥ĩ å¦Ļ
ç»¼åĲĪ ä½ĵ
Ġsup plies
Ġsup plements
å±Ĭ æ»¡
ĠIt al
çľ¼ æ³ª
çıŃ çļĦ
åīĤ åĴĮ
ys ical
æĹ© é¤Ĳ
Ġsc hed
ĠSt at
èµ° åĩºåİ»
äºĴ åĪ©
å¥ĸ æĿ¯
åħ·æľī è¾ĥå¼ºçļĦ
éļı ä¾¿
éħį éŁ³
ach ment
æ¨¡ æł·
è± ģ
ç¡® åĪĩ
çĥŃ çģ«
éĤ£ æĹ¶åĢĻ
19 83
åĽ¢ åĳĺ
cl ip
è¿Ľè¡Į æ£ĢæŁ¥
ĠL ee
ult ure
ass ium
Ġhe m
è¢« åĪ¤
ĠE S
ĠR ights
åķĨ åŃ¦éĻ¢
æ°ĳ æ³ķ
ä½Ĩ ä»ĸä»¬
oc on
åħĥ å¹´
æĪĸ å¤ļ
ä¸ĵ èĳĹ
Ġv ote
ĠP ur
å°± æŃ¤
ir ds
å¾Ĺ å¥½
Ġfor t
ä¹Ł åı¯èĥ½
ä»ĸ ä¼ļ
ä¸ĭ è®¾
å¸Ĥ éķĩ
Ġg ly
çİ° éĺ¶æ®µ
åħ¨ ä¼ļ
un known
æĹ¥ è¶ĭ
æĹ¥ äº§
æĿ¥ å®ŀçİ°
å¯¹ ä¼ģä¸ļ
æĭ Ĳ
è¿Ļ ä¸¤ç§į
è¿Ļ ä¸įæĺ¯
Ġh us
Ġn arr
åĴĮ ä¸į
ä¸º éĩįçĤ¹
ä¸º åħ¨çĲĥ
ä¸į èĤ²
ä¸Ń è¥¿éĥ¨
ä¸Ń æŃ¢
åľ¨ æ°´
al m
ä¸Ģ ç¯ĩ
ä¸Ģ é¦ĸ
or ms
Ġs ale
Ġa cknow
ð Ŀ
v as
t ensor
s aved
r ide
c ost
` )
Y S
T ube
R en
N D
D ATA
: \
" ):
Ġ å¯¹äºİ
Ġ Â·
éª¨éª ¼
Ġstom ach
ä¸Ģå¦Ĥ æĹ¢å¾Ģ
ç§ĳåĪĽ æĿ¿
æ²¥ éĿĴ
Dat aset
Conn ection
wind ow
Mult ip
æĸĩåĮĸåĴĮ æĹħæ¸¸
Ġinstr uments
Check Result
åĭĺ æŁ¥
Ġinflu enced
çŃĽ æŁ¥
Ġfrequ ent
æµ·åįĹ çľģ
RO M
fact ory
Ġput ting
Ġinput s
åĳĬè¯ī ä»ĸ
åĸĿ èĮ¶
å¤§ä¼ļ ä¸Ĭ
ĠYou ng
Ġ_ ,
æĬ¥éģĵ ç§°
ĠEx per
è¡ĮåĬ¨ è®¡åĪĴ
èĶ Ĺ
åķĨä¸ļ åĮĸ
éľ² åĩº
åºĬ ä½į
è°Ī è¯Ŀ
è°Ī è®º
æİ¨åĬ¨ äºĨ
ç»ıéªĮ çļĦ
æ³ķå¾ĭ è§Ħå®ļ
Ġprov ider
ä»¥ä¸ĭ åĩłä¸ª
æĪĲåĬŁ çİĩ
Ġinter ior
-------- --
å¸ĮæľĽ èĥ½å¤Ł
ä¸ĢèĪ¬ æĥħåĨµä¸ĭ
ä¸ĢèĪ¬ ä¸º
ä»£è¡¨ æĢ§
çĸ¾ æİ§
çĶ±äºİ åħ¶
ç»¼ ä¸Ĭ
æ¤ Ń
ob acter
Ġ19 98
è´¨éĩı çļĦ
row ing
æ²»çĸĹ éĵ¶å±ĳçĹħ
åĩł å¹´æĿ¥
åħļ æĢ»æĶ¯
éļı åį³
æ¼Ķ ç¤º
éĻ¤ åİ»
åĨľ æľº
Ġsp an
ak a
å¥³ ç¯®
ä¸ĵä¸ļ äººåĳĺ
11 00
Ġsh apes
æīĵ åį¡
æīĵ éĢļ
æĹ¶éĹ´ éķ¿
å®ĥ ä¼ļ
å¸Ĥåľº ä¸»ä½ĵ
åĽĽ ç§į
å®¹ ç§¯
çĥŃ è¡·
è¯¥ äº§åĵģ
Ġch annels
åĮĹ å®ĭ
åģļ è¿ĩ
æ²¡ æĶ¶
åıĺ æĢ§
åİ» åĮ»éĻ¢
Ġat tr
ä¸¤ æĿ¡
è£ ´
Ġhe ro
è·¯ æ¡¥
çľĭ çļĦ
ĠH ome
ĠH all
ä¸ĩ èĭ±éķĳ
å£ ¹
æĺİ æĺİ
åıĳå±ķ æĸ¹åĲĳ
ĠM er
çĥ Ľ
çĤ¹ çĩĥ
ĠP ri
åĲį å°Ĩ
ab out
å¹¶ å¤Ħ
æľŁ ä¸º
æ°´ èĤ¿
èĢĮ å¯¼èĩ´
ä¹ĭ æĺŁ
å¦ Ĭ
å¼Ģ åĩº
æľ¬ åĵģ
å» ĵ
ĠS O
æĸ° æĺŁ
ĠT om
é«ĺ æłĩåĩĨ
æĥ «
å¤ļ å¹´åīį
äº§ åĮº
åĩº ä»»
åĵ ¨
è¡Į äºº
et c
å¤§ çĲĨ
Ġd ies
åĴĮ ç»ıæµİ
ä¸į åıªæĺ¯
ro c
ä¸Ń ä¼ģ
äºº æĺ¯
Ġf est
it ure
ä¸Ģ çĲĥ
Ġa ims
Ġa u
çļĦ æ¯ĶèµĽä¸Ń
çļĦ æĪĲæľ¬
a fe
U ID
S n
K S
çŀĦ åĩĨ
åıĳå±ķæĶ¹éĿ© å§Ķ
ĠHit ler
Calcul ating
Ġorient ation
hav ior
è§¦æĳ¸ å±ı
æĳĦåĥı å¤´
second s
Ġfavor ite
Ġbeaut y
æĥ© ç½ļ
Ġproced ures
Ġsem i
ãģĹ ãģŁ
Sc ience
Ġcut ting
Find All
çĸ«èĭĹ æİ¥ç§į
åłĨ ç§¯
çļĦå¥½ å¤Ħ
fact or
æħĪ æĤ²
Ġmen u
ä¸ļç»© é¢ĦåĳĬ
Ġnec k
åĿ¦ è¨Ģ
é«ĺçŃī éĻ¢æł¡
UR CE
çŁ¥åĲį åĵģçīĮ
sub set
ä¸»ç®¡ æľºåħ³
æķ¬ çķı
æ´ŀ ç©´
uss ian
æĦıè¯Ĩ çļĦ
æľºåĻ¨ ç¿»è¯ĳ
Ġart ists
Ġ: =
ç»¿èī² åıĳå±ķ
è¿ĩåİ» äºĨ
èµĦæł¼ çļĦ
èļ Ĭ
åĪĽéĢł åĩº
é²ľ èĬ±
çĽĽ ä¼ļ
åĮĸåŃ¦ çī©è´¨
åĵĪ ä½Ľ
Ġoff set
Ġfol der
Ġdist ingu
Ġwhere as
è¿Ľä¸ĢæŃ¥ åĬłå¼º
Ġprov en
åħ³äºİ åį°åıĳ
ä½Ľ åħī
Ġ8 00
ink ing
åĩĢ åľŁ
ç¥¨ ä»·
è´§ è½¦
reat ing
å°½ æĥħ
é¦Ļ èķī
å¤± ä¿¡
å¤ª æŀģ
åİ¿ æĶ¿åºľ
ç»Ĩ åĮĸ
éĢĤ æĹ¶
ä¼Ĺ å¤ļçļĦ
åĳ¨ äºĮ
å§ĭ çļĩ
ä½ķ åĨµ
ä¸»è¦ģ ä¸º
ĠU tah
æµĭ ç®Ĺ
ä½İ æĪĲæľ¬
æĪĺ åĽ½
ĠO cean
ult y
de em
åİŁ åħĪ
åıĹ çģ¾
ĠN LP
æĢ» æĶ¶åħ¥
éª ģ
çĹħ äººçļĦ
è¥¿ éĹ¨
äº¤ æĽ¿
åķĨ åŁİ
ill ed
å¼º åĬĽ
å¢ŀ éĩı
èĪ ľ
æĮģ å¹³
è½¦ éģĵ
è½¦ ä¸»
åı¯ä»¥ è¾¾åĪ°
è¯´ èµ·
è´¨ æ£Ģ
ĠM ove
Ġv ac
ĠP eter
ĠP et
ĠP O
éľ ĸ
åħ¥ æīĭ
åħ¥ åľº
éĥ½ éĿŀå¸¸
åĮº å§Ķ
åĨħ æľī
æ°´ ç®¡
éĩį å¤§çļĦ
ĠC PU
æľĪ æľ«
åĵģ æł¼
ä¹Ł å¯¹
Ġ1 40
éĥ Ŀ
ä¸ĭ ç§°
è¿Ľ é©»
è¿Ľ åĨĽ
èĩª æĪĳçļĦ
ig are
çŃī ä¼Ĺå¤ļ
æ± ¾
å¤ļ éħļ
å¯¹ çĦ¦
æĪĳ è¿ĺ
il er
èĥ½ ä¸įèĥ½
åıĳ æ³¡
âĢĿ âĢĶâĢĶ
st ances
çĲ Ĳ
ou nce
å¹´ èĸª
å¹´ èİ·
ä¸į éĻĲ
Ġb io
æľī ä¸Ģæ¬¡
it led
ä¸Ģ èº«
re port
ï¼ ľ
ï¼ ĺ
v o
s id
m os
l ive
l an
a que
R NA
P T
N ASA
= ['
. ')
' ).
' }
Ġ è¯¥
è´¾è·ĥ äºŃ
PASS WORD
åŀĦ æĸŃ
æī¬å£° åĻ¨
å¤¯ å®ŀ
ĠDise ase
åĨĻåŃĹ æ¥¼
agin ator
éªļ æī°
ĠId ent
Ġtick et
é»ı èĨľ
Ġste el
Ġsubst ance
Ġconvert ed
äººå¤§ å¸¸å§Ķä¼ļ
Ġpan ic
vari ables
å®ŀè®Ń åŁºåľ°
åħ±äº§ åħļåĳĺ
Ġmarket ing
ĠAm ong
Ġfall s
äº¤æį¢ æľº
å»ºéĢł å¸Ī
Ġindic ating
æĹģ è¾¹
itor ing
çļĦå¿ĥ æĥħ
sum mary
æĲľ å¯»
Ġlight s
è±Ĩ èħĲ
æĦŁè§ī åĪ°
æ½ľ æ°´
å®½ åº¦
èµĦæĸĻ æĺ¾ç¤º
äº¦ æĺ¯
ä¼¦ å¤ļ
åį«çĶŁ ç»Ħç»ĩ
èµĽåŃ£ çļĦ
Ġcor por
æĢ§èĥ½ åĴĮ
æ²Ļ é¾Ļ
Ġco operation
é¢Ĩå¯¼ å¹²éĥ¨
ç©ºéĹ´ çļĦ
Ġsm oke
åı³ èĦļ
è§Ħæ¨¡ ä»¥ä¸Ĭ
æĬ¥åĳĬ æĺ¾ç¤º
çŃ¾ åĲį
çĶŁçī© æĬĢæľ¯
Ġ8 5
èĢĮä¸Ķ åľ¨
äºĨä¸Ģ æ¬¡
Ġreg ulations
Ġpre ced
èīºæľ¯ åĵģ
åº§ æ¤ħ
æĿİ æ¸ħçħ§
Ġtw enty
æ¿ Ĵ
Ġpart ner
çĻ½çĻľé£İ æ²»çĸĹ
é»Ħ èľĤ
ä¹Łæĺ¯ ä¸Ģä¸ª
ãĥ ī
çģ« çĤ¬
éĵ¶ è¡Įä¸ļ
å¾Ģ è¿Ķ
ert y
æ»¡ äºĨ
åħ·æľī ä¸Ģå®ļçļĦ
èĳ µ
ä¿¡æģ¯ åĴĮ
å¾· æ¯Ķ
ĠO S
å®¹ çº³
ĠG ur
ĠG it
å±± ä¸Ĭ
çķĮ éĻĲ
éĹ® ä¸ĸ
èº« æĿĲ
ang ed
åįķ ä¸ª
ĠH and
éĢł ç¦ı
è§£ èĦ±
ore r
iv ate
ç¾İ åĮĸ
åıĳå±ķ è¶ĭåĬ¿
ĠM en
ç± ½
çķ ¸
çł ¥
åºĶ åıĺ
éĩį éĩį
åĬł æĹ¶
å»º æ¨¡
if ts
ĠC ast
åħ¶ æīĢ
å®ŀ æĥł
Ġ1 60
æľº åŀĭ
åħ¨ ä¹¦
un ity
èĩª é©¾
ot ton
åĩº çĶŁçļĦ
Ġth in
Ġn an
ä¼ļ ä¸įä¼ļ
å¹´ èİ·å¾Ĺ
Ġm and
åĴĮ éĿŀ
ä¸į å®Įåħ¨
ä¸į åıª
ä¸į ä¸º
ro ute
ä¸Ń çļĦä¸Ģ
Ġf ell
åľ¨ ä¼ģä¸ļ
it ol
ä¸Ģ ä¹Ŀ
ç» ļ
Ġs ad
ãĢĤ âĢĶâĢĶ
Ġt al
çļĦ å¯¹è±¡
çļĦ åķĨåĵģ
çļĦ çĻ½
è łķ
â ĭ
} }\
y x
y r
t ap
k ing
` ](
M BA
L o
H ist
) ï¼ļ
åĵ¥ä¼¦ æ¯Ķäºļ
æ¤İéĹ´ çĽĺ
ĠScan Code
åħĭç½Ĺ åľ°äºļ
èĪĨ è®º
Ġrenew able
ĠBer lin
tg Ã¤r
éĴ¥ åĮĻ
Ġfig ures
çĭŃ çªĦ
ĠSecond s
æ²§ æ¡ĳ
åĪ¹è½¦ çģ¯
ĠValue Error
Ġwild life
Ġcommit tee
Ġslow ly
ä¿± è¿Ľ
Ġconcern ed
amm ation
æĶ¶è´¹ æłĩåĩĨ
Ġgreen house
Cont roller
Ġobserv ations
åħ¨åĬĽ ä»¥
åħ¨åĬĽä»¥ èµ´
bor row
ĠBl ue
æ©¡ å¡ĳ
Ġsent ences
è¥¿å®ī å¸Ĥ
Ġfac ility
å¾Īå¤ļäºº éĥ½
ä¿Ŀåģ¥ åĵģ
Im port
oper ative
Ġdep art
Ð¾Ð »
åĪĽå»º äºİ
Ġfin ish
Ġrad ical
loc file
æľ¬æ¬¡ æ´»åĬ¨
Ġdirect ed
è´« ç©·
æĻºæħ§ åŁİå¸Ĥ
å®½ æĿ¾
è·¨ çķĮ
ç§ģ å®¶
åıĳæĮ¥ çĿĢ
Ġtri als
åı¥ åŃĲ
åĵĪ åĵĪ
Ġresult ed
åģĩ åĨĴ
æī© åħħ
éĩįçĤ¹ å®ŀéªĮå®¤
åĵª å®¶
ç¬¬ä¸ī ä¸ª
St ud
å¸ĮæľĽ å¤§å®¶
æĬĹ çĻĮ
ç«¯ åı£
æİ§åĪ¶ çļĦ
äº² å¯Ĩ
par s
åħŃ åįģ
Ġar b
çĶ» çļĦ
æķħ å®«
Ġsc ene
ĠSt ore
Ġ5 5
ä»¥ä¸Ĭ åŃ¦åİĨ
åı¤ éģĵ
åĪĩ æĪĲ
Ġout break
ä½ı å»º
Ġcl ip
æļ ®
ual ity
çļĦäºº æĿ¥è¯´
åįİ ä¸½
é¦ĸ åº¦
per m
å¤į æ´»
ug ins
æĶ¯ è¡Į
19 58
åģļ èµ·
åİ» å¹´çļĦ
åĻ ¬
èº« ä¸ĬçļĦ
è§£ æ¯Ĵ
ĠB ow
ä¸Ģä¸ª æĺ¯
Ġv on
å¹¶ æľī
éĩı äº§
ag ic
éĢļ å¾Ģ
çĶµ å·¥
åĵģ å¾·
ä½ĵ èĥ½
æĹ¥ åĿĩ
æĹ¥ è®°
æĸ° ç§Ģ
ĠT ree
é«ĺ å¼ºåº¦
é«ĺ æĸ°
å¤ļ ä¸ĩ
am ination
è¦ģ åĬłå¼º
åıĳ åħī
ent i
ou ter
å¤§ æĸ¹
å¤§ æľī
è´ ¿
å¹´ éĩĮ
Ġd x
Ġm aps
Ġm ob
åĴĮ å»ºè®®
ä¸º æĪĳåĽ½
ä¸º å®ŀçİ°
ä¸į æĢķ
ä¸Ń ä¿¡
Ġb rowser
äºº æķĻ
Ġf ro
Ġp atch
åľ¨ è¿Ľè¡Į
Ġt mp
çļĦ åĳĺå·¥
çļĦ èº«ä½ĵ
m u
h ot
W W
S dk
S olve
S i
G tk
äºļçī¹ åħ°
LICE NSE
Ġexplan ation
Ġsuc ceed
Ġnutr ition
èĵ¬åĭĥ åıĳå±ķ
èĢĲçģ« æĿĲæĸĻ
Arc Str
å¸¦å¤´ äºº
åĩĢæ°´ åĻ¨
Ġbound ary
pers onal
ä¼ĺå¼Ĥ çļĦ
sim ple
èµĶåģ¿ è´£ä»»
Ġmeasure ments
ĠNe uro
æĪªæŃ¢ æĹ¶éĹ´
Ġpay ment
æħİ éĩį
æĸĩçī© ä¿ĿæĬ¤
Ġstrong ly
éĵ¸ éĵģ
rec v
Ġmar riage
no op
Ġnear by
Ġneg oti
roll ed
ĠSe a
Ġplant ing
é¸Ł ç±»
Ð¸ Ð
ä»£çĲĨ æľºæŀĦ
æŁĶ æĢ§
Ġvol unte
ç§¦ å§ĭçļĩ
Ġadv oc
Ġpresent ation
è¡¨è¾¾ äºĨ
ĠÐ ¸
Ġelect ron
æĬ¢ éĻ©
SE L
ĠInd ust
è¯´æĺİ äºĨ
åŃ¦æľ¯ æľŁåĪĬ
ĠAr my
éĢļçŁ¥ å¦Ĥä¸ĭ
çĲĨè®º ä¸İ
ĠRes ource
æĢĿæĥ³ çļĦ
åĪĽéĢł åĬĽ
Ġent ered
Ġend ing
åıĺåĮĸ çļĦ
å½Ĵ çº³
åĪļ å¼Ģå§ĭ
åħ±åĲĮ ä½ĵ
æ³ķå¾ĭ è´£ä»»
å·¦ è·¯
ä½ĵç³» åĴĮ
Ġchild hood
å¾ĹåĪ° çļĦ
éĢı æ¼ı
è¿½ éĢĲ
Ġrem ind
Ġinter rupt
çĽ®æłĩ çļĦ
pos it
æīĺ é©¬æĸ¯
æīĺ ç®¡
ç¬¬ä¸ī æ¬¡
ç»¼åĲĪ åĪ©çĶ¨
Ġsup posed
çĶ· åıĭ
å¼Ĥ åĳ³
ç»¿ åľ°
çķ¥ æľī
åĲ¸ åıĸ
ä¸Ģå®ļ æĺ¯
ä½ľçĶ¨ ä¸ĭ
åį° æŁĵ
å·¥ä¸ļ åįıä¼ļ
Ġro bot
æ²³ æ°´
å¾® åŀĭ
å¢ŀéķ¿ çļĦ
bo ot
ĠV alley
æĿĳ èĲ½
ç§ĳæĬĢ åħ¬åı¸
18 6
åĲĮæĹ¶ è¿ĺ
åıĪ ä¼ļ
av or
åĳ¨ åĪĬ
åĳ¨ è½¬
è§ģ è§£
è®® ä¼ļ
åĽĽ çº§
æ·± åİļçļĦ
è¾ĥ æħ¢
åı° å¸ģ
Ġch air
ä»· ä¸º
pe at
ç®¡çĲĨ äºº
ä¸¤ å²¸
âĢĻ .
æĢ» éĩıçļĦ
ant ly
è¿Ĳ åĬ¿
äºĮ åº¦
æĮģ æľīçļĦ
é£İ åĲ¹
é£İ çļĦ
çĿĢ çľ¼
å¾Ī æľīåı¯èĥ½
ĠM ain
ĠP op
æĥħ å¢ĥ
çĽ¸ å·®
åħ¬åı¸ äº§åĵģ
Ġcon stitution
ter ior
å¦Ĥ æľŁ
å¦Ĥ æĺ¯
ag en
çŁ ¢
å¿ĥ åĬ¨
æľĪ åľ¨
ä½ĵ åĨħçļĦ
è¿ĩ éĩı
çŃī é¡¹çĽ®
å¤ļ å±Ĥ
å¤ļ åľ°
äº§ äºİ
åľ° åĿª
åı¯ çĽ´æİ¥
åı¯ ä¸º
æĪĳ éĥ½
æ² ¼
ĊĊ ĊĠĠĠĠĠĠĠĠ
il a
ä¸Ĭ ç¯®
çĲ ħ
as ma
Ġd ates
åĴĮ ä»ĸçļĦ
æľī æĹł
åľ¨ çĶŁäº§
åľ¨ ä½ł
å° ¬
Ġt unn
çļĦ ä¼ĺç§Ģ
çļĦ çº¢
u ating
m es
\ {
S eg
B en
$ )
" {}
Ġ å¦Ĥæŀľ
Ġ ä½Ĩ
Ġ ä¸Ģ
âĭ ¯
èĢ½ è¯¯
ĠCath olic
ä¸İæĹ¶ ä¿±è¿Ľ
rie ve
ĠEnt ity
åľ¨è¿Ļç§į æĥħåĨµä¸ĭ
Ġcompl iance
Ġrare ly
çļĩå®¶ é©¬å¾·éĩĮ
Ġjud g
Ġsche dule
Ġsuff ering
åħħè¶³ çļĦ
(_ )
éĻĦåĬł èµĽ
ÐµÐ »
Ġthread s
gener ate
Ġremov al
çĸ² æĥ«
éĶĤ ç¦»åŃĲçĶµæ±ł
Ġask ing
èĻļæĭŁ çİ°å®ŀ
íķ ´
å¾ĭå¸Ī äºĭåĬ¡æīĢ
Ġinequ alities
Ġprint ed
å½ķåıĸ åĪĨæķ°çº¿
Ġsignific ance
Ġtre nds
å±Ĥæ¬¡ çļĦ
åĩĨç¡® çļĦ
å¤§å¤ļæķ° äºº
des c
èĤº çĻĮ
æĭĽçĶŁ è®¡åĪĴ
Ġmeas uring
å¥¶ èĮ¶
Ã¡ n
è¾Ľ åĭ¤
åħįè´¹ çļĦ
An y
æĥĬ äºº
AN N
åŃ¦æľ¯ è®ºæĸĩ
åĬ¨åĬĽ çĶµæ±ł
ĠX ML
æĤī å°¼
æµĵ åİļ
ĠCl ient
Ġinteg ral
éĤ® ç¼ĸ
Ġsupport ing
Ġext ends
Ġext end
çĦ¶åĲİ åľ¨
Ġshe et
åħ¬åħ± åľºæīĢ
Ġcall ing
æĸ½å·¥ çİ°åľº
çĩĥ çħ¤
åĬ³åĬ¨ åħ³ç³»
æ¶ī æ¡Ī
ç©ºéĹ´ ç«Ļ
èĦĳ æµ·
ĠPro duct
mut able
ç½ĳç«Ļ ä¸Ĭ
te am
35 00
ä½ĵç³» çļĦ
ä¸įä»ħ å¦ĤæŃ¤
the refore
Ġ8 4
å³ ¨
Ġrel ax
æĶ¯æĮģ ä¸ĭ
ç»ıèĲ¥ èĮĥåĽ´
ä»£è¡¨ æĢ§çļĦ
ç»¿ åŁİ
æĭ¥ æĬ¤
åº§ ä½į
çł´ è£Ĥ
io xide
çĭ¬ æľīçļĦ
13 3
13 2
ĠK r
å¯Į è´µ
å¨ ±
éĤ µ
ç¬¬ä¸Ģ å®¶
ĠV is
ä¿® çĲĨ
çĽĳ æĬ¤
15 9
åĽ½éĻħ åĲĪä½ľ
åıĪ ä¸Ģæ¬¡
Ġne ur
çīĩ æ®µ
é¢Ħ ä¼°
ib ly
éĺ² æ±Ľ
Ġtr uly
è¯ķ è½¦
Ġ0 9
æĪĺ ä¸Ń
Ġwas n
æĶ¯ æŀ¶
æ¯ı ä¸Ģä¸ªäºº
éĤ£ ä¸į
Ġun us
åĽ½å®¶ ç»Łè®¡å±Ģ
ĠG old
ĠG al
ĠG re
Ġ" "
çº¿ åŁİå¸Ĥ
çº¿ ç¨ĭ
Ġhe x
ĠN az
æĢ» ç½²
ang ered
åįķ ä½ĵ
ĠE ss
ĠF our
è´¨ åľ°
åĲį çīĩ
éľ Ħ
å¤ĸ åªĴ
æľŁ æľ«
Ġcon ventional
ch ing
èĢĮ æĿ¥çļĦ
ä¹ĭ åŁİ
Ġfor get
å®ŀ çī©
èĩª åįĳ
èĤ ĭ
åĬ¨ æīĭ
åħ¬ çº¦
Ġth orough
åıĳ ç»Ļ
st ates
å¤§ çº²
å¯ ¥
ä¸Ń éĵģ
Ġb orrow
Ġb ot
ar ks
ed o
it ative
it age
ä¸Ģ åĪ»
Ġs ending
re p
äº ¢
çļĦ è´¹çĶ¨
o ices
g os
d irect
` :
W I
T ry
E ST
: ]
* )
Ġsimult aneously
åĳķ åĲĲ
äºļåİĨ å±±å¤§
Am ount
æ¬º éªĹ
writ ten
Ġtown s
Ġinj uries
Ġrot ation
Ġchalleng ing
éĻĦåĬł åĢ¼
men u
cap acity
ç¬¬ä¸ĥ æĿ¡
æĹłçĸĳ æĺ¯
ä»¥å¤ĸ çļĦ
è¡Ģæ¶² å¾ªçİ¯
ĠShe pher
ä¸ĵç§ĳ åĮ»éĻ¢
Ġauthor ities
æĸ°åĨł çĸ«æĥħ
Ġpolit ics
åľ°çĲĥ ä¸Ĭ
æĿŃ å·ŀå¸Ĥ
åºĶæĢ¥ å¤Ħç½®
Ġcomput ing
æł¹æľ¬ ä¸Ĭ
MA IN
So ftware
aut hentication
Ġimpro ving
co ordin
ç¥ŀç»ı ç³»ç»Ł
æī¹åĩĨ åĲİ
Ġla un
åģ¿ è¿ĺ
Ġcare fully
å¿ħè¦ģ æĹ¶
æķ¬ è¯·
è±ª éĹ¨
Ġmat ters
è¯´æĺİ ä¹¦
user content
æŃ¤æ¬¡ æ´»åĬ¨
github usercontent
æĬĵ æīĭ
éļĲ çŀĴ
èģĶèµĽ åĨłåĨĽ
ç§ĳçłĶ æľºæŀĦ
Ġdiv ides
ĠRes ources
èĦļ æīĭ
çŃĶ è¾©
ï¼īãĢģ ãĢĬ
cent age
å¹´åº¦ æĬ¥åĳĬ
åĨľä¸ļ çĶŁäº§
az ing
Ġac res
ann er
æľºæ¢° åĮĸ
åħ¨éĿ¢ æİ¨è¿Ľ
ins on
ç»ĵåĲĪ èµ·æĿ¥
å®Ī ä¿¡
æĹ¥æľ¬ éĺŁ
è¿Ľä¸ĢæŃ¥ æıĲåįĩ
çłĶåıĳ çļĦ
Ġrec all
åĪĨéĴŁ å®¢éĺŁ
Ġdes ert
Ġ10 1
ener gy
é»ĳ çĻ½
äº² äºº
äº¿åħĥ çļĦ
çĻ¾ åħĥ
åħ·æľī å¾Īå¼ºçļĦ
æĭī ä¼¸
æĢĿ å¿µ
æĢĿ è®®
åĽ½éĻħ å¸Ĥåľº
çĬ¶ åħĥ
ç¢ ĺ
åĪĻ ä¼ļ
Ġsp aces
åĳ¨ æĹ¥
èĩ´ çĹħ
Ġen emy
èģĮ æĿĥ
çĥŃ è¡Ģ
Ġim aging
æĮĩ çº¹
å½¢ çļĦ
æĿ¡ çłģ
åģļ åĩºçļĦ
åįĹ å±±
Ġ" ,
æł· æĿ¿
de g
æ²» å®ī
ä¼ł éĹ»
ä»» æķĻ
æ°Ķ æµģ
èģĶ å¸Ń
å¢ŀ èĩ³
ĠB ang
å¾Ī æĺ¯
åı¯ä»¥ æĺ¯
ä½¿ æĪĳä»¬
ä»İ åīį
ä¸ĵ å¿ĥ
Ġv Ã¤l
os ition
å¤© çĶŁ
ist ration
æľ¯ åĲİ
æķ° éĩıçļĦ
åĬł æ°Ķ
Ġ( `
if er
æĢ§ ä¸İ
ĠA cc
æľ¬ ç§ĳåŃ¦
è¿ĩ åĪĨ
ĠT op
id o
åĪĨ æł¡
åĩº éĻ¢
ut ures
åı¯ è§Ĥ
Ġre aches
è¿Ļ çīĩ
il ed
çĲ ¦
ä»¥ æıĲé«ĺ
å¤§ åŁİå¸Ĥ
å¹´ åħ¨çĲĥ
å¹´ ä»½
ĠĠĠĠĠĠĠĠ ĠĠĠĠĠ
æĺ ¼
re duce
Ġt on
çļĦ å¸®åĬ©
çļĦ å®¶
r x
j u
g cd
d type
X YK
T em
Q ue
J son
G uid
. \
Ġgluc ose
Ãµ es
Ġstre ets
ĠOly mp
äººæ°ĳä»£è¡¨å¤§ä¼ļ å¸¸åĬ¡å§Ķåĳĺä¼ļ
Ġpenc ils
igen ous
åİ¿çº§ä»¥ä¸Ĭ äººæ°ĳæĶ¿åºľ
ä¹¾ éļĨ
arub a
ä½£ éĩĳ
Ġmathemat ics
Ġbis ector
Ent ity
æīģ æ¡ĥ
Ġcapt ured
Ġconcent ration
æĶ¹ç¼ĸ èĩª
su ccess
Ġattempt s
åıĻ è¿°
æľīè¶£ çļĦ
ĠÂ ©
çªģåıĳ äºĭä»¶
Ġpan el
éħ¿ éĢł
Ġessential ly
æ·ĭ æ¼ĵ
ĠBl ock
åĨ³çŃĸ éĥ¨ç½²
è¯īè®¼ æ³ķ
åľ°ä¸ĭ æ°´
è½¬åıĺ ä¸º
ĠFr ancis
Ġrequire ment
æ°¯ ä¹Ļçĥ¯
HE AD
Ġens ures
æ·±åº¦ èŀįåĲĪ
co res
ĠSh ared
Ġpublic ation
èĥĥ èĤł
Ġlo an
ç§»åĬ¨ äºĴèģĶç½ĳ
Ġgu ess
Ġanal og
æĬķåħ¥ åĪ°
Ġke eps
ĠAs sembly
åĩĨå¤ĩ å¥½
æĦıè¯Ĩ åĴĮ
Ġu int
Ġser ial
èĦļ è¸ı
è¿Ĳè¡Į çļĦ
Ġfound ation
èĥ¶ åĽĬ
çļ®èĤ¤ çĸ¾çĹħ
åĮĸåŃ¦ åıįåºĶ
çļĦé«ĺ çº§
å·¨ æĺŁ
æ³¨åĨĮ èµĦéĩĳ
çĶ° å¾Ħ
åĵĪ çĻ»
å²Ľ å±¿
æ°¸ ç»Ń
éĿ¢ç§¯ çº¦
æĢ¥ æķĳ
æĢ¥ åī§
ç»ıéªĮ ä¸°å¯ĮçļĦ
éĶĻ å¤±
åı³ è·¯
å»¶ å®ī
vent ions
æŃ» äºĨ
ä¸įä»ħ è¦ģ
å¤« äºº
Ġrem ark
åĵª åĦ¿
è¡ĮæĶ¿ æī§æ³ķ
å¥ĩ å¹»
å¥ĩ çī¹
Ġag reement
Ġsup erv
ç«ł èĬĤ
Ġfind s
Ġcol our
çīĽ é¡¿
åĨħå®¹ åĴĮ
ä¸ĢäºĽ äºº
Ġpart ial
æĸ¹å¼ı çļĦ
Ġsc ales
13 8
è¿ľ å¤Ħ
æĺŁ æĺŁ
å¥¹ æĺ¯
ĠTh ird
åŃĹ çļĦ
lo at
é¢Ħ ç¤º
ast y
åĨį è§ģ
æıĲä¾Ľ ä¸Ģä¸ª
ib l
çİĩ çļĦ
åĽĽ å¤Ħ
å°Ķ é¡¿
Ġun able
é» Ľ
åĽ½å®¶ åıĳæĶ¹å§Ķ
ind ices
ĠG ame
ä¸¤ åľº
æł¡ çº§
æ» ĩ
çŁ¥ æĥħ
ĠN an
è¢« å®³äºº
ĠF act
ĠD own
é£İ æļ´
ä½Ĩ å¯¹
Ġor g
æŃ¤ åĪ»
åħĥ å®ĩå®Ļ
æĪĸ ä¸į
ist ed
åĢ ĺ
éĥ½ å¿ħé¡»
éĥ½ æĺ¯ä¸Ģ
æķĻ åĬ¡
æ¯Ķ ä¸ĬæľĪ
å¥½ èİ±åĿŀ
æį ¡
å±ķ é¦Ĩ
æľ¬ çº§
å®ŀ åĬĽçļĦ
ï¼ļ "
ç¨ ½
ä¸İ ä¼ģä¸ļ
ç® Ķ
çŃī ç¦»åŃĲ
å¤ļ æĸ¹
å¯¹ åħ¬åı¸
Ġth reshold
çĶ¨ åĪ°
æ³ ¸
åıĳ äºĨ
å¹´ åĪ°
Ġto mat
äºĨ èµ·æĿ¥
ä¸º çĶ¨æĪ·æıĲä¾Ľ
ä¸į è¢«
ä¸į è¯´
ä¸į åĪĨ
æľī å¤ļå°ĳ
åľ¨ èĭ±åĽ½
ä¸Ģ è¾Ĩ
ä¸Ģ å¤´
Ġs ine
Ġs oc
äº Ł
çļĦ å½¢æĪĲ
ã Ĭ
} ".
w hen
i OS
i ro
d ers
b ine
P ower
M ay
L C
K I
H R
E st
å¦Ĭ å¨
å¦Ĭå¨ ł
ĠDEV INST
æ·Ħ åįļ
æĳĦæ°ı åº¦
åŃ¦åīį æķĻèĤ²
äºĮç»´ çłģ
Sec ret
æĮ£ æīİ
Ġvict ims
SU V
âħ ł
ç¬¬åħ« æĿ¡
Ġstat istics
Ġsustain ability
èķ´ åĲ«
çĲĨå·¥ åŃ¦éĻ¢
Ġfill ings
çĽĨ åľ°
ä¾Ŀçħ§ æľ¬æ³ķ
account s
ç»ıæµİåŃ¦ å®¶
åħ¶æ¬¡ æĺ¯
ç¦ģåĮº åĨħ
onal d
Ġcreat ive
Ġbi ology
çīµ å¼ķ
Ġess ays
dis c
Ġbelie fs
å¼Ĺ åħ°
wh ite
æŀĦæĪĲ äºĨ
ãĥ¼ ãĤ
å¾Ģå¾Ģ ä¼ļ
ĠÐ º
Ġdem ands
æŀĦå»º äºĨ
Ġsym bols
èĲ¥åħ» ä»·åĢ¼
ç¬¬åįģ åħŃ
å¢¨ å°Ķ
DE FAULT
oin ter
ĠEx press
åĳ¼ åĴĮ
æķĪçİĩ åĴĮ
éĤ® å¯Ħ
ä¸ªæľĪ åĨħ
æ¯Ľ ç»Ĩ
view er
ç¡¬ çĽĺ
cont rib
ĠCon stitution
ĠCon text
Ġac ids
ä¸½ èİİ
mer ge
Ġdec ide
æĻļ å¹´
æŃ¦ è£ħ
èį£ å¹¸
ç³»åĪĹ çļĦ
åħ« åįģ
æ¯Ķè¾ĥ å¤§
å®Ŀ å®ī
ov irus
è½® èĥİ
å¼Ĥ çļĦ
çĻ» å±±
åį° èĬ±
åįł é¢Ĩ
17 2
In s
éĽĨåĽ¢ åľ¨
å¯Į å£«
Ġ19 94
Ġint ellect
14 7
äºĴ åĬ©
çģ« çĦ°
åĪĩ éĻ¤
è´Ł çļĦ
çª ĸ
åŃĹ ä½ĵ
tr aining
é¢Ħ å®ļ
Ġwor ship
Ġpl ain
ç»´ æĭī
ç»´ åŁº
çİĩ åĴĮ
è£ħ åį¸
åĨ³ ç®Ĺ
æĮĩ åĲĳ
Ġun iform
æ¼ ³
å² Ĥ
æĥ³ æĥ³
ĠL o
ä¸ľ èĪª
ç®¡çĲĨ å±Ĥ
æł¼ æłħ
ä¼ł æİĪ
æĶ¶ æĶ¯
ĠE PA
Ġby te
ĠH SCN
ĠF A
ĠW ill
ĠR oyal
åķĨ æĪ·
éĢł èĪ¹
å¼º æľīåĬĽçļĦ
ç¼ ļ
Ġex haust
çĿĢ éĻĨ
ç¥ ī
and e
åı¯ä»¥ å¯¹
èĭ ·
å·¥ä½ľ å²Ĺä½į
ä½¿ ä¹ĭ
ĠM ur
å½ĵ å¹´çļĦ
em on
è¡¨ çİ°åľ¨
åĢ ļ
æĬĢ å·¥
ĠI ll
ch ars
æ³ķ åĬ¡
å¼Ģ è£Ĥ
æľº åĴĮ
åħ¨ éĺŁ
åħ¨ å¤©
èĩª èĲ¥
ĠT V
Ġl oved
Ġl ands
Ġl at
èĥ½ æľīæķĪ
ä¸ª èµĽåŃ£
Ġd st
ä¸º é¢ĺ
åĩ ¿
ä¸į ä¿Ĺ
ä¸Ń ä¸īåĪĨ
ä¸Ń åıĳçİ°
å· į
Ġf ault
ä¸Ģ éĺµ
çļĦ åĬªåĬĽ
p res
m ass
b el
S ch
R ece
C urrent
B enchmark
> .
9 000
5 12
. $
* .
Ġ 2023
Ġasth ma
æ¸¤ æµ·
Ġapplic able
Ġdro ught
ĠSen ate
ç¬Ķè®° æľ¬
1026 000
Ġhun ting
æ¨± èĬ±
Ġguid elines
å·¥ç¨ĭä¸ĵä¸ļ æī¿åĮħ
Ġcomb ine
ĠSec ret
Ġcarry ing
èģļåĲĪ æ°¯åĮĸéĵĿ
åıĹæ¬¢è¿İ çļĦ
æĦī æĤ¦
çĽ¼ æľĽ
èı© æıĲ
Ġut f
Ġcook ing
è¾ĵéĢģ å¸¦
asc ular
æĬĽ å¼ĥ
åĨ¶ çĤ¼
æ¡Ĥ æŀĹ
Ġimprove ment
Int eger
èİ² èĹķ
Ġfac ing
é£ŁçĶ¨ æ²¹
ãĥ¼ãĥ «
inter face
åĩĨç¡® æĢ§
Ġeng age
èĬĤçĽ® ä¸Ń
pre c
var phi
å®ı ä¼Ł
èĩªä¸» åĪĽæĸ°
æĺ¯ä»Ģä¹Ī åĳ¢
éĺ´ æĢ§
Ġhand ler
Ġgre w
CO D
state ment
æĥĬ èī³
éģį åıĬ
çº¯ åĩĢ
LE CT
ç§ĳçłĶ é¡¹çĽ®
æģ¶ æĦı
èĵĿ å¤©
py test
çĵ¦ ä¼¦
èĢģå¸Ī ä»¬
åģļå¥½ åĩĨå¤ĩ
Ġend ed
çĴ ĭ
çĸĳ ä¼¼
col ored
Ġfl Ã¶
33 33
ĠCon f
ç»ĵæŀľ æĺ¾ç¤º
æĵį æİ§
æĮ¥ åıĳæĢ§
[...]
