{
  "Ā": 0,
  "ā": 1,
  "Ă": 2,
  "ă": 3,
  "Ą": 4,
  "ą": 5,
  "Ć": 6,
  "ć": 7,
  "Ĉ": 8,
  "ĉ": 9,
  "Ċ": 10,
  "ċ": 11,
  "Č": 12,
  "č": 13,
  "Ď": 14,
  "ď": 15,
  "Đ": 16,
  "đ": 17,
  "Ē": 18,
  "ē": 19,
  "Ĕ": 20,
  "ĕ": 21,
  "Ė": 22,
  "ė": 23,
  "Ę": 24,
  "ę": 25,
  "Ě": 26,
  "ě": 27,
  "Ĝ": 28,
  "ĝ": 29,
  "Ğ": 30,
  "ğ": 31,
  "Ġ": 32,
  "!": 33,
  "\"": 34,
  "#": 35,
  "$": 36,
  "%": 37,
  "&": 38,
  "'": 39,
  "(": 40,
  ")": 41,
  "*": 42,
  "+": 43,
  ",": 44,
  "-": 45,
  ".": 46,
  "/": 47,
  "0": 48,
  "1": 49,
  "2": 50,
  "3": 51,
  "4": 52,
  "5": 53,
  "6": 54,
  "7": 55,
  "8": 56,
  "9": 57,
  ":": 58,
  ";": 59,
  "<": 60,
  "=": 61,
  ">": 62,
  "?": 63,
  "@": 64,
  "A": 65,
  "B": 66,
  "C": 67,
  "D": 68,
  "E": 69,
  "F": 70,
  "G": 71,
  "H": 72,
  "I": 73,
  "J": 74,
  "K": 75,
  "L": 76,
  "M": 77,
  "N": 78,
  "O": 79,
  "P": 80,
  "Q": 81,
  "R": 82,
  "S": 83,
  "T": 84,
  "U": 85,
  "V": 86,
  "W": 87,
  "X": 88,
  "Y": 89,
  "Z": 90,
  "[": 91,
  "\\": 92,
  "]": 93,
  "^": 94,
  "_": 95,
  "`": 96,
  "a": 97,
  "b": 98,
  "c": 99,
  "d": 100,
  "e": 101,
  "f": 102,
  "g": 103,
  "h": 104,
  "i": 105,
  "j": 106,
  "k": 107,
  "l": 108,
  "m": 109,
  "n": 110,
  "o": 111,
  "p": 112,
  "q": 113,
  "r": 114,
  "s": 115,
  "t": 116,
  "u": 117,
  "v": 118,
  "w": 119,
  "x": 120,
  "y": 121,
  "z": 122,
  "{": 123,
  "|": 124,
  "}": 125,
  "~": 126,
  "ġ": 127,
  "Ģ": 128,
  "ģ": 129,
  "Ĥ": 130,
  "ĥ": 131,
  "Ħ": 132,
  "ħ": 133,
  "Ĩ": 134,
  "ĩ": 135,
  "Ī": 136,
  "ī": 137,
  "Ĭ": 138,
  "ĭ": 139,
  "Į": 140,
  "į": 141,
  "İ": 142,
  "ı": 143,
  "Ĳ": 144,
  "ĳ": 145,
  "Ĵ": 146,
  "ĵ": 147,
  "Ķ": 148,
  "ķ": 149,
  "ĸ": 150,
  "Ĺ": 151,
  "ĺ": 152,
  "Ļ": 153,
  "ļ": 154,
  "Ľ": 155,
  "ľ": 156,
  "Ŀ": 157,
  "ŀ": 158,
  "Ł": 159,
  "ł": 160,
  "¡": 161,
  "¢": 162,
  "£": 163,
  "¤": 164,
  "¥": 165,
  "¦": 166,
  "§": 167,
  "¨": 168,
  "©": 169,
  "ª": 170,
  "«": 171,
  "¬": 172,
  "Ń": 173,
  "®": 174,
  "¯": 175,
  "°": 176,
  "±": 177,
  "²": 178,
  "³": 179,
  "´": 180,
  "µ": 181,
  "¶": 182,
  "·": 183,
  "¸": 184,
  "¹": 185,
  "º": 186,
  "»": 187,
  "¼": 188,
  "½": 189,
  "¾": 190,
  "¿": 191,
  "À": 192,
  "Á": 193,
  "Â": 194,
  "Ã": 195,
  "Ä": 196,
  "Å": 197,
  "Æ": 198,
  "Ç": 199,
  "È": 200,
  "É": 201,
  "Ê": 202,
  "Ë": 203,
  "Ì": 204,
  "Í": 205,
  "Î": 206,
  "Ï": 207,
  "Ð": 208,
  "Ñ": 209,
  "Ò": 210,
  "Ó": 211,
  "Ô": 212,
  "Õ": 213,
  "Ö": 214,
  "×": 215,
  "Ø": 216,
  "Ù": 217,
  "Ú": 218,
  "Û": 219,
  "Ü": 220,
  "Ý": 221,
  "Þ": 222,
  "ß": 223,
  "à": 224,
  "á": 225,
  "â": 226,
  "ã": 227,
  "ä": 228,
  "å": 229,
  "æ": 230,
  "ç": 231,
  "è": 232,
  "é": 233,
  "ê": 234,
  "ë": 235,
  "ì": 236,
  "í": 237,
  "î": 238,
  "ï": 239,
  "ð": 240,
  "ñ": 241,
  "ò": 242,
  "ó": 243,
  "ô": 244,
  "õ": 245,
  "ö": 246,
  "÷": 247,
  "ø": 248,
  "ù": 249,
  "ú": 250,
  "û": 251,
  "ü": 252,
  "ý": 253,
  "þ": 254,
  "ÿ": 255,
  "ĠĠ": 256,
  "ä¸": 257,
  "ï¼": 258,
  "ï¼Į": 259,
  "ãĢ": 260,
  "çļ": 261,
  "çļĦ": 262,
  "ĠĠĠĠ": 263,
  "äº": 264,
  "Ġt": 265,
  "æľ": 266,
  "åı": 267,
  "ãĢĤ": 268,
  "in": 269,
  "åħ": 270,
  "he": 271,
  "Ġa": 272,
  "ä»": 273,
  "å¤": 274,
  "re": 275,
  "on": 276,
  "åĪ": 277,
  "å®": 278,
  "ãĢģ": 279,
  "er": 280,
  "è¿": 281,
  "ä½": 282,
  "åľ": 283,
  "çĶ": 284,
  "åĲ": 285,
  "at": 286,
  "Ġthe": 287,
  "åĬ": 288,
  "æĺ": 289,
  "Ġs": 290,
  "ç»": 291,
  "ĠĠĠĠĠĠĠĠ": 292,
  "âĢ": 293,
  "en": 294,
  "or": 295,
  "åĽ": 296,
  "æĪ": 297,
  "æĸ": 298,
  "å¹": 299,
  "es": 300,
  "ä¼": 301,
  "ä¹": 302,
  "Ġc": 303,
  "æĹ": 304,
  "is": 305,
  "è®": 306,
  "ä¸Ģ": 307,
  "it": 308,
  "Ġo": 309,
  "al": 310,
  "an": 311,
  "å°": 312,
  "è¯": 313,
  "åŃ": 314,
  "åį": 315,
  "æĺ¯": 316,
  "åľ¨": 317,
  "Ġw": 318,
  "Ġp": 319,
  "Ġf": 320,
  "å·": 321,
  "æĿ": 322,
  "æľī": 323,
  "å¸": 324,
  "ed": 325,
  "ar": 326,
  "éĩ": 327,
  "åĮ": 328,
  "åº": 329,
  "ing": 330,
  "äºº": 331,
  "Ġb": 332,
  "ä¸Ń": 333,
  "le": 334,
  "Ġan": 335,
  "ion": 336,
  "æī": 337,
  "Ġof": 338,
  "å¼": 339,
  "è¡": 340,
  "åĨ": 341,
  "éĢ": 342,
  "åĴ": 343,
  "Ġin": 344,
  "èĢ": 345,
  "ro": 346,
  "å¾": 347,
  "ä¸į": 348,
  "åĩ": 349,
  "ic": 350,
  "ä¸º": 351,
  "åĴĮ": 352,
  "Ġm": 353,
  "Ġd": 354,
  "æķ": 355,
  "çĽ": 356,
  "ç§": 357,
  "æĬ": 358,
  "å±": 359,
  "å¯": 360,
  "äºĨ": 361,
  "ĥ½": 362,
  "Ġto": 363,
  "èµ": 364,
  "æł": 365,
  "å¹´": 366,
  "è´": 367,
  "å¤§": 368,
  "ou": 369,
  "åĽ½": 370,
  "è§": 371,
  "çī": 372,
  "ĊĠĠĠĠĠĠĠĠ": 373,
  "ä¸ļ": 374,
  "Ġand": 375,
  "as": 376,
  "el": 377,
  "ä»¥": 378,
  "çİ": 379,
  "æĢ": 380,
  "æ°": 381,
  "éĻ": 382,
  "æĶ": 383,
  "çĶŁ": 384,
  "åŃ¦": 385,
  "ac": 386,
  "çĲ": 387,
  "ent": 388,
  "å¥": 389,
  "et": 390,
  "st": 391,
  "çº": 392,
  "âĢľ": 393,
  "èĩ": 394,
  "âĢĿ": 395,
  "åıĳ": 396,
  "æ³": 397,
  "20": 398,
  "å½": 399,
  "çĶ¨": 400,
  "ä¼ļ": 401,
  "Ġ\\": 402,
  "å¿": 403,
  "åİ": 404,
  "ä¸Ĭ": 405,
  "çŃ": 406,
  "æŃ": 407,
  "ä¿": 408,
  "¦ģ": 409,
  "Ġ=": 410,
  "åĳ": 411,
  "éĹ": 412,
  "ä¸ª": 413,
  "æµ": 414,
  "èĥ½": 415,
  "è¦ģ": 416,
  "æİ": 417,
  "æĹ¶": 418,
  "éĿ": 419,
  "å·¥": 420,
  "Ġn": 421,
  "om": 422,
  "ä½ľ": 423,
  "Ġth": 424,
  "Ġh": 425,
  "æŀ": 426,
  "il": 427,
  "è¡Į": 428,
  "æĪĲ": 429,
  "åĵ": 430,
  "äºİ": 431,
  "ec": 432,
  "è¿Ļ": 433,
  "ĊĊ": 434,
  "æ²": 435,
  "Ġre": 436,
  "im": 437,
  "æĪĳ": 438,
  "é¢": 439,
  "åı¯": 440,
  "Ġe": 441,
  "æ¯": 442,
  "Ġl": 443,
  "åŁ": 444,
  "åĪ°": 445,
  "æĭ": 446,
  "ut": 447,
  "éĺ": 448,
  "è¾": 449,
  "åĩº": 450,
  "åħ¬": 451,
  "å¯¹": 452,
  "Ġis": 453,
  "åĪĨ": 454,
  "æĿ¥": 455,
  "è½": 456,
  "å®¶": 457,
  "ol": 458,
  "åī": 459,
  "æĮ": 460,
  "åľ°": 461,
  "äº§": 462,
  "çĲĨ": 463,
  "us": 464,
  "ot": 465,
  "id": 466,
  "am": 467,
  "å¤ļ": 468,
  "æ±": 469,
  "é«": 470,
  "æĥ": 471,
  "çľ": 472,
  "é«ĺ": 473,
  "ĊĠĠĠĠ": 474,
  "çŃī": 475,
  "ig": 476,
  "ç«": 477,
  "ä»¬": 478,
  "æĸ¹": 479,
  "ĠT": 480,
  "æĸ°": 481,
  "ation": 482,
  "åĮĸ": 483,
  "ç®": 484,
  "åĬ¨": 485,
  "èĤ": 486,
  "ä¸İ": 487,
  "ve": 488,
  "æĦ": 489,
  "00": 490,
  "ç½": 491,
  "æ¸": 492,
  "ä¾": 493,
  "æ´": 494,
  "èĩª": 495,
  "è¿Ľ": 496,
  "é¡": 497,
  "ç¨": 498,
  "ç»ı": 499,
  "æ¬": 500,
  "è¿ĩ": 501,
  "æĹ¥": 502,
  "un": 503,
  "ur": 504,
  "åħ¨": 505,
  "çİ°": 506,
  "ĠS": 507,
  "ä½ĵ": 508,
  "æľº": 509,
  "åĲĪ": 510,
  "ad": 511,
  "Ġg": 512,
  "åĲİ": 513,
  "åĬĽ": 514,
  "å¸Ĥ": 515,
  "ä¸ĭ": 516,
  "ç¬": 517,
  "ä»ĸ": 518,
  "éĥ": 519,
  "å»": 520,
  "éķ": 521,
  "ow": 522,
  "Ġ1": 523,
  "æĽ": 524,
  "ï¼ļ": 525,
  "ä¹Ł": 526,
  "å®ŀ": 527,
  "åĵģ": 528,
  "åĲĮ": 529,
  "æľ¬": 530,
  "ul": 531,
  "å¼Ģ": 532,
  "æı": 533,
  "éģ": 534,
  "èģ": 535,
  "Ġfor": 536,
  "å¦": 537,
  "ĠA": 538,
  "ï¼ī": 539,
  "æľĪ": 540,
  "å®ļ": 541,
  "æ³ķ": 542,
  "ï¼Ī": 543,
  "Ġ$": 544,
  "ä¹ĭ": 545,
  "çĻ": 546,
  "å±ķ": 547,
  "æĢ§": 548,
  "è®¾": 549,
  "åıĬ": 550,
  "åħ¶": 551,
  "ä¸»": 552,
  "ĠC": 553,
  "é£": 554,
  "od": 555,
  "ce": 556,
  "if": 557,
  "éĥ¨": 558,
  "Ġ(": 559,
  "å¾Ĺ": 560,
  "ir": 561,
  "å°±": 562,
  "éĿ¢": 563,
  "çĶµ": 564,
  "ly": 565,
  "ver": 566,
  "å»º": 567,
  "è¶": 568,
  "åĬł": 569,
  "Ġst": 570,
  "èĢĮ": 571,
  "èĢħ": 572,
  "se": 573,
  "å¢": 574,
  "éĽ": 575,
  "ct": 576,
  "åģ": 577,
  "åľº": 578,
  "åº¦": 579,
  "èī": 580,
  "æį": 581,
  "um": 582,
  "åħ³": 583,
  "éĩį": 584,
  "çĤ": 585,
  "ç¬¬": 586,
  "çī©": 587,
  "æĻ": 588,
  "åĬ¡": 589,
  "æīĢ": 590,
  "å¿ĥ": 591,
  "ç¤": 592,
  "åīį": 593,
  "éĢļ": 594,
  "éķ¿": 595,
  "è·": 596,
  "çŁ": 597,
  "qu": 598,
  "æĸĩ": 599,
  "å°Ĩ": 600,
  "Ġbe": 601,
  "åºĶ": 602,
  "æ°´": 603,
  "ch": 604,
  "åĨħ": 605,
  "çł": 606,
  "æıĲ": 607,
  "Ġthat": 608,
  "åĪ¶": 609,
  "Ġon": 610,
  "ay": 611,
  "èµĦ": 612,
  "ag": 613,
  "éĩı": 614,
  "åŃĲ": 615,
  "ç¾": 616,
  "ĠI": 617,
  "å¦Ĥ": 618,
  "ate": 619,
  "åĮº": 620,
  "è°": 621,
  "ith": 622,
  "å¥½": 623,
  "ç©": 624,
  "ç³": 625,
  "est": 626,
  "çĽ®": 627,
  "æ¶": 628,
  "åı¸": 629,
  "æĬĢ": 630,
  "äºĭ": 631,
  "Ġy": 632,
  "æľĢ": 633,
  "ç®¡": 634,
  "èĬ": 635,
  "ç¨ĭ": 636,
  "éĹ´": 637,
  "ç§į": 638,
  "åĿ": 639,
  "æ¯Ķ": 640,
  "ä½į": 641,
  "æķĻ": 642,
  "ter": 643,
  "çĸ": 644,
  "ç§ĳ": 645,
  "éĥ½": 646,
  "éļ": 647,
  "åĢ": 648,
  "çķ": 649,
  "è®¡": 650,
  "Ġcon": 651,
  "Ġas": 652,
  "elf": 653,
  "åĳĺ": 654,
  "ä¿Ŀ": 655,
  "Ġ-": 656,
  "æľŁ": 657,
  "ãĢĭ": 658,
  "æķ°": 659,
  "ãĢĬ": 660,
  "ï¼Ľ": 661,
  "æľ¯": 662,
  "åħ¬åı¸": 663,
  "çĿ": 664,
  "å¹¶": 665,
  "èĲ": 666,
  "ap": 667,
  "Ġpro": 668,
  "å§": 669,
  "çĹ": 670,
  "ab": 671,
  "çĽ¸": 672,
  "å¤ĸ": 673,
  "åħ¥": 674,
  "åĽł": 675,
  "è¡¨": 676,
  "ç³»": 677,
  "æĽ´": 678,
  "éĩĳ": 679,
  "ç±": 680,
  "å°ı": 681,
  "çĦ": 682,
  "ist": 683,
  "éľ": 684,
  "æģ": 685,
  "åĲį": 686,
  "em": 687,
  "ri": 688,
  "æĥħ": 689,
  "Ġare": 690,
  "å¤©": 691,
  "ĠP": 692,
  "ht": 693,
  "éĶ": 694,
  "ä¸ī": 695,
  "éħ": 696,
  "å½ĵ": 697,
  "res": 698,
  "çĤ¹": 699,
  "os": 700,
  "ect": 701,
  "Ġv": 702,
  "æŁ": 703,
  "ä¿¡": 704,
  "åĪ©": 705,
  "çĥ": 706,
  "201": 707,
  "rac": 708,
  "her": 709,
  "ex": 710,
  "--": 711,
  "æĪĳä»¬": 712,
  "ä¸ĵ": 713,
  "çī¹": 714,
  "æĪĸ": 715,
  "ä¼ģ": 716,
  "ĠM": 717,
  "ain": 718,
  "æ¬¡": 719,
  "Ġwith": 720,
  "ä»İ": 721,
  "å¹³": 722,
  "ĠĠĠ": 723,
  "ä½¿": 724,
  "ä¸ŃåĽ½": 725,
  "åħĥ": 726,
  "è´¨": 727,
  "op": 728,
  "éģĵ": 729,
  "è¿ĺ": 730,
  "è¯´": 731,
  "ç¡": 732,
  "ers": 733,
  "oc": 734,
  "å®ī": 735,
  "ĊĠĠĠĠĠĠĠĠĠĠĠĠ": 736,
  "æ´»": 737,
  "æĦı": 738,
  "åŁº": 739,
  "Ġal": 740,
  "æŃ¤": 741,
  "é¦": 742,
  "å·¥ä½ľ": 743,
  "æĶ¿": 744,
  "ç²": 745,
  "é¡¹": 746,
  "ĊĠĠĠĠĠĠĠĠĠĠĠĠĠĠĠĠ": 747,
  "åıĳå±ķ": 748,
  "çĲĥ": 749,
  "rom": 750,
  "èĭ": 751,
  "th": 752,
  "åı¯ä»¥": 753,
  "Ġor": 754,
  "éĵ": 755,
  "ĠThe": 756,
  "å¸¸": 757,
  "Ġwe": 758,
  "ä»£": 759,
  "ç´": 760,
  "å¼ı": 761,
  "Ĥ£": 762,
  "ç¾İ": 763,
  "pl": 764,
  "çĦ¶": 765,
  "::": 766,
  "Ġ+": 767,
  "Ġit": 768,
  "ç½ĳ": 769,
  "ä¼ģä¸ļ": 770,
  "å¾Ī": 771,
  "æĹł": 772,
  "ub": 773,
  "æŀľ": 774,
  "èµĽ": 775,
  "æį®": 776,
  "ä½Ĩ": 777,
  "ä¸Ģä¸ª": 778,
  "ess": 779,
  "æĺİ": 780,
  "()": 781,
  "iv": 782,
  "and": 783,
  "éĻ¢": 784,
  "ç¥": 785,
  "æ°ĳ": 786,
  "æłĩ": 787,
  "up": 788,
  "çłĶ": 789,
  "è§Ħ": 790,
  "çĿĢ": 791,
  "Ġwh": 792,
  "Ġr": 793,
  "èį": 794,
  "our": 795,
  "åķ": 796,
  "ore": 797,
  "Ġex": 798,
  "èµ·": 799,
  "æ·": 800,
  "èĥ": 801,
  "éĴ": 802,
  "ĠB": 803,
  "æľį": 804,
  "//": 805,
  "ort": 806,
  "é£İ": 807,
  "è½¦": 808,
  "ke": 809,
  "æ¡": 810,
  "æº": 811,
  "Ġ{": 812,
  "çĶ±": 813,
  "éĩĮ": 814,
  "å£": 815,
  "åĪĽ": 816,
  "ç¼": 817,
  "åŀ": 818,
  "åĲĦ": 819,
  "æĮģ": 820,
  "nt": 821,
  "ä»¶": 822,
  "æŃ£": 823,
  "è¢": 824,
  "èĪ": 825,
  "äºĽ": 826,
  "Ġ2": 827,
  "ity": 828,
  "ç»Ł": 829,
  "è§£": 830,
  "ment": 831,
  "ä¸ĩ": 832,
  "èİ": 833,
  "å¢ŀ": 834,
  "å¤Ħ": 835,
  "ĠD": 836,
  "éľĢ": 837,
  "10": 838,
  "åħ·": 839,
  "å¼º": 840,
  "éĺŁ": 841,
  "èģĶ": 842,
  "ĊĠĠĠ": 843,
  "Ġcom": 844,
  "éĢł": 845,
  "ill": 846,
  "åķĨ": 847,
  "å·²": 848,
  "äºĮ": 849,
  "æĬĢæľ¯": 850,
  "ç»ĵ": 851,
  "è¿Ĳ": 852,
  "æĬ¥": 853,
  "ue": 854,
  "æİ¥": 855,
  "è¥": 856,
  "ĠR": 857,
  "èĩ³": 858,
  "ä½ł": 859,
  "äº¤": 860,
  "ç»Ħ": 861,
  "self": 862,
  "æ°Ķ": 863,
  "è¥¿": 864,
  "ĠW": 865,
  "ä»»": 866,
  "og": 867,
  "èĮ": 868,
  "ĠF": 869,
  "çĹħ": 870,
  "}{": 871,
  "çģ": 872,
  "ĠH": 873,
  "æµģ": 874,
  "Ġby": 875,
  "ĠE": 876,
  "çľĭ": 877,
  "ies": 878,
  "è¢«": 879,
  "ew": 880,
  "åįķ": 881,
  "åįģ": 882,
  "Ġus": 883,
  "é¢ĺ": 884,
  "æĶ¶": 885,
  "å¯¼": 886,
  "frac": 887,
  "æµ·": 888,
  "Ġde": 889,
  "**": 890,
  "éª": 891,
  "æ±Ĥ": 892,
  "ä¼ł": 893,
  "æīĭ": 894,
  "ang": 895,
  "ç«ĭ": 896,
  "èĤ²": 897,
  "ight": 898,
  "å¤ĩ": 899,
  "çĪ": 900,
  "çº§": 901,
  "ä¸ĸ": 902,
  "é©": 903,
  "ure": 904,
  "è·¯": 905,
  "éĹ¨": 906,
  "ive": 907,
  "ant": 908,
  "æł¼": 909,
  "æ²»": 910,
  "æĢ»": 911,
  "ĠN": 912,
  "åıĹ": 913,
  "Ġhe": 914,
  "å½±": 915,
  "âĢĻ": 916,
  "èº": 917,
  "ame": 918,
  "éĽĨ": 919,
  "åĮ»": 920,
  "åŀĭ": 921,
  "åİŁ": 922,
  "de": 923,
  "iz": 924,
  "è£": 925,
  "Ġcan": 926,
  "èī²": 927,
  "çŁ¥": 928,
  "pt": 929,
  "æĦŁ": 930,
  "åĲĳ": 931,
  "çº¿": 932,
  "æ»": 933,
  "ä¾Ľ": 934,
  "æĸĻ": 935,
  "æľįåĬ¡": 936,
  "æł¡": 937,
  "ass": 938,
  "ä¸¤": 939,
  "çİ¯": 940,
  "Ġ\\(": 941,
  "ç®¡çĲĨ": 942,
  "æł·": 943,
  "è¾¾": 944,
  "ç±»": 945,
  "ä¸ľ": 946,
  "ç¦": 947,
  "åĸ": 948,
  "ld": 949,
  "ç¤¾": 950,
  "èº«": 951,
  "Ġ\"": 952,
  "åĻ": 953,
  "ial": 954,
  "çĻ½": 955,
  "ult": 956,
  "end": 957,
  "èĦ": 958,
  "æºĲ": 959,
  "Ġat": 960,
  "æķĪ": 961,
  "Ġfrom": 962,
  "ĠL": 963,
  "art": 964,
  "å¹¿": 965,
  "åİ»": 966,
  "éĹ®": 967,
  "åıĺ": 968,
  "æ£": 969,
  "é¢Ĩ": 970,
  "çľģ": 971,
  "çķĮ": 972,
  "ä¹Ī": 973,
  "ine": 974,
  "),": 975,
  "è¿Ľè¡Į": 976,
  "æĸ¯": 977,
  "è¯ģ": 978,
  "å±±": 979,
  "åįĹ": 980,
  "åħ±": 981,
  "èĬĤ": 982,
  "ç¤º": 983,
  "æ²¡": 984,
  "ave": 985,
  "äº§åĵģ": 986,
  "ä¼ĺ": 987,
  "ĠG": 988,
  "åŁİ": 989,
  "åģļ": 990,
  "pe": 991,
  "æĥ³": 992,
  "ä»·": 993,
  "åĻ¨": 994,
  "æĬķ": 995,
  "port": 996,
  "å¸Ī": 997,
  "èĲ¥": 998,
  "åħĪ": 999,
  "å·±": 1000,
  "å¸ĥ": 1001,
  "ind": 1002,
  "Ġle": 1003,
  "æģ¯": 1004,
  "Ġnot": 1005,
  "åĮĹ": 1006,
  "int": 1007,
  "æĿ¡": 1008,
  "è®¤": 1009,
  "åĽ½å®¶": 1010,
  "éĢī": 1011,
  "æŀĦ": 1012,
  "Ġch": 1013,
  "ç©¶": 1014,
  "cl": 1015,
  "å²": 1016,
  "æ¼": 1017,
  "åı°": 1018,
  "åıĸ": 1019,
  "å®Į": 1020,
  "èĢĥ": 1021,
  "all": 1022,
  "èĩªå·±": 1023,
  "å½¢": 1024,
  "é»": 1025,
  "##": 1026,
  "è®©": 1027,
  "åĽ¢": 1028,
  "æ®": 1029,
  "ä¹¦": 1030,
  "è°ĥ": 1031,
  "ions": 1032,
  "age": 1033,
  "è¾ĥ": 1034,
  "æİ¨": 1035,
  "Ġ3": 1036,
  "åĩĨ": 1037,
  "åĶ": 1038,
  "å°ĳ": 1039,
  "åıª": 1040,
  "19": 1041,
  "ç²¾": 1042,
  "The": 1043,
  "èĻ": 1044,
  "Ġun": 1045,
  "åı£": 1046,
  "æ³¨": 1047,
  "æĮĩ": 1048,
  "éĤ£": 1049,
  "åĪ«": 1050,
  "è¯¥": 1051,
  "12": 1052,
  ").": 1053,
  "æĪ·": 1054,
  "åĮħ": 1055,
  "æ¯ı": 1056,
  "åĬŀ": 1057,
  "nd": 1058,
  "éĻħ": 1059,
  "for": 1060,
  "æĸ½": 1061,
  "are": 1062,
  "åħī": 1063,
  "202": 1064,
  "æĶ¹": 1065,
  "è´¹": 1066,
  "éĿŀ": 1067,
  "åĽŀ": 1068,
  "Ġim": 1069,
  "çłĶç©¶": 1070,
  "åıĤ": 1071,
  "çĥŃ": 1072,
  "ud": 1073,
  "ä½¿çĶ¨": 1074,
  "ext": 1075,
  "å¸¦": 1076,
  "æĶ¯": 1077,
  "Ġthis": 1078,
  "å®¹": 1079,
  "ï¼Ł": 1080,
  "Ġwas": 1081,
  "çĽ´": 1082,
  "å°Ķ": 1083,
  "ust": 1084,
  "æ·±": 1085,
  "è¿ĳ": 1086,
  "çĸĹ": 1087,
  "è§Ĥ": 1088,
  "çħ": 1089,
  "to": 1090,
  "æĶ¾": 1091,
  "èİ·": 1092,
  "åĽĽ": 1093,
  "æ¨": 1094,
  "ĉĉ": 1095,
  "out": 1096,
  "å¸Ĥåľº": 1097,
  "ä»Ĭ": 1098,
  "é¡¹çĽ®": 1099,
  "è§Ĩ": 1100,
  "Ġyou": 1101,
  "ĠO": 1102,
  "åĨ³": 1103,
  "å¢ĥ": 1104,
  "æ¢": 1105,
  "ip": 1106,
  "200": 1107,
  "æĪĺ": 1108,
  "ç»Ń": 1109,
  "èĢģ": 1110,
  "å®ĥ": 1111,
  "ç©º": 1112,
  "åĬ©": 1113,
  "Ġhave": 1114,
  "Ġ0": 1115,
  "è®°": 1116,
  "ug": 1117,
  "æĹ¶éĹ´": 1118,
  "é£Ł": 1119,
  "éĻĲ": 1120,
  "çĬ": 1121,
  "ost": 1122,
  "ç¡®": 1123,
  "æķ´": 1124,
  "one": 1125,
  "Ġk": 1126,
  "âĢĶ": 1127,
  "éŁ": 1128,
  "ere": 1129,
  "æīį": 1130,
  "æīĵ": 1131,
  "è¯ķ": 1132,
  "å¤į": 1133,
  "ome": 1134,
  "éĢļè¿ĩ": 1135,
  "æ¸¸": 1136,
  "è£ħ": 1137,
  "å®¢": 1138,
  "å¾·": 1139,
  "èģĮ": 1140,
  "çİĩ": 1141,
  "__": 1142,
  "ä½İ": 1143,
  "Ġsh": 1144,
  "éªĮ": 1145,
  "Ġse": 1146,
  "æĺĵ": 1147,
  "per": 1148,
  "æĤ": 1149,
  "ich": 1150,
  "åĬŁ": 1151,
  "è½¬": 1152,
  "ical": 1153,
  "Ġtr": 1154,
  "11": 1155,
  "æŃ¥": 1156,
  "å±Ģ": 1157,
  "çĶŁäº§": 1158,
  "æ²¡æľī": 1159,
  "è±": 1160,
  "éĺ²": 1161,
  "åı·": 1162,
  "ç¥ŀ": 1163,
  "éĢŁ": 1164,
  "ä¹Ĳ": 1165,
  "æĬ¤": 1166,
  "æķĻèĤ²": 1167,
  "é¦ĸ": 1168,
  "ç»Ļ": 1169,
  "çº¦": 1170,
  "ff": 1171,
  "ç§°": 1172,
  "ard": 1173,
  "åįİ": 1174,
  "æ¶Ī": 1175,
  "ä¸ĵä¸ļ": 1176,
  "ated": 1177,
  "åĳĬ": 1178,
  "ç»´": 1179,
  "ib": 1180,
  "è¶ħ": 1181,
  "ans": 1182,
  "æľª": 1183,
  "é¥": 1184,
  "è®º": 1185,
  "æ¸ħ": 1186,
  "æµĭ": 1187,
  "è¯·": 1188,
  "ile": 1189,
  "å»ºè®¾": 1190,
  "æµİ": 1191,
  "æıĲä¾Ľ": 1192,
  "æĿĲ": 1193,
  "ç§¯": 1194,
  "ä»ĸä»¬": 1195,
  "äº¿": 1196,
  "ata": 1197,
  "è®®": 1198,
  "å¿«": 1199,
  "åĨį": 1200,
  "act": 1201,
  "ell": 1202,
  "):": 1203,
  "æ¨¡": 1204,
  "ç´ł": 1205,
  "åįĩ": 1206,
  "è®¾è®¡": 1207,
  "æł¹": 1208,
  "è§ģ": 1209,
  "let": 1210,
  "ä¸ĸçķĮ": 1211,
  "åĪĴ": 1212,
  "åħ»": 1213,
  "å·ŀ": 1214,
  "å¡": 1215,
  "éĹ®é¢ĺ": 1216,
  "éľĢè¦ģ": 1217,
  "Ġ[": 1218,
  "con": 1219,
  "ber": 1220,
  "å§Ķ": 1221,
  "Ġen": 1222,
  "å¤´": 1223,
  "\\[": 1224,
  "äºļ": 1225,
  "æĿĥ": 1226,
  "è¶Ĭ": 1227,
  "åĢ¼": 1228,
  "ast": 1229,
  "çľŁ": 1230,
  "å¼ķ": 1231,
  "ĠU": 1232,
  "ç³»ç»Ł": 1233,
  "ä¿¡æģ¯": 1234,
  "åŁŁ": 1235,
  "å·¥ç¨ĭ": 1236,
  "åİĨ": 1237,
  "Ġpl": 1238,
  "è¯Ĩ": 1239,
  "ack": 1240,
  "Ġwor": 1241,
  "ç«Ļ": 1242,
  "der": 1243,
  "æ¹": 1244,
  "é©¬": 1245,
  "è¶³": 1246,
  "ä¸»è¦ģ": 1247,
  "ç¤¾ä¼ļ": 1248,
  "åĵį": 1249,
  "å¥³": 1250,
  "able": 1251,
  "å£«": 1252,
  "è´£": 1253,
  "æİ§": 1254,
  "èĩ´": 1255,
  "æ¡Ī": 1256,
  "æŁ¥": 1257,
  "é¢Ħ": 1258,
  "æŀģ": 1259,
  "ç»ıæµİ": 1260,
  "ä½ķ": 1261,
  "äºĶ": 1262,
  "å§ĭ": 1263,
  "ak": 1264,
  "Ġres": 1265,
  "æĢģ": 1266,
  "ould": 1267,
  "..": 1268,
  "tr": 1269,
  "åĳ¨": 1270,
  "çĶŁæ´»": 1271,
  "ide": 1272,
  "Ġsp": 1273,
  "æİĴ": 1274,
  "Ġj": 1275,
  "ther": 1276,
  "lo": 1277,
  "çīĩ": 1278,
  "å¤§åŃ¦": 1279,
  "åĪĻ": 1280,
  "Ġab": 1281,
  "ire": 1282,
  "çĪ±": 1283,
  "éĩĩ": 1284,
  "ach": 1285,
  "ä»¥åıĬ": 1286,
  "ä¸Ķ": 1287,
  "av": 1288,
  "èĤ¡": 1289,
  "50": 1290,
  "cc": 1291,
  "ction": 1292,
  "Ġwhe": 1293,
  "ĊĊĠĠĠĠ": 1294,
  "çĭ": 1295,
  "åħĭ": 1296,
  "ps": 1297,
  "æ¸©": 1298,
  "åĨľ": 1299,
  "Ġ4": 1300,
  "åĨµ": 1301,
  "å°±æĺ¯": 1302,
  "----": 1303,
  "åĪĹ": 1304,
  "ice": 1305,
  "æĺ¾": 1306,
  "èĬ±": 1307,
  "åıį": 1308,
  "ç±³": 1309,
  "æĳ": 1310,
  "arg": 1311,
  "è¡Įä¸ļ": 1312,
  "åįı": 1313,
  "Ġall": 1314,
  "èīº": 1315,
  "åŃĺ": 1316,
  "ok": 1317,
  "str": 1318,
  "ath": 1319,
  "æ£Ģ": 1320,
  "éĻ¤": 1321,
  "Ġne": 1322,
  "ä¼Ĺ": 1323,
  "ia": 1324,
  "æĤ£": 1325,
  "èĮĥ": 1326,
  "å¿ħ": 1327,
  "Ġwhich": 1328,
  "èį¯": 1329,
  "åĽ¾": 1330,
  "æĸŃ": 1331,
  "æ¼Ķ": 1332,
  ");": 1333,
  "èĳ": 1334,
  "ï¼ģ": 1335,
  "ç¢": 1336,
  "ä¹ł": 1337,
  "urn": 1338,
  "Ġ'": 1339,
  "æĪ¿": 1340,
  "èŀ": 1341,
  "ase": 1342,
  "ations": 1343,
  "å±ŀ": 1344,
  "âĢĿï¼Į": 1345,
  "åŃĹ": 1346,
  "å¦Ĥæŀľ": 1347,
  "ount": 1348,
  "ime": 1349,
  "com": 1350,
  "Ġad": 1351,
  "ress": 1352,
  "ĠJ": 1353,
  "éħį": 1354,
  "du": 1355,
  "30": 1356,
  "éĶĢ": 1357,
  "ents": 1358,
  "åºľ": 1359,
  "éļ¾": 1360,
  "æ±Ł": 1361,
  "}$": 1362,
  "æĸĩåĮĸ": 1363,
  "çħ§": 1364,
  "çļĦäºº": 1365,
  "åİĭ": 1366,
  "çĬ¶": 1367,
  "å®īåħ¨": 1368,
  "Ġcomp": 1369,
  "ong": 1370,
  "æ´»åĬ¨": 1371,
  "'s": 1372,
  "Ġcont": 1373,
  "ance": 1374,
  "çİ¯å¢ĥ": 1375,
  "éĢĤ": 1376,
  "æĬĬ": 1377,
  "åģ¥": 1378,
  "ĠIn": 1379,
  "åıĪ": 1380,
  "``": 1381,
  "è¯Ń": 1382,
  "form": 1383,
  "Ġwill": 1384,
  "åĲĮæĹ¶": 1385,
  "éĩįè¦ģ": 1386,
  "éļı": 1387,
  "\\]": 1388,
  "åĽ½éĻħ": 1389,
  "åŃ£": 1390,
  "çļ®": 1391,
  "ft": 1392,
  "æĸ¹éĿ¢": 1393,
  "å½±åĵį": 1394,
  "èı": 1395,
  "alue": 1396,
  "åı¯èĥ½": 1397,
  "æħ": 1398,
  "çª": 1399,
  "äº¬": 1400,
  "ype": 1401,
  "æ²¹": 1402,
  "ç»ĩ": 1403,
  "ä¾ĭ": 1404,
  "çı": 1405,
  "ç¦»": 1406,
  "åĬ¿": 1407,
  "èħ": 1408,
  "ç»Ĩ": 1409,
  "åħļ": 1410,
  "æĻ¯": 1411,
  "ign": 1412,
  "åį³": 1413,
  "ary": 1414,
  "è¿ŀ": 1415,
  "so": 1416,
  "000": 1417,
  "æĻº": 1418,
  "ãĢĤâĢĿ": 1419,
  "åĽłä¸º": 1420,
  "ä»Ģ": 1421,
  "æĢĿ": 1422,
  "rt": 1423,
  "æľĽ": 1424,
  "åĦ": 1425,
  "è®¾å¤ĩ": 1426,
  "ä¹ī": 1427,
  "æĭī": 1428,
  "\"\"": 1429,
  "ä¸Ńå¿ĥ": 1430,
  "è¯Ħ": 1431,
  "æĪĲä¸º": 1432,
  "æŀĹ": 1433,
  "åĭ": 1434,
  "Ġper": 1435,
  "è¯Ŀ": 1436,
  "çĽ¸åħ³": 1437,
  "Ġtheir": 1438,
  "ual": 1439,
  "ä»½": 1440,
  "æĴ": 1441,
  "æļ": 1442,
  "ous": 1443,
  "ĠTh": 1444,
  "åħ·æľī": 1445,
  "Ġ$\\": 1446,
  "åĩł": 1447,
  "Ġnum": 1448,
  "æ²»çĸĹ": 1449,
  "æ»¡": 1450,
  "è®¸": 1451,
  "é¾": 1452,
  "Ġself": 1453,
  "Ġhas": 1454,
  "Ġdo": 1455,
  "äº§ä¸ļ": 1456,
  "pro": 1457,
  "ens": 1458,
  "æķ°æį®": 1459,
  "éĻį": 1460,
  "Ġcl": 1461,
  "èĭ±": 1462,
  "åº·": 1463,
  "ild": 1464,
  "åĽŃ": 1465,
  "ite": 1466,
  "ear": 1467,
  "è¿Ļä¸ª": 1468,
  "ence": 1469,
  "Ġyour": 1470,
  "æ®µ": 1471,
  "Ġx": 1472,
  "ç½®": 1473,
  "çŁ³": 1474,
  "15": 1475,
  "ä¾Ŀ": 1476,
  "åĳ½": 1477,
  "æī¿": 1478,
  "çīĮ": 1479,
  "æĺ¯ä¸Ģ": 1480,
  "æĶ¿åºľ": 1481,
  "ace": 1482,
  "ail": 1483,
  "ition": 1484,
  "ä»ħ": 1485,
  "éŁ³": 1486,
  "use": 1487,
  "å¥¹": 1488,
  "ä»Ģä¹Ī": 1489,
  "ä¾¿": 1490,
  "å¹²": 1491,
  "æĬķèµĦ": 1492,
  "çļĦä¸Ģ": 1493,
  "ãģ": 1494,
  "è´Ł": 1495,
  "ä½ľä¸º": 1496,
  "çĮ": 1497,
  "åĦ¿": 1498,
  "åĶ®": 1499,
  "å¥ĸ": 1500,
  "çĻ¾": 1501,
  "çĽĳ": 1502,
  "èĥ½åĬĽ": 1503,
  "åı²": 1504,
  "èŀį": 1505,
  "æł¸": 1506,
  "18": 1507,
  "16": 1508,
  "ç§ĳæĬĢ": 1509,
  "éĿĴ": 1510,
  "\",": 1511,
  "æĥħåĨµ": 1512,
  "åİ¿": 1513,
  "åħ¶ä»ĸ": 1514,
  "æĿ¿": 1515,
  "åĥ": 1516,
  "çĽĬ": 1517,
  "ç®Ĺ": 1518,
  "åĩı": 1519,
  "ake": 1520,
  "ize": 1521,
  "ord": 1522,
  "è±¡": 1523,
  "ä¸įåĲĮ": 1524,
  "ater": 1525,
  "ert": 1526,
  "Â·": 1527,
  "å±Ĥ": 1528,
  "Ġap": 1529,
  "ç½Ĺ": 1530,
  "äººåĳĺ": 1531,
  "è¨": 1532,
  "åĢĻ": 1533,
  "æĿĳ": 1534,
  "èĲ½": 1535,
  "ry": 1536,
  "^{": 1537,
  "è¦ģæ±Ĥ": 1538,
  "å¤ª": 1539,
  "ep": 1540,
  "å·²ç»ı": 1541,
  "ret": 1542,
  "åĿĩ": 1543,
  "def": 1544,
  "ject": 1545,
  "è¨Ģ": 1546,
  "å®¤": 1547,
  "æĮī": 1548,
  "æĭ¬": 1549,
  "ä¿®": 1550,
  "åŁ¹": 1551,
  "row": 1552,
  "ä¸ŃçļĦ": 1553,
  "ĠV": 1554,
  "ĠĠĠĠĠĠĠĠĠĠĠĠĠĠĠĠ": 1555,
  "ç»Ħç»ĩ": 1556,
  "å¼ł": 1557,
  "Ġone": 1558,
  "åĪĽæĸ°": 1559,
  "ode": 1560,
  "çŃĸ": 1561,
  "Ġthey": 1562,
  "ç¬¬ä¸Ģ": 1563,
  "vel": 1564,
  "è´¨éĩı": 1565,
  "(\"": 1566,
  "æĺŁ": 1567,
  "åĨĽ": 1568,
  "åħį": 1569,
  "ä½ı": 1570,
  "è¿ĻäºĽ": 1571,
  "æ¬¾": 1572,
  "Ġdis": 1573,
  "å¾Ģ": 1574,
  "ä¸¾": 1575,
  "bo": 1576,
  "éĤ": 1577,
  "å¤±": 1578,
  "ge": 1579,
  "å¤ĦçĲĨ": 1580,
  "ple": 1581,
  "uch": 1582,
  "éĵ¶": 1583,
  "çİĭ": 1584,
  "Ġmore": 1585,
  "ç§ĳåŃ¦": 1586,
  "å¥½çļĦ": 1587,
  "Ġman": 1588,
  "åºĶçĶ¨": 1589,
  "ory": 1590,
  "åĥı": 1591,
  "çĽ®åīį": 1592,
  "çĶ³": 1593,
  "ä¸¥": 1594,
  "åĮħæĭ¬": 1595,
  "ç»Ī": 1596,
  "Ġstr": 1597,
  "eg": 1598,
  "çŃĳ": 1599,
  "çº¢": 1600,
  "Ġout": 1601,
  "åŃ¦çĶŁ": 1602,
  "å¤§çļĦ": 1603,
  "å¢ŀéķ¿": 1604,
  "ms": 1605,
  "éĺ³": 1606,
  "åĪĩ": 1607,
  "å¾®": 1608,
  "over": 1609,
  "åįļ": 1610,
  "åĽ´": 1611,
  "Ġother": 1612,
  "å¨": 1613,
  "çģ«": 1614,
  "æĤ£èĢħ": 1615,
  "åĲ«": 1616,
  "Ġqu": 1617,
  "åħ¶ä¸Ń": 1618,
  "æł¹æį®": 1619,
  "äººçļĦ": 1620,
  "åľŁ": 1621,
  "å¤Ł": 1622,
  "äºĴ": 1623,
  "æ²³": 1624,
  "25": 1625,
  "text": 1626,
  "æľīéĻĲ": 1627,
  "åıĭ": 1628,
  "Ġup": 1629,
  "èİ·å¾Ĺ": 1630,
  "$,": 1631,
  "æīĢä»¥": 1632,
  "èµ°": 1633,
  "è¯¾": 1634,
  "äººæ°ĳ": 1635,
  "åı¤": 1636,
  "å®¡": 1637,
  "åįķä½į": 1638,
  "14": 1639,
  "åŁİå¸Ĥ": 1640,
  "Ġint": 1641,
  "own": 1642,
  "æĻ®": 1643,
  "ors": 1644,
  "åħħ": 1645,
  "Ġ&": 1646,
  "å¼Ģå§ĭ": 1647,
  "put": 1648,
  "æĲ": 1649,
  "ra": 1650,
  "ks": 1651,
  "ç®Ģ": 1652,
  "Ġso": 1653,
  "Ġ**": 1654,
  "âĢĿãĢĤ": 1655,
  "ãĥ": 1656,
  "Ġ19": 1657,
  "åĲĪä½ľ": 1658,
  "ä»¥ä¸Ĭ": 1659,
  "å¯Į": 1660,
  "è¿ľ": 1661,
  "éĥ¨åĪĨ": 1662,
  "Ġ5": 1663,
  "Ġbut": 1664,
  "ĠK": 1665,
  "_{": 1666,
  "åıĮ": 1667,
  "æłĩåĩĨ": 1668,
  "13": 1669,
  "äºī": 1670,
  "ĠâĢľ": 1671,
  "get": 1672,
  "å·´": 1673,
  "åĸĦ": 1674,
  "å¿µ": 1675,
  "åĩºçİ°": 1676,
  "éĿŀå¸¸": 1677,
  "æĭ©": 1678,
  "ĠSt": 1679,
  "ç¨İ": 1680,
  "å®ŀçİ°": 1681,
  "å¾Īå¤ļ": 1682,
  "Ġsc": 1683,
  "å¯¹äºİ": 1684,
  "éĻ©": 1685,
  "60": 1686,
  "åħ¨åĽ½": 1687,
  "å»ºçŃĳ": 1688,
  "çº³": 1689,
  "æĿĲæĸĻ": 1690,
  "éħĴ": 1691,
  "è¡Ģ": 1692,
  "èī¯": 1693,
  "',": 1694,
  "æ±½": 1695,
  "åĪĿ": 1696,
  "æĹ©": 1697,
  "Ġwere": 1698,
  "åŃ¦æł¡": 1699,
  "erv": 1700,
  "å½ķ": 1701,
  "è§Ĵ": 1702,
  "pub": 1703,
  "ys": 1704,
  "æĸ¹å¼ı": 1705,
  "çīĪ": 1706,
  "åįĬ": 1707,
  "oint": 1708,
  "Ġalso": 1709,
  "å¯Ĩ": 1710,
  "æķħ": 1711,
  "))": 1712,
  "Ġro": 1713,
  "ç¾¤": 1714,
  "éĽĨåĽ¢": 1715,
  "å¾ĭ": 1716,
  "ä¹Łæĺ¯": 1717,
  "Ġ*": 1718,
  "ref": 1719,
  "In": 1720,
  "und": 1721,
  "é»Ħ": 1722,
  "åŃ¦ä¹ł": 1723,
  "å£°": 1724,
  "Ġme": 1725,
  "17": 1726,
  "ely": 1727,
  "ie": 1728,
  "è¡¨ç¤º": 1729,
  "é¦Ļ": 1730,
  "éĢīæĭ©": 1731,
  "ç¦ı": 1732,
  "low": 1733,
  "ient": 1734,
  "æ¸¯": 1735,
  "è§Ħå®ļ": 1736,
  "æĭĽ": 1737,
  "ound": 1738,
  "ä¸ªäºº": 1739,
  "åĿļ": 1740,
  "æĹħ": 1741,
  "åħ°": 1742,
  "è¿ĩç¨ĭ": 1743,
  "ict": 1744,
  "éĴ¢": 1745,
  "Ġev": 1746,
  "çĻ½çĻ": 1747,
  "://": 1748,
  "å±ħ": 1749,
  "åħ´": 1750,
  "ľé£İ": 1751,
  "ree": 1752,
  "ays": 1753,
  "ĊĠĠĠĠĠĠĠĠĠĠĠĠĠĠĠĠĠĠĠĠ": 1754,
  "è§ī": 1755,
  "çĻ½çĻľé£İ": 1756,
  "irst": 1757,
  "æıĲé«ĺ": 1758,
  "çĶ»": 1759,
  "red": 1760,
  "Ġcomm": 1761,
  "ood": 1762,
  "åĽłæŃ¤": 1763,
  "æī¹": 1764,
  "åī§": 1765,
  "ose": 1766,
  "è¿Ļæł·": 1767,
  "ç¾İåĽ½": 1768,
  "ç¯": 1769,
  "Ġpart": 1770,
  "è´¢": 1771,
  "åį«": 1772,
  "è½»": 1773,
  "åł": 1774,
  "ãĢĢ": 1775,
  "ç»ľ": 1776,
  "ä¸ĢäºĽ": 1777,
  "é¢ĨåŁŁ": 1778,
  "ob": 1779,
  "åį¡": 1780,
  "ç¼ĸ": 1781,
  "iff": 1782,
  "ates": 1783,
  "éĵģ": 1784,
  "name": 1785,
  "æ¥": 1786,
  "é¾Ļ": 1787,
  "æŃ¢": 1788,
  "Ġ\\)": 1789,
  "åİĤ": 1790,
  "è´Ń": 1791,
  "å¿Ĺ": 1792,
  "åįł": 1793,
  "èĮ¶": 1794,
  "æľīéĻĲåħ¬åı¸": 1795,
  "Ġif": 1796,
  "eth": 1797,
  "](": 1798,
  "ax": 1799,
  "äº¿åħĥ": 1800,
  "å¸Į": 1801,
  "ings": 1802,
  "æŁĵ": 1803,
  "çĭ¬": 1804,
  "è®Ń": 1805,
  "åģ¥åº·": 1806,
  "we": 1807,
  "æĺ¥": 1808,
  "æľºæŀĦ": 1809,
  "ond": 1810,
  "é¡»": 1811,
  "é¢Ŀ": 1812,
  "sq": 1813,
  "å°½": 1814,
  "è¾¹": 1815,
  "å¤§å®¶": 1816,
  "åŃ¦éĻ¢": 1817,
  "éĺ¿": 1818,
  "æĪĸèĢħ": 1819,
  "ces": 1820,
  "Ġ<": 1821,
  "æĸ¹æ³ķ": 1822,
  "å¼Ģåıĳ": 1823,
  "å·¥ä¸ļ": 1824,
  "Ġsy": 1825,
  "èĩªå·±çļĦ": 1826,
  "åºķ": 1827,
  "èµĦæºĲ": 1828,
  "éĥ¨éĹ¨": 1829,
  "ove": 1830,
  "æ³¢": 1831,
  "åŁºç¡": 1832,
  "vers": 1833,
  "æ¿": 1834,
  "åĪ°äºĨ": 1835,
  "çºª": 1836,
  "ä¸įæĺ¯": 1837,
  "æ¬§": 1838,
  "åŁºç¡Ģ": 1839,
  "çļĦæĺ¯": 1840,
  "åĮĹäº¬": 1841,
  "è®²": 1842,
  "ç«ŀ": 1843,
  "åį´": 1844,
  "24": 1845,
  "åıĳçĶŁ": 1846,
  "æĭħ": 1847,
  "rib": 1848,
  "Ġar": 1849,
  "èĪ¬": 1850,
  "Ġnumber": 1851,
  "Ġinto": 1852,
  "åį°": 1853,
  "æī§": 1854,
  "åľ°åĮº": 1855,
  "2022": 1856,
  "ä½Ĩæĺ¯": 1857,
  "Ġstud": 1858,
  "ç¨³": 1859,
  "åĳ³": 1860,
  "èģļ": 1861,
  "ï¼ļâĢľ": 1862,
  "åĨĻ": 1863,
  "æĹ¶åĢĻ": 1864,
  "çĵ": 1865,
  "ä½Ļ": 1866,
  "ä»ĭ": 1867,
  "å¹´çļĦ": 1868,
  "è¾ĵ": 1869,
  "èĥ½å¤Ł": 1870,
  "æĤ¨": 1871,
  "right": 1872,
  "ph": 1873,
  "ä½ľçĶ¨": 1874,
  "ä¸įæĸŃ": 1875,
  "æĪı": 1876,
  "èĴ": 1877,
  "sqrt": 1878,
  "çĸ«": 1879,
  "åĨħå®¹": 1880,
  "Ġ->": 1881,
  "çķĻ": 1882,
  "å¹³åı°": 1883,
  "é¡µ": 1884,
  "æ¬¢": 1885,
  "ä¸Ģå®ļ": 1886,
  "å°¼": 1887,
  "ç»§": 1888,
  "ç¬¬äºĮ": 1889,
  "æ¯ĶèµĽ": 1890,
  "æīĢæľī": 1891,
  "Ġtw": 1892,
  "$.": 1893,
  "Ġequ": 1894,
  "io": 1895,
  "ock": 1896,
  "åı¦": 1897,
  "æ¿Ģ": 1898,
  "ç½ĳç»ľ": 1899,
  "å®ĮæĪĲ": 1900,
  "Ġthan": 1901,
  "Ġuse": 1902,
  "erm": 1903,
  "æ¦": 1904,
  "èĪª": 1905,
  "åīĤ": 1906,
  "åŃ©": 1907,
  "é²": 1908,
  "äºĳ": 1909,
  "å¥¥": 1910,
  "è¯»": 1911,
  "åºĹ": 1912,
  "çĶ³è¯·": 1913,
  "Ġneed": 1914,
  "2021": 1915,
  "lect": 1916,
  "Ġwhen": 1917,
  "æ¤": 1918,
  "å®³": 1919,
  "çīĽ": 1920,
  "åĨł": 1921,
  "Ċĉĉ": 1922,
  "ror": 1923,
  "ãĤ": 1924,
  "rap": 1925,
  "imes": 1926,
  "==": 1927,
  "çıŃ": 1928,
  "åĲ¸": 1929,
  "ll": 1930,
  "åī¯": 1931,
  "ĠThis": 1932,
  "æĵ": 1933,
  "ool": 1934,
  "åĸľ": 1935,
  "ä¸´": 1936,
  "çł´": 1937,
  "çİ°åľ¨": 1938,
  "reat": 1939,
  "32": 1940,
  "äºĨè§£": 1941,
  "ç»¼": 1942,
  "è¡¥": 1943,
  "Ġexp": 1944,
  "Ġbec": 1945,
  "åĬŁèĥ½": 1946,
  "è®¡åĪĴ": 1947,
  "æ±½è½¦": 1948,
  "åħ¨çĲĥ": 1949,
  "åĤ": 1950,
  "çĶ±äºİ": 1951,
  "Ġimport": 1952,
  "æľīåħ³": 1953,
  "Ġpos": 1954,
  "éļľ": 1955,
  "ish": 1956,
  "Ġpe": 1957,
  "è´§": 1958,
  "æ¹ĸ": 1959,
  "ption": 1960,
  "äº«": 1961,
  "å²ģ": 1962,
  "æĿİ": 1963,
  "Ġtime": 1964,
  "Ġcol": 1965,
  "ĊĊĠĠĠĠĠĠĠĠ": 1966,
  "80": 1967,
  "æ½": 1968,
  "çªģ": 1969,
  "ange": 1970,
  "éħ¸": 1971,
  "çľ¼": 1972,
  "ific": 1973,
  "htt": 1974,
  "åħŃ": 1975,
  "return": 1976,
  "Ġabout": 1977,
  "æĽ¾": 1978,
  "par": 1979,
  "Ġnew": 1980,
  "åĵģçīĮ": 1981,
  "çķ¥": 1982,
  "ï¼īï¼Į": 1983,
  "çĹĩ": 1984,
  "ĠCh": 1985,
  "çĨ": 1986,
  "åº§": 1987,
  "çĻ»": 1988,
  "éĢģ": 1989,
  "che": 1990,
  "éĴŁ": 1991,
  "å®£": 1992,
  "ook": 1993,
  "å®¢æĪ·": 1994,
  "ren": 1995,
  "very": 1996,
  "å¸®": 1997,
  "æ±¡": 1998,
  "äº²": 1999,
  "Ġkn": 2000,
  "its": 2001,
  "Ġ6": 2002,
  "pr": 2003,
  "tern": 2004,
  "Ġcons": 2005,
  "åĬ³": 2006,
  "ç¿": 2007,
  "les": 2008,
  "æĭ¥": 2009,
  "40": 2010,
  "ĠIt": 2011,
  "éĥ½æĺ¯": 2012,
  "ian": 2013,
  "å®ĺ": 2014,
  "ä¸ļåĬ¡": 2015,
  "rit": 2016,
  "åıĳçİ°": 2017,
  "stem": 2018,
  "ons": 2019,
  "åĮ»éĻ¢": 2020,
  "æ´²": 2021,
  "ram": 2022,
  "åĽ½åĨħ": 2023,
  "Ġfind": 2024,
  "Ġwork": 2025,
  "ä¹¡": 2026,
  "ä¼¤": 2027,
  "ning": 2028,
  "Ġthese": 2029,
  "Ġwho": 2030,
  "åİĨåı²": 2031,
  "åºı": 2032,
  "ç»¿": 2033,
  "key": 2034,
  "å¾ģ": 2035,
  "è®¤ä¸º": 2036,
  "%ï¼Į": 2037,
  "ĊĠĠ": 2038,
  "éľĢæ±Ĥ": 2039,
  "Ġget": 2040,
  "è¿Ļç§į": 2041,
  "é»ĳ": 2042,
  "ric": 2043,
  "å·®": 2044,
  "ç£": 2045,
  "èĥľ": 2046,
  "æĪĳåĽ½": 2047,
  "Ġdiff": 2048,
  "oth": 2049,
  "æĹı": 2050,
  "çĶµåŃĲ": 2051,
  "åĩ»": 2052,
  "åĪ¶éĢł": 2053,
  "Ġthere": 2054,
  "æĶ¿çŃĸ": 2055,
  "ä¿ĿæĬ¤": 2056,
  "æŀĲ": 2057,
  "from": 2058,
  "Ġbet": 2059,
  "Ġ`": 2060,
  "ç«ł": 2061,
  "iven": 2062,
  "æ¶²": 2063,
  "éķĩ": 2064,
  "Th": 2065,
  "æİ§åĪ¶": 2066,
  "odel": 2067,
  "ç»©": 2068,
  "iss": 2069,
  "æį¢": 2070,
  "ç²¾ç¥ŀ": 2071,
  "Ġform": 2072,
  "å¼Ĥ": 2073,
  "Ġli": 2074,
  "ç«¯": 2075,
  "è½½": 2076,
  "100": 2077,
  "æľªæĿ¥": 2078,
  "åįĥ": 2079,
  "èīºæľ¯": 2080,
  "è½®": 2081,
  "å¢ŀåĬł": 2082,
  "%ãĢĤ": 2083,
  "èĭı": 2084,
  "çĸ¾": 2085,
  "ä¹ĭåĲİ": 2086,
  "ä¸įèĥ½": 2087,
  "é¦Ĩ": 2088,
  "çĶ·": 2089,
  "ä»£è¡¨": 2090,
  "ener": 2091,
  "åĲĥ": 2092,
  "æıĲåįĩ": 2093,
  "ĠâĢ": 2094,
  "Ġ10": 2095,
  "ç»ĵæŀĦ": 2096,
  "ark": 2097,
  "å°Ħ": 2098,
  "Ġmay": 2099,
  "Ġhis": 2100,
  "é¢ĳ": 2101,
  "ugh": 2102,
  "Ġits": 2103,
  "Ġhow": 2104,
  "Ġfirst": 2105,
  "Ġset": 2106,
  "Ġacc": 2107,
  "ck": 2108,
  "èĻ½": 2109,
  "ä¹ĭä¸Ģ": 2110,
  "å±Ĭ": 2111,
  "Ġtwo": 2112,
  "Ġyear": 2113,
  "Ġact": 2114,
  "çĩ": 2115,
  "aw": 2116,
  "ä¸°": 2117,
  "ef": 2118,
  "æľ¨": 2119,
  "æĻºèĥ½": 2120,
  "èĩªçĦ¶": 2121,
  "Ġsup": 2122,
  "ç»ıèĲ¥": 2123,
  "xed": 2124,
  "Ġob": 2125,
  "ov": 2126,
  "æĶ¯æĮģ": 2127,
  "ause": 2128,
  "ç»¼åĲĪ": 2129,
  "cess": 2130,
  "ä»¤": 2131,
  "è¿ĺæĺ¯": 2132,
  "å¼Ģå±ķ": 2133,
  "ä¸įä¼ļ": 2134,
  "ç§Ģ": 2135,
  "Ġadd": 2136,
  "Ġpr": 2137,
  "å©": 2138,
  "Ġag": 2139,
  "éĿ©": 2140,
  "ä¸ĢæŃ¥": 2141,
  "ally": 2142,
  "ied": 2143,
  "ract": 2144,
  "ople": 2145,
  "æĬĹ": 2146,
  "cre": 2147,
  "olog": 2148,
  "ä¸ĢèĪ¬": 2149,
  "iel": 2150,
  "log": 2151,
  "æĴŃ": 2152,
  "å¥ĩ": 2153,
  "èĳĹ": 2154,
  "åĨ·": 2155,
  "æİĪ": 2156,
  "ech": 2157,
  "åĲ¦": 2158,
  "2020": 2159,
  "ä»į": 2160,
  "Ġthem": 2161,
  "Ġsome": 2162,
  "å¸ĮæľĽ": 2163,
  "Ġany": 2164,
  "ï¼ĮâĢľ": 2165,
  "Ġ|": 2166,
  "è§£åĨ³": 2167,
  "å¾ħ": 2168,
  "ç§¯æŀģ": 2169,
  "23": 2170,
  "Ġpre": 2171,
  "å®Ŀ": 2172,
  "90": 2173,
  "åıĳå¸ĥ": 2174,
  "æĸ°çļĦ": 2175,
  "ince": 2176,
  "Ġover": 2177,
  "åĪ©çĶ¨": 2178,
  "ä¿ĥ": 2179,
  "èģĮä¸ļ": 2180,
  "è´Łè´£": 2181,
  "ç§»": 2182,
  "ars": 2183,
  "è¿Ļä¸Ģ": 2184,
  "ĊĠĠĠĠĠĠĠĠĠĠĠĠĠĠĠĠĠĠĠĠĠĠĠĠ": 2185,
  "ä¸ºäºĨ": 2186,
  "è¿°": 2187,
  "atch": 2188,
  "æ°´å¹³": 2189,
  "æĮģç»Ń": 2190,
  "ä¸Ĭæµ·": 2191,
  "çŁŃ": 2192,
  "ari": 2193,
  "ng": 2194,
  "é¸": 2195,
  "Ġsuch": 2196,
  "ç´¢": 2197,
  "val": 2198,
  "æī¾": 2199,
  "çŁ¥è¯Ĩ": 2200,
  "æĭ¥æľī": 2201,
  "è½¯": 2202,
  "æ¯Ķè¾ĥ": 2203,
  "Ġsol": 2204,
  "Ġeach": 2205,
  "fig": 2206,
  "ible": 2207,
  "é£ŀ": 2208,
  "cd": 2209,
  "('": 2210,
  "ĠY": 2211,
  "ç»Ŀ": 2212,
  "ble": 2213,
  "æķĻåŃ¦": 2214,
  "ä¸ĬçļĦ": 2215,
  "app": 2216,
  "Ġind": 2217,
  "irc": 2218,
  "St": 2219,
  "Ġdes": 2220,
  "éĶĢåĶ®": 2221,
  "test": 2222,
  "angle": 2223,
  "ä¸ĩåħĥ": 2224,
  "åĪĨæŀĲ": 2225,
  "çĶ¨äºİ": 2226,
  "```": 2227,
  "æįŁ": 2228,
  "ick": 2229,
  "99": 2230,
  "èĹ": 2231,
  "22": 2232,
  "Ġno": 2233,
  "å¿ħé¡»": 2234,
  "ç¥¨": 2235,
  "uct": 2236,
  "âĢĶâĢĶ": 2237,
  "Ġbeen": 2238,
  "åħ¸": 2239,
  "æĽ´å¤ļ": 2240,
  "Ġ201": 2241,
  "Ġreg": 2242,
  "--------": 2243,
  "ise": 2244,
  "\")": 2245,
  "ç¬¬ä¸ī": 2246,
  "čĊ": 2247,
  "æīĺ": 2248,
  "\\)": 2249,
  "Ġrel": 2250,
  "çĶ¨æĪ·": 2251,
  "æ¶Īè´¹": 2252,
  "oug": 2253,
  "äº§çĶŁ": 2254,
  "åĩĢ": 2255,
  "Ġunder": 2256,
  "Ġfun": 2257,
  "åĲĦç§į": 2258,
  "ution": 2259,
  "iew": 2260,
  "(&": 2261,
  "enc": 2262,
  "åĲ¬": 2263,
  "ds": 2264,
  "ä¹°": 2265,
  "è¡ĮæĶ¿": 2266,
  "è¿ĺæľī": 2267,
  "å®ŀæĸ½": 2268,
  "Ġsub": 2269,
  "å³": 2270,
  "ä»Ĭå¹´": 2271,
  "æĦ¿": 2272,
  "Ġ7": 2273,
  "éĩĩçĶ¨": 2274,
  "åª": 2275,
  "æĿ¡ä»¶": 2276,
  "sh": 2277,
  "Ġdata": 2278,
  "ne": 2279,
  "Ġpoint": 2280,
  "çĶ²": 2281,
  "å¦Ĥä½ķ": 2282,
  "ä¼łç»Ł": 2283,
  "è¾¾åĪ°": 2284,
  "ink": 2285,
  "Ġass": 2286,
  "åĽº": 2287,
  "æŁĲ": 2288,
  "è´£ä»»": 2289,
  "æľīæķĪ": 2290,
  "åħ«": 2291,
  "åıĤåĬł": 2292,
  "type": 2293,
  "igh": 2294,
  "åħ³ç³»": 2295,
  "Ġem": 2296,
  "éĨ": 2297,
  "ä»·æł¼": 2298,
  "ss": 2299,
  "ues": 2300,
  "///": 2301,
  "æłĳ": 2302,
  "pos": 2303,
  "åŃ©åŃĲ": 2304,
  "äºĨä¸Ģ": 2305,
  "éļıçĿĢ": 2306,
  "èĢĮä¸Ķ": 2307,
  "data": 2308,
  "åģľ": 2309,
  "26": 2310,
  "ments": 2311,
  "èģĶç½ĳ": 2312,
  "è¿Ļæĺ¯": 2313,
  "å¯¼èĩ´": 2314,
  "ities": 2315,
  "Ġ8": 2316,
  "https": 2317,
  "çĽ®æłĩ": 2318,
  "ular": 2319,
  "velop": 2320,
  "ute": 2321,
  "read": 2322,
  "è¯ī": 2323,
  "Ġspec": 2324,
  "èĨ": 2325,
  "ative": 2326,
  "åŁºæľ¬": 2327,
  "è¶ħè¿ĩ": 2328,
  "rough": 2329,
  "ç»ĥ": 2330,
  "ating": 2331,
  "ility": 2332,
  "Ġpeople": 2333,
  "èĥ½æºĲ": 2334,
  "ä½Ľ": 2335,
  "åĪ»": 2336,
  "æĶ»": 2337,
  "ç³»åĪĹ": 2338,
  "éĤ£ä¹Ī": 2339,
  "Ġused": 2340,
  "æ¢°": 2341,
  "fter": 2342,
  "å¯Ł": 2343,
  "é¥®": 2344,
  "Ġinter": 2345,
  "27": 2346,
  "åıĸå¾Ĺ": 2347,
  "\":": 2348,
  "ç´§": 2349,
  "åħ³äºİ": 2350,
  "åºĵ": 2351,
  "\"\"\"": 2352,
  "ics": 2353,
  "Ġonly": 2354,
  "Ġam": 2355,
  "Ġtest": 2356,
  "åĵª": 2357,
  "éĢĲ": 2358,
  "çŁ¥éģĵ": 2359,
  "Ġprodu": 2360,
  "Ġrem": 2361,
  "ç¼º": 2362,
  "Ġincl": 2363,
  "çĮ®": 2364,
  "æ¯Ĵ": 2365,
  "eng": 2366,
  "æ¯ķ": 2367,
  "å¸®åĬ©": 2368,
  "hed": 2369,
  "åŃĺåľ¨": 2370,
  "28": 2371,
  "æ³¨æĦı": 2372,
  "æĿ¯": 2373,
  "Con": 2374,
  "æ¯į": 2375,
  "èĻ½çĦ¶": 2376,
  "Ġfe": 2377,
  "åıĤä¸İ": 2378,
  "Ġwould": 2379,
  "Ġmost": 2380,
  "éĩįçĤ¹": 2381,
  "æĸ¹æ¡Ī": 2382,
  "çĶŁçī©": 2383,
  "äºĪ": 2384,
  "æİ¢": 2385,
  "éģĩ": 2386,
  "Ġour": 2387,
  "æ¥¼": 2388,
  "æĿ¥çļĦ": 2389,
  "å½¢æĪĲ": 2390,
  "è¿½": 2391,
  "ĊĠĠĠĠĠ": 2392,
  "=\"": 2393,
  "éĩĳèŀį": 2394,
  "éĢı": 2395,
  "è¿Ľåħ¥": 2396,
  "è¿İ": 2397,
  "ade": 2398,
  "ä»ĺ": 2399,
  "åªĴ": 2400,
  "æ±ī": 2401,
  "æ¸¸æĪı": 2402,
  "the": 2403,
  "ä»»ä½ķ": 2404,
  "Ġmany": 2405,
  "çī¹åĪ«": 2406,
  "çĸ¾çĹħ": 2407,
  "Ġvalue": 2408,
  "ational": 2409,
  "é¡µç¬¬": 2410,
  "ä½³": 2411,
  "æĽ²": 2412,
  "Ġsim": 2413,
  "ä»ª": 2414,
  "åºŃ": 2415,
  "æī©": 2416,
  "å¤«": 2417,
  "èįī": 2418,
  "ä¸įä»ħ": 2419,
  "ç»į": 2420,
  "boxed": 2421,
  "ä¸Ģèµ·": 2422,
  "æ¤į": 2423,
  "assert": 2424,
  "cdot": 2425,
  "æĪĲåĬŁ": 2426,
  "çŃ¾": 2427,
  "åĨĮ": 2428,
  "æĬ¥åĳĬ": 2429,
  "åĪĨéĴŁ": 2430,
  "è§ĦåĪĴ": 2431,
  "Ġhad": 2432,
  "èį£": 2433,
  "åģĩ": 2434,
  "æŃ¦": 2435,
  "64": 2436,
  "ä¹ĭéĹ´": 2437,
  "2019": 2438,
  "ä»¥ä¸ĭ": 2439,
  "ork": 2440,
  "ä»·åĢ¼": 2441,
  "æŃ»": 2442,
  "é¼": 2443,
  "Ġdiffere": 2444,
  "sc": 2445,
  "çİ°ä»£": 2446,
  "èĭ¥": 2447,
  "çĽĸ": 2448,
  "âĢ¦": 2449,
  "å¾ĹåĪ°": 2450,
  "æĿ¥è¯´": 2451,
  "è¡Ĺ": 2452,
  "æĶ¶åħ¥": 2453,
  "Ġrec": 2454,
  "æ°§": 2455,
  "çłĶåıĳ": 2456,
  "ix": 2457,
  "äººæīį": 2458,
  "arch": 2459,
  "ç»§ç»Ń": 2460,
  "å®ģ": 2461,
  "21": 2462,
  "Ġprov": 2463,
  "äººä»¬": 2464,
  "round": 2465,
  "å½©": 2466,
  "è¿Ľä¸ĢæŃ¥": 2467,
  "alth": 2468,
  "çĶļ": 2469,
  "åı¶": 2470,
  "set": 2471,
  "æŃĮ": 2472,
  "å¤ı": 2473,
  "ä»ĸçļĦ": 2474,
  "vent": 2475,
  "åŁºéĩĳ": 2476,
  "Ġthrough": 2477,
  "ä¸ĥ": 2478,
  "åľ°æĸ¹": 2479,
  "inal": 2480,
  "value": 2481,
  "Ġchild": 2482,
  "ä½ľåĵģ": 2483,
  "åºĶè¯¥": 2484,
  "line": 2485,
  "ä¼¼": 2486,
  "Ġrequ": 2487,
  "Ġdi": 2488,
  "æĹ¥æľ¬": 2489,
  "å§Ķåĳĺ": 2490,
  "æĹħæ¸¸": 2491,
  "Ġwhere": 2492,
  "ffect": 2493,
  "ï¼īãĢĤ": 2494,
  "ä¼ļè®®": 2495,
  "éĺ¶": 2496,
  "çĽ´æİ¥": 2497,
  "è§Ħæ¨¡": 2498,
  "åĽ°": 2499,
  "è®¸å¤ļ": 2500,
  "Ġwhat": 2501,
  "Ġ/": 2502,
  "ween": 2503,
  "ĠUn": 2504,
  "èĵ": 2505,
  "æĻļ": 2506,
  "ON": 2507,
  "æĪĲç«ĭ": 2508,
  "çģµ": 2509,
  "}\\": 2510,
  "},": 2511,
  "new": 2512,
  "å®ŀéĻħ": 2513,
  "ages": 2514,
  "çłģ": 2515,
  "æĮ¥": 2516,
  "Ġdef": 2517,
  "å®Ī": 2518,
  "ä½ĵç³»": 2519,
  "uc": 2520,
  "åĳ¢": 2521,
  "å¥Ĺ": 2522,
  "Ġhel": 2523,
  "éĽ¶": 2524,
  "ethod": 2525,
  "Ġdec": 2526,
  "pon": 2527,
  "éĻĦ": 2528,
  "35": 2529,
  "Ġbu": 2530,
  "Ġsec": 2531,
  "è¿ĲåĬ¨": 2532,
  "åĨ²": 2533,
  "Ġthen": 2534,
  "æĽ´åĬł": 2535,
  "äº¤éĢļ": 2536,
  "å·¦": 2537,
  "åĲ¯": 2538,
  "èĮĥåĽ´": 2539,
  "mer": 2540,
  "ures": 2541,
  "æ¶¦": 2542,
  "ä¹ħ": 2543,
  "Ġte": 2544,
  "ä¸ĢçĽ´": 2545,
  "åĪ¤": 2546,
  "æıĲåĩº": 2547,
  "æĺ¾ç¤º": 2548,
  "æĪĳä»¬çļĦ": 2549,
  "æľŁéĹ´": 2550,
  "ä¿ĿæĮģ": 2551,
  "pect": 2552,
  "æ¨¡å¼ı": 2553,
  "å»¶": 2554,
  "è¯¢": 2555,
  "èĽ": 2556,
  "æ³Ľ": 2557,
  "Ġdist": 2558,
  "è®¯": 2559,
  "åı³": 2560,
  "ç»ĵåĲĪ": 2561,
  "ä»ĭç»į": 2562,
  "Ġfol": 2563,
  "å»ºç«ĭ": 2564,
  "éº": 2565,
  "é¡º": 2566,
  "çĶµå½±": 2567,
  "æĵį": 2568,
  "é£Łåĵģ": 2569,
  "ins": 2570,
  "ful": 2571,
  "####": 2572,
  "éĢłæĪĲ": 2573,
  "yp": 2574,
  "Ġval": 2575,
  "{\\": 2576,
  "æĿĤ": 2577,
  "éĵ¾": 2578,
  "åħ¨éĿ¢": 2579,
  "':": 2580,
  "ify": 2581,
  "ä¹Ŀ": 2582,
  "è·Ł": 2583,
  "éĶĻ": 2584,
  "ident": 2585,
  "ç²ī": 2586,
  "æľºæ¢°": 2587,
  "è®¢": 2588,
  "æĮīçħ§": 2589,
  "æľĢåĲİ": 2590,
  "orm": 2591,
  "te": 2592,
  "Ġbetween": 2593,
  "éĻĪ": 2594,
  "Ġ9": 2595,
  "åĽ¢éĺŁ": 2596,
  "Ġatt": 2597,
  "Ġpar": 2598,
  "åĬª": 2599,
  "ç½ĳç«Ļ": 2600,
  "è®¡ç®Ĺ": 2601,
  "roup": 2602,
  "als": 2603,
  "å¨ģ": 2604,
  "ists": 2605,
  "åºĶå½ĵ": 2606,
  "è´µ": 2607,
  "mut": 2608,
  "è¡Įä¸º": 2609,
  "åĺ": 2610,
  "left": 2611,
  "éĽ¨": 2612,
  "èıľ": 2613,
  "Ġtrans": 2614,
  "çļĦæĹ¶åĢĻ": 2615,
  "path": 2616,
  "ample": 2617,
  "Ġop": 2618,
  "éĴĪ": 2619,
  "],": 2620,
  "æĹ¶ä»£": 2621,
  "çļĦåıĳå±ķ": 2622,
  "èŃ": 2623,
  "#[": 2624,
  "åĤ¨": 2625,
  "åį±": 2626,
  "åĬłå¼º": 2627,
  "éĢĢ": 2628,
  "é¥°": 2629,
  "ç»ĵæŀľ": 2630,
  "70": 2631,
  "åħ¬å¼Ģ": 2632,
  "Ġsystem": 2633,
  "åİŁåĽł": 2634,
  "èĥĮ": 2635,
  "èĢĲ": 2636,
  "plic": 2637,
  "å®¹æĺĵ": 2638,
  "hen": 2639,
  "éŃ": 2640,
  "ä¼ĺåĬ¿": 2641,
  "ç«¥": 2642,
  "ature": 2643,
  "æĭ¿": 2644,
  "æ³ķå¾ĭ": 2645,
  "ubl": 2646,
  "ç»ıéªĮ": 2647,
  "åºŁ": 2648,
  "å¸Ń": 2649,
  "ines": 2650,
  "æ£®": 2651,
  "Ġi": 2652,
  "Ġph": 2653,
  "åľ£": 2654,
  "ĠPro": 2655,
  "ç¬¦": 2656,
  "Ġbl": 2657,
  "Ġsm": 2658,
  "29": 2659,
  "ann": 2660,
  "æİ¨åĬ¨": 2661,
  "ower": 2662,
  "alc": 2663,
  "Ġresult": 2664,
  "æİª": 2665,
  "å¹ħ": 2666,
  "éģ¿": 2667,
  "ased": 2668,
  "åĪĨåĪ«": 2669,
  "refore": 2670,
  "æķĪæŀľ": 2671,
  "Ġsa": 2672,
  "Ġdevelop": 2673,
  "æĢ¥": 2674,
  "ser": 2675,
  "è°Ī": 2676,
  "åºĨ": 2677,
  "éĵ¶è¡Į": 2678,
  "åħ±åĲĮ": 2679,
  "uring": 2680,
  "æķ£": 2681,
  "åĿĹ": 2682,
  "éĿ¢ç§¯": 2683,
  "æĢİ": 2684,
  "ä¹İ": 2685,
  "ten": 2686,
  "file": 2687,
  "éģĹ": 2688,
  "æĿ¾": 2689,
  "ä¸ĵå®¶": 2690,
  "2018": 2691,
  "èĥŀ": 2692,
  "åĲĮæ¯Ķ": 2693,
  "èŃ¦": 2694,
  "è¯Ĺ": 2695,
  "ä»¥æĿ¥": 2696,
  "Ġlike": 2697,
  "èĦĳ": 2698,
  "tt": 2699,
  "æĢ§çļĦ": 2700,
  "çĿ£": 2701,
  "æ°¸": 2702,
  "çĶļèĩ³": 2703,
  "ç©ºéĹ´": 2704,
  "ç¯®": 2705,
  "åĩıå°ĳ": 2706,
  "Ġfn": 2707,
  "çļĦå¤§": 2708,
  "èº«ä½ĵ": 2709,
  "è¿ĩç¨ĭä¸Ń": 2710,
  "æ´Ĺ": 2711,
  "äº¤æĺĵ": 2712,
  "çĳ": 2713,
  "Ġshould": 2714,
  "ç¨³å®ļ": 2715,
  "çĪ¶": 2716,
  "éĽ·": 2717,
  "åŁ¹åħ»": 2718,
  "åĨ³å®ļ": 2719,
  "tal": 2720,
  "åĬªåĬĽ": 2721,
  "ç¾İåħĥ": 2722,
  "éĿł": 2723,
  "Er": 2724,
  "ource": 2725,
  "é½": 2726,
  "ä¿Ŀéļľ": 2727,
  "è°¢": 2728,
  "èĤ¤": 2729,
  "å¤®": 2730,
  "Ġ@": 2731,
  "èĹı": 2732,
  "ä¸¤ä¸ª": 2733,
  "çĨŁ": 2734,
  "èĸ": 2735,
  "é¢Ĩå¯¼": 2736,
  "åºĬ": 2737,
  "åıªæľī": 2738,
  "åĮ»çĸĹ": 2739,
  "èĩªåĬ¨": 2740,
  "Ġdet": 2741,
  "ault": 2742,
  "è®¿": 2743,
  "ting": 2744,
  "ä¸½": 2745,
  "45": 2746,
  "ices": 2747,
  "å¡ĳ": 2748,
  "æ£Ģæµĭ": 2749,
  "ä¸Ģç§į": 2750,
  "æĹłæ³ķ": 2751,
  "Ġcre": 2752,
  "cept": 2753,
  "éĹ»": 2754,
  "çİ©": 2755,
  "Ġco": 2756,
  "åĪĺ": 2757,
  "è¡¨çİ°": 2758,
  "ER": 2759,
  "Ġoff": 2760,
  "ator": 2761,
  "Ġ200": 2762,
  "æ²Ļ": 2763,
  "èĦ±": 2764,
  "IN": 2765,
  "æ¾": 2766,
  "æķĻå¸Ī": 2767,
  "Ġac": 2768,
  "åĢŁ": 2769,
  "éĶ®": 2770,
  "ĠCon": 2771,
  "ets": 2772,
  "åŁ¹è®Ń": 2773,
  "ç¬Ķ": 2774,
  "irect": 2775,
  "ä½ĵèĤ²": 2776,
  "ä¿ĥè¿Ľ": 2777,
  "nce": 2778,
  "Ġmake": 2779,
  "åĪļ": 2780,
  "æī§è¡Į": 2781,
  "Ġmin": 2782,
  "ĠNone": 2783,
  "')": 2784,
  "Ġ=>": 2785,
  "å¸ģ": 2786,
  "ious": 2787,
  "();": 2788,
  "çĲĥéĺŁ": 2789,
  "ä¸įè¿ĩ": 2790,
  "Ġname": 2791,
  "å°¤": 2792,
  "Ġ>": 2793,
  "ç»ıè¿ĩ": 2794,
  "}}": 2795,
  "Ġpol": 2796,
  "hat": 2797,
  "Ġinf": 2798,
  "ection": 2799,
  "ash": 2800,
  "equ": 2801,
  "ĊĊĊ": 2802,
  "åĳĺå·¥": 2803,
  "å¹´æĿ¥": 2804,
  "ä¸¥éĩį": 2805,
  "fn": 2806,
  "å½Ĵ": 2807,
  "è´¸": 2808,
  "æ¡¥": 2809,
  "æĢ§èĥ½": 2810,
  "ern": 2811,
  "Ġcor": 2812,
  "é¡¾": 2813,
  "ield": 2814,
  "åıĺåĮĸ": 2815,
  "ãĢĭï¼Į": 2816,
  "çŁ¿": 2817,
  "ç«ŀäºī": 2818,
  "times": 2819,
  "æĺ¯ä¸Ģç§į": 2820,
  "å²Ľ": 2821,
  "ĠâĢĵ": 2822,
  "az": 2823,
  "éĴ±": 2824,
  "ases": 2825,
  "åĵĪ": 2826,
  "ä¸°å¯Į": 2827,
  "æĳĦ": 2828,
  "é¡¶": 2829,
  "Ġfollow": 2830,
  "çĶ°": 2831,
  "ĠWe": 2832,
  "arn": 2833,
  "ST": 2834,
  "æ³¨åĨĮ": 2835,
  "æ¸Ĳ": 2836,
  "ç»Ĩèĥŀ": 2837,
  "æ±ł": 2838,
  "éŁ³ä¹Ĳ": 2839,
  "å¡Ķ": 2840,
  "Ġknow": 2841,
  "è¯Ĭ": 2842,
  "åħ·ä½ĵ": 2843,
  "¤Ĳ": 2844,
  "äº®": 2845,
  "æľĭ": 2846,
  "æĭį": 2847,
  "ĠHe": 2848,
  "})": 2849,
  "è¯¾ç¨ĭ": 2850,
  "åıĹåĪ°": 2851,
  "Ġ==": 2852,
  "å®Ĺ": 2853,
  "è¿Ŀ": 2854,
  "å¹¿æ³Ľ": 2855,
  "åĨľä¸ļ": 2856,
  "èµĽåŃ£": 2857,
  "ĠIf": 2858,
  "å®ŀéªĮ": 2859,
  "yn": 2860,
  "ĊĠĠĠĠĠĠ": 2861,
  "æ¶ī": 2862,
  "æħ¢": 2863,
  "formation": 2864,
  "åİħ": 2865,
  "å¹¶ä¸Ķ": 2866,
  "Ġboth": 2867,
  "æĽ¼": 2868,
  "åĿļæĮģ": 2869,
  "['": 2870,
  "æŀ¶": 2871,
  "ä¼ĺç§Ģ": 2872,
  "åĬ³åĬ¨": 2873,
  "äº¤æµģ": 2874,
  "Ã©": 2875,
  "ç¤¼": 2876,
  "çĶŁæĢģ": 2877,
  "rent": 2878,
  "(),": 2879,
  "æĪĲæľ¬": 2880,
  "wn": 2881,
  "ty": 2882,
  "åıĬæĹ¶": 2883,
  "ough": 2884,
  "ered": 2885,
  "åĬłå·¥": 2886,
  "è¯º": 2887,
  "æİ¥åıĹ": 2888,
  "è®¾æĸ½": 2889,
  "Ġpers": 2890,
  "!(": 2891,
  "éľ²": 2892,
  "æĪĺçķ¥": 2893,
  "Ġproble": 2894,
  "è·Ŀ": 2895,
  "Ġ18": 2896,
  "ä¸Ģæł·": 2897,
  "Ġcent": 2898,
  "æĪĳçļĦ": 2899,
  "son": 2900,
  "èĻĳ": 2901,
  "äºĭä¸ļ": 2902,
  "Ġlist": 2903,
  "Ġ20": 2904,
  "è®¨": 2905,
  "Ġstate": 2906,
  "ä¸Ģæ¬¡": 2907,
  "è¯ļ": 2908,
  "ç¢³": 2909,
  "æİ¨è¿Ľ": 2910,
  "Ġusing": 2911,
  "é¦Ļæ¸¯": 2912,
  "æł¸å¿ĥ": 2913,
  "ife": 2914,
  "Ġinst": 2915,
  "å·¨": 2916,
  "èĤī": 2917,
  "old": 2918,
  "33": 2919,
  "oy": 2920,
  "éĻ¤äºĨ": 2921,
  "anc": 2922,
  "gan": 2923,
  "èģĶåĲĪ": 2924,
  "çĻ£": 2925,
  "çĽŁ": 2926,
  "ides": 2927,
  "Ġgiven": 2928,
  "æķħäºĭ": 2929,
  "æķ°åŃĹ": 2930,
  "Ġwater": 2931,
  "ants": 2932,
  "</": 2933,
  "å·Ŀ": 2934,
  "è¸": 2935,
  "Ġgr": 2936,
  "sp": 2937,
  "åį«çĶŁ": 2938,
  "Ġfl": 2939,
  "Ġfunction": 2940,
  "çĩĥ": 2941,
  "cont": 2942,
  "Ġhelp": 2943,
  "æĸ½å·¥": 2944,
  "Ġsur": 2945,
  "æķĳ": 2946,
  "ality": 2947,
  "ever": 2948,
  "å¿«éĢŁ": 2949,
  "Ġinv": 2950,
  "æĺ¯åĲ¦": 2951,
  "è§¦": 2952,
  "ç´¯": 2953,
  "èµĦéĩĳ": 2954,
  "è¯į": 2955,
  "èıĮ": 2956,
  "çīĽçļ®": 2957,
  "ev": 2958,
  "éĺ¶æ®µ": 2959,
  "ience": 2960,
  "led": 2961,
  "æ³°": 2962,
  "æŃ£åľ¨": 2963,
  "ç¦ģ": 2964,
  "ude": 2965,
  "resent": 2966,
  "çĤİ": 2967,
  "çĽĺ": 2968,
  "çļĦé«ĺ": 2969,
  "é¹": 2970,
  "æ¢¦": 2971,
  "add": 2972,
  "2017": 2973,
  "uth": 2974,
  "æ£ĢæŁ¥": 2975,
  "erg": 2976,
  "ä½įäºİ": 2977,
  "åĪ¸": 2978,
  "alse": 2979,
  "åįıä¼ļ": 2980,
  "other": 2981,
  "ä¼ĳ": 2982,
  "éĩĬ": 2983,
  "ä¸Ŀ": 2984,
  "ives": 2985,
  "æĶ¹éĿ©": 2986,
  "åĪ¶åº¦": 2987,
  "èª": 2988,
  "air": 2989,
  "è·µ": 2990,
  "Ġcall": 2991,
  "çİ°åľº": 2992,
  "æľĭåıĭ": 2993,
  "Ġjit": 2994,
  "Ġher": 2995,
  "åĲĹ": 2996,
  "Ġyears": 2997,
  "oci": 2998,
  "å°ļ": 2999,
  "rite": 3000,
  "ww": 3001,
  "alcul": 3002,
  "èĻļ": 3003,
  "é¤Ĳ": 3004,
  "ron": 3005,
  "çīĽçļ®çĻ£": 3006,
  "åĽłç´ł": 3007,
  "å°ģ": 3008,
  "$$": 3009,
  "éĿĻ": 3010,
  "Ġmust": 3011,
  "çĲĥåĳĺ": 3012,
  "Ġgo": 3013,
  "åĮĸåŃ¦": 3014,
  "æ¯ķä¸ļ": 3015,
  "åĮºåŁŁ": 3016,
  "36": 3017,
  "åĲĪåĲĮ": 3018,
  "Ġche": 3019,
  "åªĴä½ĵ": 3020,
  "åıĳå±ķçļĦ": 3021,
  "ody": 3022,
  "å¹´åº¦": 3023,
  "Ġcount": 3024,
  "Ġed": 3025,
  "Ġgener": 3026,
  "cent": 3027,
  "éŁ©": 3028,
  "çľĭåĪ°": 3029,
  "åİļ": 3030,
  "çļ®èĤ¤": 3031,
  "èĢĥè¯ķ": 3032,
  "ĠCom": 3033,
  "æĪĲç»©": 3034,
  "ä¼°": 3035,
  "col": 3036,
  "']": 3037,
  "æľºåħ³": 3038,
  "Ġafter": 3039,
  "ead": 3040,
  "æĿ¥èĩª": 3041,
  "æ±¡æŁĵ": 3042,
  "bers": 3043,
  "æĺ¯åľ¨": 3044,
  "Error": 3045,
  "åħ³æ³¨": 3046,
  "Ġtotal": 3047,
  "This": 3048,
  "ĠFor": 3049,
  "ily": 3050,
  "çĸĳ": 3051,
  "Ġbecause": 3052,
  "æ¦Ĥ": 3053,
  "ized": 3054,
  "æĪª": 3055,
  "else": 3056,
  "Ġsame": 3057,
  "èĭ¦": 3058,
  "Ġright": 3059,
  "ä¼¦": 3060,
  "Ġz": 3061,
  "by": 3062,
  "echn": 3063,
  "å±ŀäºİ": 3064,
  "ä¸įè¦ģ": 3065,
  "ç¡¬": 3066,
  "Ġwell": 3067,
  "å¡ŀ": 3068,
  "æĵįä½ľ": 3069,
  "è¶£": 3070,
  "pi": 3071,
  "br": 3072,
  "0000": 3073,
  "Ġhigh": 3074,
  "æīįèĥ½": 3075,
  "å½¢å¼ı": 3076,
  "ä¸ĭéĻį": 3077,
  "çĴ": 3078,
  "ï¼īãĢģ": 3079,
  "å®¶åºŃ": 3080,
  "requ": 3081,
  "äºĴèģĶç½ĳ": 3082,
  "Ġsk": 3083,
  "èĥ¶": 3084,
  "æľºä¼ļ": 3085,
  "èľ": 3086,
  "Ġdifferent": 3087,
  "éĻĨ": 3088,
  "æľīçļĦ": 3089,
  "æĺł": 3090,
  "ural": 3091,
  "Ġ#": 3092,
  "Ġprocess": 3093,
  "èģĺ": 3094,
  "åħ¬åħ±": 3095,
  "çŃĶ": 3096,
  "å¯»": 3097,
  "å¤ľ": 3098,
  "}$.": 3099,
  "Ġlarg": 3100,
  "dd": 3101,
  "åłĤ": 3102,
  "æ··": 3103,
  "min": 3104,
  "Ġdoes": 3105,
  "çĽĽ": 3106,
  "æ´ģ": 3107,
  "Ġref": 3108,
  "Ġincre": 3109,
  "åķĨä¸ļ": 3110,
  "ows": 3111,
  "31": 3112,
  "ull": 3113,
  "å§Ķåĳĺä¼ļ": 3114,
  "ä¿Ŀè¯ģ": 3115,
  "æĥł": 3116,
  "æĢĢ": 3117,
  "urrent": 3118,
  "sl": 3119,
  "æİªæĸ½": 3120,
  "è¾Ĩ": 3121,
  "è¿ĻéĩĮ": 3122,
  "ength": 3123,
  "Ġfound": 3124,
  "2016": 3125,
  "åĨ¬": 3126,
  "ä¸Ńåįİ": 3127,
  "åįĪ": 3128,
  "è®°èĢħ": 3129,
  "åħ¶å®ŀ": 3130,
  "fun": 3131,
  "åĲī": 3132,
  "åı¥": 3133,
  "å³°": 3134,
  "å»ºè®®": 3135,
  "æŃ£å¼ı": 3136,
  "Ġcould": 3137,
  "ä¼´": 3138,
  "çī©è´¨": 3139,
  "fe": 3140,
  "çĹĽ": 3141,
  "æ±ĩ": 3142,
  "Ġshe": 3143,
  "åĪ¶ä½ľ": 3144,
  "à½": 3145,
  "èĪ¹": 3146,
  "è°ĥæķ´": 3147,
  "().": 3148,
  "èĶ": 3149,
  "Ġend": 3150,
  "ä¸įåı¯": 3151,
  "åĬ±": 3152,
  "æļĸ": 3153,
  "èµ·æĿ¥": 3154,
  "æŃ¤å¤ĸ": 3155,
  "**:": 3156,
  "RE": 3157,
  "çīĻ": 3158,
  "Ġbr": 3159,
  "éª¨": 3160,
  "é£İéĻ©": 3161,
  "Ġsign": 3162,
  "ç®Ģåįķ": 3163,
  "é²ľ": 3164,
  "è§Ī": 3165,
  "Ġsu": 3166,
  "äº¦": 3167,
  "åħ³éĶ®": 3168,
  "Ġent": 3169,
  "åĲ¨": 3170,
  "è¿Ĳè¡Į": 3171,
  "æĺ¯ä¸Ģä¸ª": 3172,
  "ale": 3173,
  "iron": 3174,
  "çļĦæĸ°": 3175,
  "ier": 3176,
  "çĥĪ": 3177,
  "Ġvari": 3178,
  "æ¹¾": 3179,
  "ç¯ĩ": 3180,
  "Ġfact": 3181,
  "ts": 3182,
  "pend": 3183,
  "Ġeven": 3184,
  "æĮĩå¯¼": 3185,
  "ä¹ĭåīį": 3186,
  "éķ¿æľŁ": 3187,
  "åĩºäºĨ": 3188,
  "gram": 3189,
  "ains": 3190,
  "impl": 3191,
  "Ġread": 3192,
  "itions": 3193,
  "ually": 3194,
  "èµĦæĸĻ": 3195,
  "Ġmod": 3196,
  "Ġsee": 3197,
  "æĸĩä»¶": 3198,
  "çĸ«æĥħ": 3199,
  "Ġpat": 3200,
  "çİ¯ä¿Ŀ": 3201,
  "sw": 3202,
  "Ġclass": 3203,
  "æ´¾": 3204,
  "Ġmed": 3205,
  "çĥŁ": 3206,
  "éĩıçļĦ": 3207,
  "Ġloc": 3208,
  "...": 3209,
  "chool": 3210,
  "å®ľ": 3211,
  "ç§Ł": 3212,
  "çģ¯": 3213,
  "Ġtri": 3214,
  "æ»¡è¶³": 3215,
  "è¿ĲèĲ¥": 3216,
  "ited": 3217,
  "åĪº": 3218,
  "ically": 3219,
  "èĲ¨": 3220,
  "å²Ĺ": 3221,
  "ma": 3222,
  "æĹ¢": 3223,
  "75": 3224,
  "æĭŁ": 3225,
  "æľ«": 3226,
  "ward": 3227,
  "ç¼©": 3228,
  "çº¸": 3229,
  "Ġstudents": 3230,
  "æĸĹ": 3231,
  "éĻįä½İ": 3232,
  "å¸¦æĿ¥": 3233,
  "ç®±": 3234,
  "Ġhealth": 3235,
  "æĿĢ": 3236,
  "ç¡®å®ļ": 3237,
  "å®Įåħ¨": 3238,
  "æľĢç»Ī": 3239,
  "AC": 3240,
  "ç¬¦åĲĪ": 3241,
  "ä¸įå¾Ĺ": 3242,
  "class": 3243,
  "åĪĽéĢł": 3244,
  "è¿ª": 3245,
  "åıĳæĮ¥": 3246,
  "ç§ģ": 3247,
  "åİĭåĬĽ": 3248,
  "æĸ¹åĲĳ": 3249,
  "è´¥": 3250,
  "èļ": 3251,
  "ology": 3252,
  "èµĦæł¼": 3253,
  "ç¨ĭåºı": 3254,
  "èĪŀ": 3255,
  "çĶŁåĳ½": 3256,
  "ä½łçļĦ": 3257,
  "å°ıæĹ¶": 3258,
  "any": 3259,
  "print": 3260,
  "ä¸¾åĬŀ": 3261,
  "éģ¿åħį": 3262,
  "æĢĿæĥ³": 3263,
  "ism": 3264,
  "Ġinclud": 3265,
  "åľĨ": 3266,
  "éĽĦ": 3267,
  "±ä¹Ĳ": 3268,
  "Ġposs": 3269,
  "èĦļ": 3270,
  "88": 3271,
  "ä»»åĬ¡": 3272,
  "Ġexper": 3273,
  "Ġret": 3274,
  "ä¸Ńå¤®": 3275,
  "ider": 3276,
  "åģļå¥½": 3277,
  "ä¸įåĲĮçļĦ": 3278,
  "æ»ĳ": 3279,
  "ask": 3280,
  "åĸľæ¬¢": 3281,
  "ä¹Łæľī": 3282,
  "æľĿ": 3283,
  "Ġtype": 3284,
  "Ġequation": 3285,
  "æ´Ľ": 3286,
  "ç½ļ": 3287,
  "Ġbel": 3288,
  "çĦ¶åĲİ": 3289,
  "åħĪè¿Ľ": 3290,
  "ãĢģâĢľ": 3291,
  "éļĶ": 3292,
  "aking": 3293,
  "Ġmethod": 3294,
  "åħħåĪĨ": 3295,
  "æķĻæİĪ": 3296,
  "çĬ¶æĢģ": 3297,
  "ĠRes": 3298,
  "è·¨": 3299,
  "æĮĳ": 3300,
  "Ġevery": 3301,
  "ument": 3302,
  "ä¸»é¢ĺ": 3303,
  "ots": 3304,
  "å´": 3305,
  "ä»Ĭå¤©": 3306,
  "èİ±": 3307,
  "çī¹èī²": 3308,
  "èµĦäº§": 3309,
  "Ġstart": 3310,
  "éĢĶ": 3311,
  "é«ĺçļĦ": 3312,
  "Ġline": 3313,
  "å¹¸": 3314,
  "è¶ĬæĿ¥": 3315,
  "Ġlet": 3316,
  "sin": 3317,
  "çĲĨè®º": 3318,
  "Ġlong": 3319,
  "å·¥èīº": 3320,
  "Ġser": 3321,
  "ä»İèĢĮ": 3322,
  "èĽĭ": 3323,
  "èĦĤ": 3324,
  "ME": 3325,
  "è¶ĬæĿ¥è¶Ĭ": 3326,
  "ety": 3327,
  "æħ§": 3328,
  "aining": 3329,
  "èªī": 3330,
  "èĤ¡ä»½": 3331,
  "iles": 3332,
  "åĳĪ": 3333,
  "æĿŁ": 3334,
  "å¹ķ": 3335,
  "åĴ¨": 3336,
  "arm": 3337,
  "34": 3338,
  "Ċĉ": 3339,
  "args": 3340,
  "çĺ": 3341,
  "çī©æµģ": 3342,
  "å®ŀè·µ": 3343,
  "åĦ¿ç«¥": 3344,
  "Ġmon": 3345,
  "èĨľ": 3346,
  "æģ©": 3347,
  "Ġcond": 3348,
  "Ġdisc": 3349,
  "ters": 3350,
  "è´¡": 3351,
  "atic": 3352,
  "æĶ¹åıĺ": 3353,
  "ä»İäºĭ": 3354,
  "éĩįè¦ģçļĦ": 3355,
  "ãĢĤâĢľ": 3356,
  "199": 3357,
  "å©ļ": 3358,
  "Ġsecond": 3359,
  "è½¯ä»¶": 3360,
  "ness": 3361,
  "Ġbeing": 3362,
  "ç»ĦæĪĲ": 3363,
  "bin": 3364,
  "æīĵéĢł": 3365,
  "è¿ĩåİ»": 3366,
  "åĲ§": 3367,
  "ote": 3368,
  "éĩĳå±ŀ": 3369,
  "ery": 3370,
  "è¿·": 3371,
  "è¯¯": 3372,
  "ponse": 3373,
  "ĠTr": 3374,
  "æĺİæĺ¾": 3375,
  "import": 3376,
  "38": 3377,
  "çĶµè§Ĩ": 3378,
  "iter": 3379,
  "æĢİä¹Ī": 3380,
  "åĩºçļĦ": 3381,
  "Ġbo": 3382,
  "ĠAn": 3383,
  "AS": 3384,
  "äººç±»": 3385,
  "æ´ĭ": 3386,
  "å±ĭ": 3387,
  "éĩİ": 3388,
  "è¯Ńè¨Ģ": 3389,
  "å¼ĢæĶ¾": 3390,
  "ç¨ĭåº¦": 3391,
  "Ġway": 3392,
  "åĴ¨è¯¢": 3393,
  "åįĸ": 3394,
  "æ¡£": 3395,
  "ç»¿èī²": 3396,
  "èĢģå¸Ī": 3397,
  "çĽ®çļĦ": 3398,
  "å±ĳ": 3399,
  "date": 3400,
  "ands": 3401,
  "é±": 3402,
  "åĬŀåħ¬": 3403,
  "æĦıè§ģ": 3404,
  "Ġmodel": 3405,
  "ired": 3406,
  "oss": 3407,
  "Ġrese": 3408,
  "ç©¿": 3409,
  "Ġback": 3410,
  "====": 3411,
  "ç³ĸ": 3412,
  "çļĦéĩįè¦ģ": 3413,
  "Ġinformation": 3414,
  "è§ĦèĮĥ": 3415,
  "æ¶Ĥ": 3416,
  "çĬ¯": 3417,
  "çļĦäºĭ": 3418,
  "é½Ĳ": 3419,
  "____": 3420,
  "ik": 3421,
  "ä¸Ĭå¸Ĥ": 3422,
  "Ġjust": 3423,
  "éĺµ": 3424,
  "Ġav": 3425,
  "cri": 3426,
  "å®£ä¼ł": 3427,
  "é±¼": 3428,
  "å®īè£ħ": 3429,
  "ä¼Ĭ": 3430,
  "å½ĵåľ°": 3431,
  "çļĦå·¥ä½ľ": 3432,
  "raph": 3433,
  "éĥ½æľī": 3434,
  "Ġsmall": 3435,
  "ç½ª": 3436,
  "åŁºåľ°": 3437,
  "çħ¤": 3438,
  "ames": 3439,
  "è´´": 3440,
  "å®ĮåĸĦ": 3441,
  "çļĩ": 3442,
  "ĠHow": 3443,
  "çī¹çĤ¹": 3444,
  "Ġsum": 3445,
  "æĳĺ": 3446,
  "Ġer": 3447,
  "å§Ĩ": 3448,
  "åįģåĪĨ": 3449,
  "att": 3450,
  "çĵ¦": 3451,
  "Ġcar": 3452,
  "æĪĲæŀľ": 3453,
  "èģĶç³»": 3454,
  "éĩįå¤§": 3455,
  "arrow": 3456,
  "ression": 3457,
  "Ġeffect": 3458,
  "ä¹Ļ": 3459,
  "å¼ķèµ·": 3460,
  "ç½²": 3461,
  "ç¼ĵ": 3462,
  "åĮĸçļĦ": 3463,
  "ement": 3464,
  "Ġserv": 3465,
  "view": 3466,
  "###": 3467,
  "ĊĠĠĠĠĠĠĠĠĠĠĠĠĠĠĠĠĠĠĠĠĠĠĠĠĠĠĠĠĠĠĠĠ": 3468,
  "æ¯Ľ": 3469,
  "åĮ»åŃ¦": 3470,
  "åĿĲ": 3471,
  "åı«": 3472,
  "éĽª": 3473,
  "åĨłåĨĽ": 3474,
  "viron": 3475,
  "Ġchildren": 3476,
  "å°±ä¼ļ": 3477,
  "ray": 3478,
  "AT": 3479,
  ")$": 3480,
  "ee": 3481,
  "Ġ:": 3482,
  "Ġ12": 3483,
  "ä¸¾è¡Į": 3484,
  "èĢĥèĻĳ": 3485,
  "stit": 3486,
  "èĲ½å®ŀ": 3487,
  "py": 3488,
  "hes": 3489,
  "ç¡®ä¿Ŀ": 3490,
  "2015": 3491,
  "ense": 3492,
  "ublic": 3493,
  "Ġworld": 3494,
  "æĿ¨": 3495,
  "500": 3496,
  "els": 3497,
  "ta": 3498,
  "ĠSome": 3499,
  "48": 3500,
  "ified": 3501,
  "ced": 3502,
  "ç¿»": 3503,
  "éĽħ": 3504,
  "me": 3505,
  "æķ´ä½ĵ": 3506,
  "Ex": 3507,
  "å®½": 3508,
  "ä¸ªæľĪ": 3509,
  "ware": 3510,
  "ples": 3511,
  "æİĮ": 3512,
  "37": 3513,
  "ather": 3514,
  "Ġart": 3515,
  "ential": 3516,
  "æ®Ĭ": 3517,
  "66": 3518,
  "æķ´ä¸ª": 3519,
  "æŃ£å¸¸": 3520,
  "é²ģ": 3521,
  "Ġear": 3522,
  "\".": 3523,
  "Ġu": 3524,
  "(\\": 3525,
  "å¹³æĸ¹": 3526,
  "è¿Ĳè¾ĵ": 3527,
  "æĿ°": 3528,
  "Ġext": 3529,
  "Ġvis": 3530,
  "åŃĶ": 3531,
  "çĻ»è®°": 3532,
  "æĦıä¹ī": 3533,
  "å½ĵæĹ¶": 3534,
  "åĩºåı£": 3535,
  "å¸Ŀ": 3536,
  "æĺİç¡®": 3537,
  ":**": 3538,
  "å¹¶ä¸į": 3539,
  "æĿ¥çľĭ": 3540,
  "æĻ®éĢļ": 3541,
  "çĦ¦": 3542,
  "åĢį": 3543,
  "çĹĩçĬ¶": 3544,
  "æı¡": 3545,
  "čĊĠĠĠĠ": 3546,
  "èĵĿ": 3547,
  "è°ĥæŁ¥": 3548,
  "æº¶": 3549,
  "55": 3550,
  "æīĭæľº": 3551,
  "æ¸©åº¦": 3552,
  "èĢ³": 3553,
  "åĢº": 3554,
  "æī¬": 3555,
  "çļĦæĥħåĨµ": 3556,
  "Ġ.": 3557,
  "å®«": 3558,
  "ivers": 3559,
  "load": 3560,
  "ID": 3561,
  "æ¾³": 3562,
  "çļĦéĹ®é¢ĺ": 3563,
  "meric": 3564,
  "Ġcr": 3565,
  "ank": 3566,
  "Ġsupport": 3567,
  "ç§ĭ": 3568,
  "Res": 3569,
  "ä¾ĽåºĶ": 3570,
  "Ġrep": 3571,
  "æģ¶": 3572,
  "å¿ĥçĲĨ": 3573,
  "Ġdiv": 3574,
  "ç§ĳçłĶ": 3575,
  "Ġperson": 3576,
  "å°¤åħ¶": 3577,
  "éĺ»": 3578,
  "åĨ°": 3579,
  "ĠĠĊ": 3580,
  "fore": 3581,
  "æ¢ħ": 3582,
  "æµĻ": 3583,
  "å·¦åı³": 3584,
  "ç§ĺ": 3585,
  "atus": 3586,
  "itive": 3587,
  "é¡¿": 3588,
  "AR": 3589,
  "èĳ£": 3590,
  "Ġmy": 3591,
  "åľĪ": 3592,
  "çĲĨå¿µ": 3593,
  "\"]": 3594,
  "éĢļçŁ¥": 3595,
  "Ġmain": 3596,
  "çĥ§": 3597,
  "åľ³": 3598,
  "Ġpartic": 3599,
  "LE": 3600,
  "ner": 3601,
  "Ġarea": 3602,
  "To": 3603,
  "Ġgroup": 3604,
  "Ġ\\]": 3605,
  "çİ»": 3606,
  "èģĶèµĽ": 3607,
  "æ¶¨": 3608,
  "æ·±åľ³": 3609,
  "è¡ĮåĬ¨": 3610,
  "39": 3611,
  "Ġvery": 3612,
  "è´·": 3613,
  "Ġmut": 3614,
  "ä½ĵéªĮ": 3615,
  "We": 3616,
  "åıªæĺ¯": 3617,
  "Ġlead": 3618,
  "éĺħ": 3619,
  "å¾Ħ": 3620,
  "çĦ¶èĢĮ": 3621,
  "ä¸»ä»»": 3622,
  "Ġtechn": 3623,
  "æµĭè¯ķ": 3624,
  "Pro": 3625,
  "å¤ļä¸ª": 3626,
  "Ġdown": 3627,
  "Ġown": 3628,
  "æ°§åĮĸ": 3629,
  "Ġcommon": 3630,
  "åĶ±": 3631,
  "æ°ĳæĹı": 3632,
  "bl": 3633,
  "è´¡çĮ®": 3634,
  "é¾Ħ": 3635,
  "åħ·å¤ĩ": 3636,
  "éĤ®": 3637,
  "olv": 3638,
  "ä¹Į": 3639,
  "è¦": 3640,
  "åĲİçļĦ": 3641,
  "cos": 3642,
  "å±±ä¸ľ": 3643,
  "vert": 3644,
  "Ã¤": 3645,
  "æ³¡": 3646,
  "ĠAl": 3647,
  "æ²ī": 3648,
  "ĠAr": 3649,
  "fo": 3650,
  ".âĢĿ": 3651,
  "åĿı": 3652,
  "æĬ¥åĲį": 3653,
  "Ġmuch": 3654,
  "æ¹¿": 3655,
  "å®ĥä»¬": 3656,
  "æ´¥": 3657,
  "å¥ĭ": 3658,
  "è´Ŀ": 3659,
  "Ġinteg": 3660,
  "é£Łçī©": 3661,
  "è°·": 3662,
  "Ġcirc": 3663,
  "ç»Łè®¡": 3664,
  "met": 3665,
  "åĭĩ": 3666,
  "ç»´æĬ¤": 3667,
  "ç»ıå¸¸": 3668,
  "çĴĥ": 3669,
  "ç¤¾åĮº": 3670,
  "åħ¬éĩĮ": 3671,
  "æľºåĻ¨": 3672,
  "è£ģ": 3673,
  "ç¬ĳ": 3674,
  "æĮ¯": 3675,
  "ç©ºæ°Ķ": 3676,
  "åı¦å¤ĸ": 3677,
  "akes": 3678,
  "ability": 3679,
  "Ġthree": 3680,
  "éĢŁåº¦": 3681,
  "åħ¬å¸ĥ": 3682,
  "Ġsaid": 3683,
  "çģ¾": 3684,
  "åĲĪçĲĨ": 3685,
  "comm": 3686,
  "Ġmet": 3687,
  "çĪĨ": 3688,
  "ä¹ĺ": 3689,
  "èĴĻ": 3690,
  "Ġhum": 3691,
  "æĩ": 3692,
  "Ġ}": 3693,
  "æķĪçİĩ": 3694,
  "Ġfile": 3695,
  "ĠCl": 3696,
  "éĴĪå¯¹": 3697,
  "çİī": 3698,
  "Ġimportant": 3699,
  "Ġproper": 3700,
  "å¹¿ä¸ľ": 3701,
  "éĥ½ä¼ļ": 3702,
  "åĢĴ": 3703,
  "Ġpass": 3704,
  "éķľ": 3705,
  "åĳ¼": 3706,
  "Ġappro": 3707,
  "æµĵ": 3708,
  "èµ¢": 3709,
  "list": 3710,
  "é¢ĨåħĪ": 3711,
  "NA": 3712,
  "ouse": 3713,
  "Ġ\\).": 3714,
  "work": 3715,
  "æĦıè¯Ĩ": 3716,
  "here": 3717,
  "è¦Ĩ": 3718,
  "é¼ĵ": 3719,
  "Str": 3720,
  "._": 3721,
  "èī¯å¥½çļĦ": 3722,
  "lob": 3723,
  "åĪĽä¸ļ": 3724,
  "å¹¿å·ŀ": 3725,
  "riv": 3726,
  "ä½ĵçļĦ": 3727,
  "èĢĹ": 3728,
  "åģı": 3729,
  "è¶ĭ": 3730,
  "åĬĽçļĦ": 3731,
  "èĩªèº«": 3732,
  "ĠThey": 3733,
  "Ġ%": 3734,
  "çĳŀ": 3735,
  "æĹ§": 3736,
  "Ġter": 3737,
  "æĭĵ": 3738,
  "å¤º": 3739,
  "ï¼İ": 3740,
  "çľŁæŃ£": 3741,
  "ä¸įå°ĳ": 3742,
  "çİ»çĴĥ": 3743,
  "ithub": 3744,
  "ĠEx": 3745,
  "åķĨåĵģ": 3746,
  "åĩĨå¤ĩ": 3747,
  "æľ¬æĸĩ": 3748,
  "æľºåĪ¶": 3749,
  "åĪĬ": 3750,
  "çº·": 3751,
  "md": 3752,
  "of": 3753,
  "çĽĳçĿ£": 3754,
  "çĲĨè§£": 3755,
  "Ġfam": 3756,
  "ply": 3757,
  "åĵģè´¨": 3758,
  "Tr": 3759,
  "æĬ¥éģĵ": 3760,
  "å¦ĤæŃ¤": 3761,
  "Ġmem": 3762,
  "Ġkey": 3763,
  "åĬŀæ³ķ": 3764,
  "éļĲ": 3765,
  "è´¯": 3766,
  "man": 3767,
  "çĶŁçļĦ": 3768,
  "Ġ15": 3769,
  "dir": 3770,
  "}}{": 3771,
  "IT": 3772,
  "44": 3773,
  "æĮĩåĩº": 3774,
  "Ġthose": 3775,
  "iqu": 3776,
  "Ġcommun": 3777,
  "è¡¨éĿ¢": 3778,
  "å½»": 3779,
  "æ·±åħ¥": 3780,
  "éĵĿ": 3781,
  "vironment": 3782,
  "Ġproblem": 3783,
  "æ½ľ": 3784,
  "è§Ĩé¢ĳ": 3785,
  "åıįåºĶ": 3786,
  "ä¾ĭå¦Ĥ": 3787,
  "æĻºæħ§": 3788,
  "urs": 3789,
  "æ¯Ķå¦Ĥ": 3790,
  "stand": 3791,
  "åĬłåħ¥": 3792,
  "æĬĵ": 3793,
  "Ġsom": 3794,
  "è¿Ļæł·çļĦ": 3795,
  "æľīä¸Ģ": 3796,
  "ey": 3797,
  "å¦Ī": 3798,
  "65": 3799,
  "è´«": 3800,
  "æĤī": 3801,
  "éĿ¢å¯¹": 3802,
  "ĠAmeric": 3803,
  "ç¼ĺ": 3804,
  "è¡£": 3805,
  "ï½": 3806,
  "oh": 3807,
  "æ¬§æ´²": 3808,
  "åĪ©æ¶¦": 3809,
  "çĻĮ": 3810,
  "åı¬": 3811,
  "Ġbefore": 3812,
  "èĭ±åĽ½": 3813,
  "è´¹çĶ¨": 3814,
  "ä¾§": 3815,
  "itt": 3816,
  "ä»ĸä»¬çļĦ": 3817,
  "Ð¾": 3818,
  "not": 3819,
  "èį¯çī©": 3820,
  "doc": 3821,
  "Com": 3822,
  "AB": 3823,
  "åħ¨éĥ¨": 3824,
  "ait": 3825,
  "Ġlevel": 3826,
  "èĤ¥": 3827,
  "Ġins": 3828,
  "å¼±": 3829,
  "ency": 3830,
  "åĵ¥": 3831,
  "çº¯": 3832,
  "Ġproduct": 3833,
  "æ¶Īè´¹èĢħ": 3834,
  "æ½®": 3835,
  "å¾ª": 3836,
  "ä¸ĸçºª": 3837,
  "ä¿Ħ": 3838,
  "github": 3839,
  "æ²¿": 3840,
  "ä¸¹": 3841,
  "è¾ĳ": 3842,
  "è¯¦": 3843,
  "Ġcap": 3844,
  "ger": 3845,
  "Ġlife": 3846,
  "land": 3847,
  "ä¸»ä¹ī": 3848,
  "Ġduring": 3849,
  "é¦ĸåħĪ": 3850,
  "day": 3851,
  "åįļå£«": 3852,
  "æµª": 3853,
  "ä¼Ł": 3854,
  "hip": 3855,
  "Cl": 3856,
  "ĠX": 3857,
  "Ġless": 3858,
  "Ġ_": 3859,
  "è¡¡": 3860,
  "oin": 3861,
  "æĲŃ": 3862,
  "ule": 3863,
  "æ²Ł": 3864,
  "ared": 3865,
  "æİĴåĲį": 3866,
  "ĠQ": 3867,
  "æĹłè®º": 3868,
  "ĠAs": 3869,
  "Ġdirect": 3870,
  "æĸĳ": 3871,
  "æ¬¢è¿İ": 3872,
  "åĭĴ": 3873,
  "ml": 3874,
  "åĩĿ": 3875,
  "ç¹": 3876,
  "ization": 3877,
  "è¿ŀç»Ń": 3878,
  "rect": 3879,
  "with": 3880,
  "ä¼¯": 3881,
  "ä¼Ļ": 3882,
  "åĬĽéĩı": 3883,
  "å¤ļç§į": 3884,
  ")]": 3885,
  "åĽ°éļ¾": 3886,
  "æŃ¤æ¬¡": 3887,
  "overn": 3888,
  "æĹĹ": 3889,
  "Ġest": 3890,
  "åİ»å¹´": 3891,
  "åĪ¶å®ļ": 3892,
  "Ġsl": 3893,
  "ats": 3894,
  "arning": 3895,
  "input": 3896,
  "string": 3897,
  "Ġ--": 3898,
  "Ġnow": 3899,
  ".,": 3900,
  "leq": 3901,
  "![": 3902,
  "ç¹ģ": 3903,
  "åĿĢ": 3904,
  "num": 3905,
  "mod": 3906,
  "circ": 3907,
  "85": 3908,
  "ç¬¬åĽĽ": 3909,
  "ä¹Łä¸į": 3910,
  "èĤł": 3911,
  "åĬ¨åĬĽ": 3912,
  "Ġstruct": 3913,
  "Ġlook": 3914,
  "æķı": 3915,
  "oun": 3916,
  "OR": 3917,
  "ä¸ģ": 3918,
  ")^": 3919,
  "åĪĽä½ľ": 3920,
  "çĶµæ±ł": 3921,
  "Ġ\\\\": 3922,
  "IS": 3923,
  "Ġrun": 3924,
  "Ġident": 3925,
  "æĬĢèĥ½": 3926,
  "ags": 3927,
  "Ġsqu": 3928,
  "æ¦ľ": 3929,
  "å¼ĥ": 3930,
  "éĢļå¸¸": 3931,
  "ç¾¤ä¼Ĺ": 3932,
  "éĵ¶å±ĳ": 3933,
  "èħĲ": 3934,
  "ĠSc": 3935,
  "âĢĿãĢģâĢľ": 3936,
  "æıı": 3937,
  "å¤ļçļĦ": 3938,
  "æĪĲåĳĺ": 3939,
  "ton": 3940,
  "èİ«": 3941,
  "åŃ¦ç§ĳ": 3942,
  "wrap": 3943,
  "user": 3944,
  "éĵ¶å±ĳçĹħ": 3945,
  "éģį": 3946,
  "Ġfood": 3947,
  "åľŁåľ°": 3948,
  "é¢Ħè®¡": 3949,
  "å¤§åĪ©": 3950,
  "Ġplan": 3951,
  "mat": 3952,
  "æ¤įçī©": 3953,
  "ç£¨": 3954,
  "uss": 3955,
  "èĩªçĶ±": 3956,
  "åĶĲ": 3957,
  "æĹ¥å¸¸": 3958,
  "be": 3959,
  "Ġbuild": 3960,
  "Ġmade": 3961,
  "æģĴ": 3962,
  "Ġexample": 3963,
  "ected": 3964,
  "åŃĻ": 3965,
  "ffic": 3966,
  "æĶ¹åĸĦ": 3967,
  "ä¹Łä¼ļ": 3968,
  "å®ĩ": 3969,
  "è¯ĳ": 3970,
  "aj": 3971,
  "éĿĴå¹´": 3972,
  "çī¹æ®Ĭ": 3973,
  "æķ°éĩı": 3974,
  "49": 3975,
  "æģ¢": 3976,
  "Ġansw": 3977,
  "çļĦæľĢ": 3978,
  "ral": 3979,
  "fl": 3980,
  "æ¼«": 3981,
  "è¾ħ": 3982,
  "ross": 3983,
  "æ¶īåıĬ": 3984,
  "Ġorig": 3985,
  "ä¸Ģä¸ĭ": 3986,
  "éĢĤåĲĪ": 3987,
  "DE": 3988,
  "Ġwhile": 3989,
  "æĶ¿æ²»": 3990,
  "||": 3991,
  "åĨħçļĦ": 3992,
  "å¢Ļ": 3993,
  "Ġ16": 3994,
  "Ġspe": 3995,
  "åħ¼": 3996,
  "å¹³åĿĩ": 3997,
  "æµĻæ±Ł": 3998,
  "æ¶Īæģ¯": 3999,
  "Ġtyp": 4000,
  "é©¶": 4001,
  "åŃ¦æľ¯": 4002,
  "Ġtake": 4003,
  "Ġ__": 4004,
  "ĠçļĦ": 4005,
  "param": 4006,
  "é¢ľ": 4007,
  "Ġmult": 4008,
  "åĲ´": 4009,
  "tes": 4010,
  "Ġke": 4011,
  "åĨįæ¬¡": 4012,
  "ä¸¥æł¼": 4013,
  "Ġobject": 4014,
  "2014": 4015,
  "ä¿ĿéĻ©": 4016,
  "Ġgood": 4017,
  "åį·": 4018,
  "ç±»åŀĭ": 4019,
  "ä¸ºä¸»": 4020,
  "æľīäºĽ": 4021,
  "æľ¬æ¬¡": 4022,
  "2023": 4023,
  "æ®ĭ": 4024,
  "ç»Łä¸Ģ": 4025,
  "size": 4026,
  "è´¸æĺĵ": 4027,
  "è¯ģæĺİ": 4028,
  "Ġday": 4029,
  "æĦŁæŁĵ": 4030,
  "å¢¨": 4031,
  "æı´": 4032,
  "ening": 4033,
  "rol": 4034,
  "Ġocc": 4035,
  "Ġcost": 4036,
  "å¢ŀå¼º": 4037,
  "ç¬¬åįģ": 4038,
  "ional": 4039,
  "å®īæİĴ": 4040,
  "lab": 4041,
  "arget": 4042,
  "åĶ¯": 4043,
  "å¾·åĽ½": 4044,
  ")ï¼Į": 4045,
  "Ġgrow": 4046,
  "Ġris": 4047,
  "AN": 4048,
  "æĸ°éĹ»": 4049,
  "å¤§åŀĭ": 4050,
  "ç»ķ": 4051,
  "ape": 4052,
  "ĊĊĠĠĠ": 4053,
  "Ġschool": 4054,
  "çļĦè¯Ŀ": 4055,
  "47": 4056,
  "Ġ$(": 4057,
  "angu": 4058,
  "éħĴåºĹ": 4059,
  "'t": 4060,
  "ç»ıåİĨ": 4061,
  "ç»ıçĲĨ": 4062,
  "æĥĬ": 4063,
  "åĪĨä¸º": 4064,
  "map": 4065,
  "quad": 4066,
  "æĽ¿": 4067,
  "ribut": 4068,
  "time": 4069,
  "ior": 4070,
  "Ġagain": 4071,
  "ç¥ĸ": 4072,
  "bu": 4073,
  "æĬĺ": 4074,
  "oid": 4075,
  "è·ĳ": 4076,
  "æĹ¶æľŁ": 4077,
  "å±ı": 4078,
  "åıªè¦ģ": 4079,
  "86": 4080,
  "åĨ³èµĽ": 4081,
  "Ġproject": 4082,
  "çŀ": 4083,
  "éĽĨä¸Ń": 4084,
  "}$,": 4085,
  "éľĩ": 4086,
  "raw": 4087,
  "ols": 4088,
  "Ġcle": 4089,
  "Ġactiv": 4090,
  "è§īå¾Ĺ": 4091,
  "è¯´æĺİ": 4092,
  "çĽ¸å¯¹": 4093,
  "ĠSp": 4094,
  "æĪĲéķ¿": 4095,
  "å°±ä¸ļ": 4096,
  "çªĹ": 4097,
  "è®¤è¯Ĩ": 4098,
  "è®¤è¯ģ": 4099,
  "state": 4100,
  "Ġpower": 4101,
  "())": 4102,
  "å±ķå¼Ģ": 4103,
  "æģ¢å¤į": 4104,
  "ç»ĵæĿŁ": 4105,
  "æ³¥": 4106,
  "åĨľæĿĳ": 4107,
  "pha": 4108,
  "éĩĩåıĸ": 4109,
  "æĦŁè§ī": 4110,
  "Ġoften": 4111,
  "čĊĠĠĠĠĠĠĠĠ": 4112,
  "ä»įçĦ¶": 4113,
  "ĠInd": 4114,
  "init": 4115,
  "è¯ģåĪ¸": 4116,
  "ç§°ä¸º": 4117,
  "åĲĦç±»": 4118,
  "omen": 4119,
  "Ġwrit": 4120,
  "æĬķåħ¥": 4121,
  "å¯¿": 4122,
  "count": 4123,
  "çŃ¹": 4124,
  "åĩºçīĪ": 4125,
  "SE": 4126,
  "ç²Ĵ": 4127,
  "ä¸ĭçļĦ": 4128,
  "Ġdr": 4129,
  "rop": 4130,
  "åĺī": 4131,
  "Ġmat": 4132,
  "ä¼ĺè´¨": 4133,
  "ways": 4134,
  "version": 4135,
  "Ġtem": 4136,
  "æ¯ıä¸ª": 4137,
  "word": 4138,
  "ä¼ģä¸ļçļĦ": 4139,
  "CE": 4140,
  "ergy": 4141,
  "èĲ¥åħ»": 4142,
  "Ġrange": 4143,
  "é«ĺæł¡": 4144,
  "gr": 4145,
  "æĮĳæĪĺ": 4146,
  "ĠYou": 4147,
  "ä¸ľè¥¿": 4148,
  "åĬ¨çī©": 4149,
  "Ġpossible": 4150,
  "Ġvalues": 4151,
  "Ġchange": 4152,
  "æİī": 4153,
  "åºĦ": 4154,
  "net": 4155,
  "èĻ«": 4156,
  "Ġprogram": 4157,
  "èµı": 4158,
  "2000": 4159,
  "è¿ħ": 4160,
  "Ġarg": 4161,
  "èĬĤèĥ½": 4162,
  "acter": 4163,
  "Ġpop": 4164,
  "ished": 4165,
  "bug": 4166,
  "âĢĺ": 4167,
  "ä¹¦è®°": 4168,
  "åķĨæłĩ": 4169,
  "éĶħ": 4170,
  "çļĦå½±åĵį": 4171,
  "å¤§å¤ļ": 4172,
  "Ġet": 4173,
  "é©¾": 4174,
  "èĤ¯": 4175,
  "å·¥åħ·": 4176,
  "ä½įç½®": 4177,
  "ush": 4178,
  "model": 4179,
  "----------------": 4180,
  "Ġorgan": 4181,
  "Ġprot": 4182,
  "format": 4183,
  "rightarrow": 4184,
  "__(": 4185,
  "æ¢ģ": 4186,
  "åİŁåĪĻ": 4187,
  "imum": 4188,
  "çĽĲ": 4189,
  "Ġstudy": 4190,
  "CO": 4191,
  "çĽ¸ä¿¡": 4192,
  "ration": 4193,
  "æļ´": 4194,
  "å¦ĩ": 4195,
  "è´Ńä¹°": 4196,
  "å®ĥçļĦ": 4197,
  "ç«Ł": 4198,
  "ystem": 4199,
  "Ġnumbers": 4200,
  "çĽ¸å½ĵ": 4201,
  "ided": 4202,
  "çļĦå°ı": 4203,
  "ä¾Ŀæ³ķ": 4204,
  "\">": 4205,
  "åĪ·": 4206,
  "éĶĭ": 4207,
  "æľĹ": 4208,
  "Ġexpl": 4209,
  "reg": 4210,
  "æī¿æĭħ": 4211,
  "Ġhist": 4212,
  "Ġì": 4213,
  "çĶµè¯Ŀ": 4214,
  "åħ¬åı¸çļĦ": 4215,
  "åıĮæĸ¹": 4216,
  "config": 4217,
  "å½ĵçĦ¶": 4218,
  "len": 4219,
  "è´¦": 4220,
  "åĩŃ": 4221,
  "Ġanal": 4222,
  "Ã¶": 4223,
  "å¡«": 4224,
  "Ġquest": 4225,
  "ital": 4226,
  "eq": 4227,
  "åĵªäºĽ": 4228,
  "å¹´è½»": 4229,
  "ï¼ĮãĢĬ": 4230,
  "æ±Łèĭı": 4231,
  "index": 4232,
  "å°Ĩåľ¨": 4233,
  "Ġaround": 4234,
  "æľīæīĢ": 4235,
  "Ġele": 4236,
  "éĹŃ": 4237,
  "For": 4238,
  "åĮĸå·¥": 4239,
  "Ch": 4240,
  "unwrap": 4241,
  "usion": 4242,
  "Ġnon": 4243,
  "ream": 4244,
  "ä¸ĸçķĮæĿ¯": 4245,
  "å±ķç¤º": 4246,
  "Ġcalcul": 4247,
  "åĬłå¿«": 4248,
  "AP": 4249,
  "fil": 4250,
  "æĳĺè¦ģ": 4251,
  "äº¡": 4252,
  "æł·çļĦ": 4253,
  "æľīæľº": 4254,
  "åįĩçº§": 4255,
  "Ġreport": 4256,
  "Ġgre": 4257,
  "åħ¬åĳĬ": 4258,
  "ãĢģãĢĬ": 4259,
  "å«": 4260,
  "serv": 4261,
  "95": 4262,
  "erest": 4263,
  "Ġlength": 4264,
  "éĢĲæ¸Ĳ": 4265,
  "è¿Ľè¡ĮäºĨ": 4266,
  "åĩ¡": 4267,
  "è¿Ķ": 4268,
  "loc": 4269,
  "Ċĉĉĉ": 4270,
  "è±ª": 4271,
  "ocial": 4272,
  "å²Ĺä½į": 4273,
  "è´¢æĶ¿": 4274,
  "Ġplay": 4275,
  "Ġgu": 4276,
  "Ġhand": 4277,
  "éĢĴ": 4278,
  "arent": 4279,
  "æİ¨å¹¿": 4280,
  "çªģçł´": 4281,
  "ux": 4282,
  "ah": 4283,
  "æ´ŀ": 4284,
  "Ġlog": 4285,
  "ä¸Ģå¹´": 4286,
  "Ġec": 4287,
  "èĳ£äºĭ": 4288,
  "åŃ£åº¦": 4289,
  "å·¥ä½ľçļĦ": 4290,
  "å¹³æĸ¹ç±³": 4291,
  "æĳ©": 4292,
  "è°ĵ": 4293,
  "ym": 4294,
  "é¸¡": 4295,
  "ively": 4296,
  "âĢĵ": 4297,
  "æ³ķéĻ¢": 4298,
  "Therefore": 4299,
  "Ġ30": 4300,
  "æ©": 4301,
  "67": 4302,
  "èŀįåĲĪ": 4303,
  "ĠNew": 4304,
  "æĬ¢": 4305,
  "ç¥Ŀ": 4306,
  "Data": 4307,
  "ĊĠĠĠĠĠĠĠĠĠĠĠĠĠĠĠĠĠĠĠĠĠĠĠĠĠĠĠĠ": 4308,
  "æķ¬": 4309,
  "essage": 4310,
  "æĸĩæĺİ": 4311,
  "åĲĮåŃ¦": 4312,
  "æĸ¹ä¾¿": 4313,
  "è·Ŀç¦»": 4314,
  "åĪĨåŃĲ": 4315,
  "li": 4316,
  "è±Ĩ": 4317,
  "aus": 4318,
  "='": 4319,
  "æĶ¯ä»ĺ": 4320,
  "åħ¬è·¯": 4321,
  "æľĢé«ĺ": 4322,
  "ĠSelf": 4323,
  "ç§»åĬ¨": 4324,
  "é«ĺéĢŁ": 4325,
  "éģĵè·¯": 4326,
  "Ġwithin": 4327,
  "ined": 4328,
  "Ġlo": 4329,
  "Ġcurrent": 4330,
  "ources": 4331,
  "èĭĹ": 4332,
  "å¤§ä¼ļ": 4333,
  "æĸ¹éĿ¢çļĦ": 4334,
  "çĽ¸æ¯Ķ": 4335,
  "å¤§éĩı": 4336,
  "éĥĳ": 4337,
  "å°Ĭ": 4338,
  "Ġwithout": 4339,
  "è¯Ħä¼°": 4340,
  "åŀĥ": 4341,
  "è¿¹": 4342,
  "åľ¾": 4343,
  "ä»ģ": 4344,
  "med": 4345,
  "åŀĥåľ¾": 4346,
  "Ġreturn": 4347,
  "äº§åĵģçļĦ": 4348,
  "ries": 4349,
  "èµĦæľ¬": 4350,
  "è½´": 4351,
  "äº¿ç¾İåħĥ": 4352,
  "è¯¸": 4353,
  "å¹¿åĳĬ": 4354,
  "Ġhead": 4355,
  "åĩºæĿ¥": 4356,
  "ision": 4357,
  "Ġsym": 4358,
  "åı¯èĥ½ä¼ļ": 4359,
  "æ·»": 4360,
  "ording": 4361,
  "å¤įæĿĤ": 4362,
  "ained": 4363,
  "Ġdesign": 4364,
  "äºĮåįģ": 4365,
  "æ°ı": 4366,
  "onom": 4367,
  "éŁ©åĽ½": 4368,
  "é©±": 4369,
  "éĺ´": 4370,
  "æĥ³è¦ģ": 4371,
  "Ġbeh": 4372,
  "åįıè®®": 4373,
  "éĩįè§Ĩ": 4374,
  "olution": 4375,
  "å¯Ĵ": 4376,
  "èĥĥ": 4377,
  "amples": 4378,
  "æ¥ļ": 4379,
  "æļĤ": 4380,
  "Ġchang": 4381,
  "amp": 4382,
  "way": 4383,
  "])": 4384,
  "ç¢į": 4385,
  "å¿ħè¦ģ": 4386,
  "lex": 4387,
  "ches": 4388,
  "åı¦ä¸Ģ": 4389,
  "æĬ½": 4390,
  "Ġreal": 4391,
  "ium": 4392,
  "struct": 4393,
  "Ġshow": 4394,
  "erence": 4395,
  "Ġoper": 4396,
  "éģŃ": 4397,
  "ä¸ºä»Ģä¹Ī": 4398,
  "face": 4399,
  "Ġanswer": 4400,
  "èĢħçļĦ": 4401,
  "ole": 4402,
  "aterial": 4403,
  "ulation": 4404,
  "åľ°äº§": 4405,
  "æĬµ": 4406,
  "ãĢĲ": 4407,
  "å¿ĺ": 4408,
  "çĶ¨çļĦ": 4409,
  "Ġside": 4410,
  "åĢ¼å¾Ĺ": 4411,
  "åıĬåħ¶": 4412,
  "åĩ¯": 4413,
  "Ġwant": 4414,
  "Ġcare": 4415,
  "plement": 4416,
  "èĴĤ": 4417,
  "overrightarrow": 4418,
  "åħ¬åĽŃ": 4419,
  "Ġ\\),": 4420,
  "iversity": 4421,
  "åľ¨çº¿": 4422,
  "flo": 4423,
  "Ġes": 4424,
  "Ġcomplet": 4425,
  "ãĢĳ": 4426,
  "âĦ": 4427,
  "ç¡ķ": 4428,
  "2010": 4429,
  "èĢĮæĺ¯": 4430,
  "Ġtreat": 4431,
  "code": 4432,
  "46": 4433,
  "è®¡ç®Ĺæľº": 4434,
  "çİ°è±¡": 4435,
  "Ġfollowing": 4436,
  "æ¯ıå¤©": 4437,
  "ä¸»ç®¡": 4438,
  "åıĳè¡¨": 4439,
  "};": 4440,
  "It": 4441,
  "sub": 4442,
  "æī©å¤§": 4443,
  "åĲ¸å¼ķ": 4444,
  "exp": 4445,
  "ateg": 4446,
  "æ¯«": 4447,
  "äººåı£": 4448,
  "åħµ": 4449,
  "hers": 4450,
  "èµŀ": 4451,
  "ç»ª": 4452,
  "é»ĺ": 4453,
  "çĭ¬ç«ĭ": 4454,
  "é¥Ń": 4455,
  "imate": 4456,
  "çļĦæĹ¶éĹ´": 4457,
  "300": 4458,
  "ately": 4459,
  "77": 4460,
  "å±ħæ°ĳ": 4461,
  "æī¶": 4462,
  "Ġang": 4463,
  "01": 4464,
  "å¤ªéĺ³": 4465,
  "å¤Ħäºİ": 4466,
  "ason": 4467,
  "icro": 4468,
  "Ġbody": 4469,
  "uthor": 4470,
  "åĪĨäº«": 4471,
  "ccess": 4472,
  "ä¹±": 4473,
  "éĨĴ": 4474,
  "æ¯ıå¹´": 4475,
  "è®¾ç½®": 4476,
  "ä¼į": 4477,
  "ï½ŀ": 4478,
  "ids": 4479,
  "ä»¤äºº": 4480,
  "æ²³åįĹ": 4481,
  "éĤĢ": 4482,
  "Ġknown": 4483,
  "çŁ¥åĲį": 4484,
  "åĲĦåľ°": 4485,
  "æ³ī": 4486,
  "å°ĺ": 4487,
  "Ġcour": 4488,
  "éº¦": 4489,
  "åģļåĪ°": 4490,
  "èĤ¿": 4491,
  "opy": 4492,
  "ken": 4493,
  "åħļåĳĺ": 4494,
  "èº«ä»½": 4495,
  "bf": 4496,
  "Ġredu": 4497,
  "Ġresearch": 4498,
  "plication": 4499,
  "ç£ģ": 4500,
  "æľĢå¤§çļĦ": 4501,
  "æĹ¦": 4502,
  "æĥ¯": 4503,
  "ä¸īä¸ª": 4504,
  "äººå£«": 4505,
  "åĸĿ": 4506,
  "è°ģ": 4507,
  "åľºæ¯ĶèµĽ": 4508,
  "ä¸ĵåĪ©": 4509,
  "ä¾µ": 4510,
  "èĽĭçĻ½": 4511,
  "ĠTo": 4512,
  "ä¸įåĪ°": 4513,
  "alpha": 4514,
  "å¹¿å¤§": 4515,
  "éĩįæĸ°": 4516,
  "ä¹Łåı¯ä»¥": 4517,
  "Ġelect": 4518,
  "çĽĳæµĭ": 4519,
  "Ġterm": 4520,
  "ä¹ĭéĹ´çļĦ": 4521,
  "æ¯Ķä¾ĭ": 4522,
  "åģ¿": 4523,
  "Ġdon": 4524,
  "eter": 4525,
  "æŀĦå»º": 4526,
  "An": 4527,
  "éĤ£äºĽ": 4528,
  "iod": 4529,
  "Ġleft": 4530,
  "Ġ100": 4531,
  "æ³ķåĽ½": 4532,
  "Ġgovern": 4533,
  "uro": 4534,
  "Ġimp": 4535,
  "æĻ¶": 4536,
  "åŃ¦ä¼ļ": 4537,
  "Ġdem": 4538,
  "ç²®": 4539,
  "Ġhtt": 4540,
  "Ġdid": 4541,
  "æī¾åĪ°": 4542,
  "çıį": 4543,
  "åĿĽ": 4544,
  "æ³½": 4545,
  "è¶ĭåĬ¿": 4546,
  "Ġcontin": 4547,
  "Ġenvironment": 4548,
  "Ġpoints": 4549,
  "è¯ģä¹¦": 4550,
  "è§Ĥä¼Ĺ": 4551,
  "result": 4552,
  "åĨħéĥ¨": 4553,
  "¡èĲ": 4554,
  "Ġinit": 4555,
  "æŁ±": 4556,
  "éļĨ": 4557,
  ">,": 4558,
  "æľĪä»½": 4559,
  "çļĦæĸ¹å¼ı": 4560,
  "éĢĤåºĶ": 4561,
  "äºĭä»¶": 4562,
  "Ġcell": 4563,
  "è¯Ħä»·": 4564,
  "æľ¬ç§ĳ": 4565,
  "ĠÐ": 4566,
  "ivid": 4567,
  "åĪĳ": 4568,
  "action": 4569,
  "åĬŀçĲĨ": 4570,
  "ãĢĭï¼Ī": 4571,
  "Ġhim": 4572,
  "é«ĺåº¦": 4573,
  "é¢Ħéĺ²": 4574,
  "Ġincluding": 4575,
  "èĪªç©º": 4576,
  "If": 4577,
  "èįĲ": 4578,
  "ems": 4579,
  "æ±¤": 4580,
  "æľīçĿĢ": 4581,
  "åĿ¡": 4582,
  "ä¸ĭæĿ¥": 4583,
  "è¦ĨçĽĸ": 4584,
  "Ġcalled": 4585,
  "å±¥": 4586,
  "Ġcreate": 4587,
  "Ġconst": 4588,
  "Ġunderstand": 4589,
  "ä¸´åºĬ": 4590,
  "éī": 4591,
  "éī´": 4592,
  "è®¤çľŁ": 4593,
  "è¡¨è¾¾": 4594,
  "çº¤": 4595,
  "89": 4596,
  "æĪªèĩ³": 4597,
  "çĶµåĬĽ": 4598,
  "Type": 4599,
  "2012": 4600,
  "åŁĥ": 4601,
  "æĢķ": 4602,
  "è®°å½ķ": 4603,
  "ä¿Ĺ": 4604,
  "{(": 4605,
  "ler": 4606,
  "çĹħæ¯Ĵ": 4607,
  "åĲĮæ¯Ķå¢ŀéķ¿": 4608,
  "into": 4609,
  "åŁºäºİ": 4610,
  "æĭľ": 4611,
  "å®ŀéªĮå®¤": 4612,
  "ä¼ĺåĮĸ": 4613,
  "Ġeas": 4614,
  "Ġdig": 4615,
  "å§ĵ": 4616,
  "ox": 4617,
  "é¥®é£Ł": 4618,
  "æ¶µ": 4619,
  "è¶³çĲĥ": 4620,
  "åıªèĥ½": 4621,
  "2013": 4622,
  "å¦Ĥä»Ĭ": 4623,
  "è®Ńç»ĥ": 4624,
  "çĽĳç®¡": 4625,
  "çĶĺ": 4626,
  "Ġlarge": 4627,
  "è¯ķéªĮ": 4628,
  "åħĪçĶŁ": 4629,
  "æĻĭ": 4630,
  "äºĨä¸Ģä¸ª": 4631,
  "äººå·¥": 4632,
  "Ġdev": 4633,
  "å¿Ĩ": 4634,
  "è´·æ¬¾": 4635,
  "Ġlast": 4636,
  "æĺ¯ä»Ģä¹Ī": 4637,
  "cer": 4638,
  "è½¦è¾Ĩ": 4639,
  "çļĦä¸»è¦ģ": 4640,
  ".\"": 4641,
  "æĭħä»»": 4642,
  "åħįè´¹": 4643,
  "itional": 4644,
  "å¸¸è§ģ": 4645,
  "ĠZ": 4646,
  "æĦĪ": 4647,
  "Ġhour": 4648,
  "Ġpublic": 4649,
  "å¹¼": 4650,
  "Ġdeterm": 4651,
  "èĲ¥ä¸ļ": 4652,
  "åĮ»çĶŁ": 4653,
  "æľĢå¤§": 4654,
  "Ġbre": 4655,
  "æİ¢ç´¢": 4656,
  "---": 4657,
  "Ġfr": 4658,
  "âĦĥ": 4659,
  "ailable": 4660,
  "çĽ¸åºĶ": 4661,
  "Test": 4662,
  "èĦī": 4663,
  "play": 4664,
  "æĮĤ": 4665,
  "å¹´ä»£": 4666,
  "æľīäºº": 4667,
  "max": 4668,
  "èį·": 4669,
  "è¾Ľ": 4670,
  "ç®Ģç§°": 4671,
  "çıł": 4672,
  "æİ¨åĩº": 4673,
  "åĮ»èį¯": 4674,
  "ume": 4675,
  "è¿ģ": 4676,
  "anguage": 4677,
  "æĢ§åĴĮ": 4678,
  "Ġlab": 4679,
  "Ġbook": 4680,
  "çļĦä¼ģä¸ļ": 4681,
  "[\"": 4682,
  "1000": 4683,
  "å°½ç®¡": 4684,
  "url": 4685,
  "çļĦäº§åĵģ": 4686,
  "aster": 4687,
  "ven": 4688,
  "ĠPl": 4689,
  "%ï¼Ľ": 4690,
  "Ġamount": 4691,
  "å²¸": 4692,
  "å·§": 4693,
  "Ġfour": 4694,
  "Ġhuman": 4695,
  "âĢ¦âĢ¦": 4696,
  "Ġmax": 4697,
  "çļĦæ²»çĸĹ": 4698,
  "None": 4699,
  "Ġmeans": 4700,
  "ä½ıæĪ¿": 4701,
  "ç½Ĺæĸ¯": 4702,
  "alk": 4703,
  "ä½ľèĢħ": 4704,
  "Ġmark": 4705,
  "åħ»èĢģ": 4706,
  "ugg": 4707,
  "ĠAnd": 4708,
  "æĭĽæłĩ": 4709,
  "æİ¥è§¦": 4710,
  "Ġgreat": 4711,
  "åĽ½åĬ¡": 4712,
  "çĤ¼": 4713,
  "Ġpres": 4714,
  "Ġpot": 4715,
  "AL": 4716,
  "Ġprof": 4717,
  "âĢĿâĢľ": 4718,
  "org": 4719,
  "Ã¡": 4720,
  "è¿ŀæİ¥": 4721,
  "lood": 4722,
  "ially": 4723,
  "Ġmove": 4724,
  "ina": 4725,
  "math": 4726,
  "çĥ¯": 4727,
  "87": 4728,
  "é¦ĸæ¬¡": 4729,
  "å®ŀåĬĽ": 4730,
  "æĪĲéĥ½": 4731,
  "ä¹ĭå¤ĸ": 4732,
  "ilar": 4733,
  "æ°¨": 4734,
  "pass": 4735,
  "Ġinterest": 4736,
  "è°±": 4737,
  "çĤī": 4738,
  "ä¿±ä¹Ĳ": 4739,
  "Ġinc": 4740,
  "42": 4741,
  "çĿ¡": 4742,
  "Ġbas": 4743,
  "rc": 4744,
  "æľ¬æĸĩæĳĺè¦ģ": 4745,
  "èĪĴ": 4746,
  "åıĳçĶµ": 4747,
  "å®ĭ": 4748,
  "ä¿±ä¹Ĳéĥ¨": 4749,
  "éº»": 4750,
  "èĳĹåĲį": 4751,
  "Ġplace": 4752,
  "è®ºæĸĩ": 4753,
  "Ġsince": 4754,
  "rem": 4755,
  "æļĹ": 4756,
  "åĲĦé¡¹": 4757,
  "éĶ¦": 4758,
  "è®¾ç«ĭ": 4759,
  "éĩįåºĨ": 4760,
  "Ð°": 4761,
  "è´Łè´£äºº": 4762,
  "Ġold": 4763,
  "å®¾": 4764,
  "point": 4765,
  "éĢļä¿¡": 4766,
  "çİ°å®ŀ": 4767,
  "è¿«": 4768,
  "ä¸Ģå®ļè¦ģ": 4769,
  "Ġprob": 4770,
  "Ġiss": 4771,
  "æľīäºĨ": 4772,
  "æĹ¨": 4773,
  "Ġterms": 4774,
  "Ġconn": 4775,
  "æ³ķè§Ħ": 4776,
  "è¿Ľåı£": 4777,
  "åŃ¦ä½į": 4778,
  "ä»¥åĲİ": 4779,
  "AD": 4780,
  "Ġpath": 4781,
  "ns": 4782,
  "è·Į": 4783,
  "ĠAp": 4784,
  "æĹ¥èµ·": 4785,
  "ç§Ĵ": 4786,
  "åĳĬè¯ī": 4787,
  "ä¼łæĴŃ": 4788,
  "itle": 4789,
  "æľºåľº": 4790,
  "write": 4791,
  "andard": 4792,
  "çļĦçĶŁæ´»": 4793,
  "gen": 4794,
  "äººæ°ĳæĶ¿åºľ": 4795,
  "opt": 4796,
  ",âĢĿ": 4797,
  "æ±¡æ°´": 4798,
  "è¿ĳæĹ¥": 4799,
  "ä¸įè¶³": 4800,
  "ä¸Ģä½ĵ": 4801,
  "å®ĺæĸ¹": 4802,
  "ploy": 4803,
  "çŃīçŃī": 4804,
  "åĽ½åĬ¡éĻ¢": 4805,
  "ived": 4806,
  "é«ĺæķĪ": 4807,
  "å¼¹": 4808,
  "æĿĨ": 4809,
  "func": 4810,
  "å¾Ģå¾Ģ": 4811,
  "05": 4812,
  "çĻ¾åĪĨ": 4813,
  "Ġorder": 4814,
  "ç¤ºèĮĥ": 4815,
  "ĠWhat": 4816,
  "æĸĩç«ł": 4817,
  "æĿ¥æºĲ": 4818,
  "lib": 4819,
  "ãĥ¼": 4820,
  "æŃ£ç¡®": 4821,
  "äº«åıĹ": 4822,
  "éģµ": 4823,
  "åķĨåĬ¡": 4824,
  "Ġrad": 4825,
  "ä¸Ĭåįĩ": 4826,
  "èĩªä¸»": 4827,
  "éĿ¢ä¸´": 4828,
  "è½¨": 4829,
  "Ġla": 4830,
  "çĬ¶åĨµ": 4831,
  "ird": 4832,
  "åħĥç´ł": 4833,
  "Ġstill": 4834,
  "Ġdevelopment": 4835,
  "æ¨ª": 4836,
  "å¥¶": 4837,
  "ache": 4838,
  "è§£åĨ³æĸ¹æ¡Ī": 4839,
  "Ġenergy": 4840,
  "ĠThere": 4841,
  "Ġlight": 4842,
  "ĠBut": 4843,
  "ĠSh": 4844,
  "UR": 4845,
  "Ġtop": 4846,
  "lish": 4847,
  "76": 4848,
  "IP": 4849,
  "çĭ¬çī¹": 4850,
  "èĢĥçĶŁ": 4851,
  "æīİ": 4852,
  "AM": 4853,
  "è®©äºº": 4854,
  "çĹħæĥħ": 4855,
  "aces": 4856,
  "ä¹³": 4857,
  "å§ĭç»Ī": 4858,
  "å½¢è±¡": 4859,
  "Ġcho": 4860,
  "56": 4861,
  "ĠThese": 4862,
  "æľĢä½³": 4863,
  "è¿ĳå¹´æĿ¥": 4864,
  "éĵľ": 4865,
  "åĲ¯åĬ¨": 4866,
  "æ·¡": 4867,
  "æį·": 4868,
  "é«ĺè´¨éĩı": 4869,
  "å²©": 4870,
  "çī©çĲĨ": 4871,
  "ories": 4872,
  "Ġtrue": 4873,
  "ç±į": 4874,
  "ables": 4875,
  "æľ±": 4876,
  "é¡ºåĪ©": 4877,
  "èĩ´åĬĽ": 4878,
  "åľ¨ä¸ŃåĽ½": 4879,
  "ä¼ı": 4880,
  "Ġtimes": 4881,
  "ission": 4882,
  "èģĮå·¥": 4883,
  "ä¸»æĮģ": 4884,
  "ither": 4885,
  "EN": 4886,
  "Ġå¹´": 4887,
  "åĩłä¹İ": 4888,
  "inc": 4889,
  "äºļæ´²": 4890,
  "Ġmight": 4891,
  "åĴĮåĽ½": 4892,
  "Ġpresent": 4893,
  "å°¾": 4894,
  "cle": 4895,
  "Ġcorrect": 4896,
  "æŀĦæĪĲ": 4897,
  "å¾Ĳ": 4898,
  "çļĦåŁºç¡Ģ": 4899,
  "å£ģ": 4900,
  "rist": 4901,
  "ope": 4902,
  "ury": 4903,
  "ertain": 4904,
  "å¤©çĦ¶": 4905,
  "Let": 4906,
  "iness": 4907,
  "æİĴæĶ¾": 4908,
  "å£®": 4909,
  "idd": 4910,
  "ients": 4911,
  "Ġdise": 4912,
  "Ġlearning": 4913,
  "ç¼´": 4914,
  "util": 4915,
  "æĺ¯æĮĩ": 4916,
  "ek": 4917,
  "æī¹åĩĨ": 4918,
  "ä¾Ŀæį®": 4919,
  "Ġlim": 4920,
  "åĳĪçİ°": 4921,
  "Ġmeas": 4922,
  "æĭĴ": 4923,
  "çº½": 4924,
  "äºķ": 4925,
  "ç´«": 4926,
  "å®ļçļĦ": 4927,
  "af": 4928,
  "String": 4929,
  "äºĭå®ŀ": 4930,
  "Ġgen": 4931,
  "Ġben": 4932,
  "Ġpract": 4933,
  "çľŁçļĦ": 4934,
  "ä¸Ĭè¿°": 4935,
  "æĿľ": 4936,
  "åįļçī©": 4937,
  "æĽ´æĸ°": 4938,
  "èĢĮè¨Ģ": 4939,
  "å¯¹è±¡": 4940,
  "âĳ": 4941,
  "ĠWhen": 4942,
  "ç»ĺ": 4943,
  "ĠâĢĺ": 4944,
  "ç²ĺ": 4945,
  "åľ¨è¿Ļ": 4946,
  "å¾½": 4947,
  "ãĢĭãĢĬ": 4948,
  "ä¹ı": 4949,
  "æĺĮ": 4950,
  "ites": 4951,
  "æĪ´": 4952,
  "orth": 4953,
  "ĠÃ": 4954,
  "2011": 4955,
  "Ġanother": 4956,
  "erc": 4957,
  "Ġopen": 4958,
  "Ġaccess": 4959,
  "Ġadv": 4960,
  "Ðµ": 4961,
  "æ®ĸ": 4962,
  "å½ĵåīį": 4963,
  "Ġbro": 4964,
  "back": 4965,
  "æĸ°èĥ½æºĲ": 4966,
  "æĲľ": 4967,
  "å¼ºçļĦ": 4968,
  "ä¸īåĪĨ": 4969,
  "æĸĩåŃ¦": 4970,
  "Ġ11": 4971,
  "æĽ´å¥½": 4972,
  "atural": 4973,
  "....": 4974,
  "ĠCol": 4975,
  "output": 4976,
  "çĽ¸åĲĮ": 4977,
  "æĹĭ": 4978,
  "less": 4979,
  "ividual": 4980,
  "ä½©": 4981,
  "åĽĽå·Ŀ": 4982,
  "çĶµåĬ¨": 4983,
  "Ġsquare": 4984,
  "å¼Ł": 4985,
  "åħļå§Ķ": 4986,
  "å¥³æĢ§": 4987,
  "çľŁå®ŀ": 4988,
  "é¢Ĺ": 4989,
  "è¿ħéĢŁ": 4990,
  "åħįçĸ«": 4991,
  "æĮĩæķ°": 4992,
  "const": 4993,
  "illion": 4994,
  "ĠDe": 4995,
  "æĥħç»ª": 4996,
  "èĥĮæĻ¯": 4997,
  "å®£å¸ĥ": 4998,
  "é»İ": 4999,
  "é£İæł¼": 5000,
  "è¾ī": 5001,
  "www": 5002,
  "ç¯®æĿ¿": 5003,
  "èĲ¥éĶĢ": 5004,
  "åıĺå¾Ĺ": 5005,
  "å¹´åīį": 5006,
  "èķ": 5007,
  "Given": 5008,
  "è£Ĥ": 5009,
  "è¡¨æĺİ": 5010,
  "éĿ¢çļĦ": 5011,
  "æİĮæı¡": 5012,
  "å¹²éĥ¨": 5013,
  "åĲįç§°": 5014,
  "ination": 5015,
  "CT": 5016,
  "Ġel": 5017,
  "ä¸Ģå®ļçļĦ": 5018,
  "åĵģç§į": 5019,
  "ï¼ħ": 5020,
  "¡èĲĦ": 5021,
  "Ġrisk": 5022,
  "æĭĽçĶŁ": 5023,
  "ä¹łæĥ¯": 5024,
  "èĳ¡èĲĦ": 5025,
  "éĹ²": 5026,
  "ĠWh": 5027,
  "Ġmaterial": 5028,
  "wh": 5029,
  "ä½ĵçİ°": 5030,
  "éĺħè¯»": 5031,
  "ä¸ĩåĲ¨": 5032,
  "ãĢĭãĢģãĢĬ": 5033,
  "æĻĵ": 5034,
  "sum": 5035,
  "Ġchar": 5036,
  "Ġhere": 5037,
  "head": 5038,
  "æ¡ĥ": 5039,
  "SS": 5040,
  "Ġelse": 5041,
  "iving": 5042,
  "èµĸ": 5043,
  "è¿ĲçĶ¨": 5044,
  "ored": 5045,
  "äººçĶŁ": 5046,
  "é«ĺçŃī": 5047,
  "åĪĨå¸ĥ": 5048,
  "åħ´è¶£": 5049,
  "å·ŀå¸Ĥ": 5050,
  "å¾ªçİ¯": 5051,
  "éĻ¢æł¡": 5052,
  "ences": 5053,
  "84": 5054,
  "ajor": 5055,
  "Ġinclude": 5056,
  "Ġ{}": 5057,
  "ç»ıåħ¸": 5058,
  "ä¸Ńå°ı": 5059,
  "æ¦Ĥå¿µ": 5060,
  "96": 5061,
  "è½¬åŀĭ": 5062,
  "èı²": 5063,
  "ç´łè´¨": 5064,
  "orn": 5065,
  "å²ģçļĦ": 5066,
  "èĦ¸": 5067,
  "ĠSince": 5068,
  "äº§æĿĥ": 5069,
  "Ġbest": 5070,
  "æĺĨ": 5071,
  "å®ı": 5072,
  "ĠHowever": 5073,
  "èļĢ": 5074,
  "Ġeduc": 5075,
  "åĸ·": 5076,
  "Ġpost": 5077,
  "èī¾": 5078,
  "outh": 5079,
  "å°Ĩäºİ": 5080,
  "è¿ĽæŃ¥": 5081,
  "da": 5082,
  "BC": 5083,
  "åĿ¦": 5084,
  "Ġdel": 5085,
  "Ġden": 5086,
  "var": 5087,
  "çĪ¶æ¯į": 5088,
  "ification": 5089,
  "çŁ³æ²¹": 5090,
  "æ¼ı": 5091,
  "Ġlearn": 5092,
  "æ¸ł": 5093,
  "å¹´é¾Ħ": 5094,
  "é©»": 5095,
  "è·³": 5096,
  "é«ĺçº§": 5097,
  "Ġmean": 5098,
  "åĭ¤": 5099,
  "å±ķçİ°": 5100,
  "uture": 5101,
  "è²": 5102,
  "éĨĩ": 5103,
  "ç¥ŀç»ı": 5104,
  "ç§¦": 5105,
  "ĠEn": 5106,
  "å¼ºè°ĥ": 5107,
  "èµµ": 5108,
  "èī¯å¥½": 5109,
  "åĮħåĲ«": 5110,
  "Ġleg": 5111,
  "å¼ºåº¦": 5112,
  "æľĢè¿ĳ": 5113,
  "åıĳçĹħ": 5114,
  "å¹¸ç¦ı": 5115,
  "æĽ´å¤ļçļĦ": 5116,
  "æµ®": 5117,
  "æľºçļĦ": 5118,
  "æİ¨èįĲ": 5119,
  "åħĪåĲİ": 5120,
  "Ġdays": 5121,
  "ä¸°å¯ĮçļĦ": 5122,
  "ering": 5123,
  "å°Ĩä¼ļ": 5124,
  "otal": 5125,
  "ãĢĤï¼Ī": 5126,
  "pre": 5127,
  "Ġland": 5128,
  "åĶ¯ä¸Ģ": 5129,
  "è§Ĥå¯Ł": 5130,
  "arc": 5131,
  "æĺ¯çĶ±": 5132,
  "åį³ä½¿": 5133,
  "çĶŁæ´»ä¸Ń": 5134,
  "éĻĲåĪ¶": 5135,
  "åĪ©çĽĬ": 5136,
  "çļĦä¸Ģä¸ª": 5137,
  "Ġphys": 5138,
  "ç«ŀèµĽ": 5139,
  "èĩ³ä»Ĭ": 5140,
  "çģŃ": 5141,
  "oms": 5142,
  "}+": 5143,
  "ä¸»åĬ¨": 5144,
  "Ġrece": 5145,
  "ä¸Ģä½į": 5146,
  "Ġsocial": 5147,
  "èĸĦ": 5148,
  "æĲº": 5149,
  "åħħæ»¡": 5150,
  "åħļçļĦ": 5151,
  "æıĲä¾ĽäºĨ": 5152,
  "åĪĢ": 5153,
  "çķħ": 5154,
  "Since": 5155,
  "Ġide": 5156,
  "åįĬå¹´": 5157,
  "ances": 5158,
  "Ġcase": 5159,
  "43": 5160,
  "apt": 5161,
  "Ġtext": 5162,
  "Ġperform": 5163,
  "å¦Ĥä¸ĭ": 5164,
  "èĩªæĪĳ": 5165,
  "åı¬å¼Ģ": 5166,
  "è¿½æ±Ĥ": 5167,
  "Ġleast": 5168,
  "Ġthink": 5169,
  "mp": 5170,
  "æĮĩæłĩ": 5171,
  "ç»ĻäºĪ": 5172,
  "2008": 5173,
  "æķĻç»ĥ": 5174,
  "^\\": 5175,
  "PC": 5176,
  "aving": 5177,
  "çĲĨæĥ³": 5178,
  "97": 5179,
  "èĥ¡": 5180,
  "ott": 5181,
  "è®¨è®º": 5182,
  "èĬĤçĽ®": 5183,
  "è·ĥ": 5184,
  "lu": 5185,
  "å°ıç»Ħ": 5186,
  "å¼Ĺ": 5187,
  "Ġfew": 5188,
  "iction": 5189,
  "clusion": 5190,
  "æ»¤": 5191,
  "æĶ¶éĽĨ": 5192,
  "æ²ŁéĢļ": 5193,
  "æĴĳ": 5194,
  "æĬķæłĩ": 5195,
  "åħ¬ä¼Ĺ": 5196,
  "Ġpercent": 5197,
  "ĠRe": 5198,
  "Ġnp": 5199,
  "ä¸ĢåĪĩ": 5200,
  "PS": 5201,
  "ique": 5202,
  "æĩĤ": 5203,
  "ought": 5204,
  "å¸ĤåľºçļĦ": 5205,
  "ãĢĭãĢĤ": 5206,
  "çŃīå¥ĸ": 5207,
  "Ġpur": 5208,
  "åĲ«æľī": 5209,
  "Ġresp": 5210,
  "duct": 5211,
  "æ²»çĲĨ": 5212,
  "Ġlow": 5213,
  "co": 5214,
  "èĤº": 5215,
  "åıĳè¡Į": 5216,
  "çļĦå¿ĥ": 5217,
  "ĊĊĠĠĠĠĠĠĠĠĠĠĠĠ": 5218,
  "41": 5219,
  "æī£": 5220,
  "ä¿Ħç½Ĺæĸ¯": 5221,
  "ĠSo": 5222,
  "äººä½ĵ": 5223,
  "å¡ĳæĸĻ": 5224,
  "lobal": 5225,
  "Ġeng": 5226,
  "ĠEng": 5227,
  "Ġvol": 5228,
  "ift": 5229,
  "rate": 5230,
  "Ġview": 5231,
  "åĲĪæł¼": 5232,
  "98": 5233,
  "Ġåľ¨": 5234,
  "Ġlaw": 5235,
  "äºĭæĥħ": 5236,
  "å¥ı": 5237,
  "Ġindividual": 5238,
  "Ġconsider": 5239,
  "èħ¾": 5240,
  "éħįåĲĪ": 5241,
  "Ġfin": 5242,
  "Ġwomen": 5243,
  "é¼ĵåĬ±": 5244,
  "Key": 5245,
  "ysis": 5246,
  "åĵ²": 5247,
  "].": 5248,
  "BA": 5249,
  "çĺ¤": 5250,
  "æĦŁåĪ°": 5251,
  "å°ĳå¹´": 5252,
  "Ġconf": 5253,
  "ĠUniversity": 5254,
  "èī²çļĦ": 5255,
  "Ġbeg": 5256,
  "èĢ¶": 5257,
  "Ġanim": 5258,
  "åŃķ": 5259,
  "yle": 5260,
  "çĮª": 5261,
  "Ġnec": 5262,
  "Ġrequest": 5263,
  "æĬĳ": 5264,
  "çļĦæĬĢæľ¯": 5265,
  "ustom": 5266,
  "Ġalways": 5267,
  "ember": 5268,
  "å®ŀè¡Į": 5269,
  "åľ°ä½į": 5270,
  "lection": 5271,
  "åĪĽå»º": 5272,
  "å¾Īå¤§": 5273,
  "osp": 5274,
  "Ġaut": 5275,
  "åĮħè£ħ": 5276,
  "æĦıå¤§åĪ©": 5277,
  "æĹ¥èĩ³": 5278,
  "des": 5279,
  "Ġĉĉ": 5280,
  "è§Ĵåº¦": 5281,
  "Ġallow": 5282,
  "å®Įæķ´": 5283,
  "çļĦåľ°æĸ¹": 5284,
  "df": 5285,
  "åįļçī©é¦Ĩ": 5286,
  "Ġimpro": 5287,
  "aut": 5288,
  "Ġbelie": 5289,
  "æĺ¾èĳĹ": 5290,
  "éĺŁä¼į": 5291,
  "æĦıåĳ³": 5292,
  "è¿Ļä¹Ī": 5293,
  "itor": 5294,
  "æĶ¶çĽĬ": 5295,
  "Ġmus": 5296,
  "78": 5297,
  "Ġtriangle": 5298,
  "Ġcult": 5299,
  "éĵģè·¯": 5300,
  "çº¿ä¸Ĭ": 5301,
  "çº¹": 5302,
  "ental": 5303,
  "Ð¾Ð": 5304,
  "å°¤åħ¶æĺ¯": 5305,
  "å¼ºåĮĸ": 5306,
  "æµ¦": 5307,
  "éĻ·": 5308,
  "åįıè°ĥ": 5309,
  "Ġrepresent": 5310,
  "èĭ±è¯Ń": 5311,
  "æŁĶ": 5312,
  "ention": 5313,
  "alle": 5314,
  "éŀ": 5315,
  "èĴ¸": 5316,
  "éĩĮçļĦ": 5317,
  "çī¹å¾ģ": 5318,
  "æĪĲäºĨ": 5319,
  "Ġnext": 5320,
  "eta": 5321,
  "åħ±åĴĮåĽ½": 5322,
  "æĽ´æĺ¯": 5323,
  "err": 5324,
  "bs": 5325,
  "åĲĽ": 5326,
  "è´¯å½»": 5327,
  "agement": 5328,
  "çī©çļĦ": 5329,
  "Ġbased": 5330,
  "pec": 5331,
  "Ġpositive": 5332,
  "åĲĮæł·": 5333,
  "tx": 5334,
  "default": 5335,
  "Ġconfig": 5336,
  "å¤§éĥ¨åĪĨ": 5337,
  "MT": 5338,
  "Al": 5339,
  "ĠĊ": 5340,
  "ç´¯è®¡": 5341,
  "geq": 5342,
  "Now": 5343,
  "ields": 5344,
  "ç¦»å¼Ģ": 5345,
  "iple": 5346,
  "å°±åı¯ä»¥": 5347,
  "å¤§å¤ļæķ°": 5348,
  "çĶľ": 5349,
  "Ã³": 5350,
  "Sub": 5351,
  ")ãĢĤ": 5352,
  "ohn": 5353,
  "ç¦»åŃĲ": 5354,
  "ills": 5355,
  "\\).": 5356,
  "Un": 5357,
  "ç¡ķå£«": 5358,
  "èĤ¡ä¸ľ": 5359,
  "æµ·å¤ĸ": 5360,
  "ector": 5361,
  "æľ¬èº«": 5362,
  "å°º": 5363,
  "ä¼Ĺå¤ļ": 5364,
  "}^{": 5365,
  "uction": 5366,
  "èĬ¯": 5367,
  "æīĢåľ¨": 5368,
  "Ġcaus": 5369,
  "58": 5370,
  "äººåľ¨": 5371,
  "è¯¦ç»Ĩ": 5372,
  "èŀº": 5373,
  "ently": 5374,
  "400": 5375,
  "åı°æ¹¾": 5376,
  "çī©èģĶç½ĳ": 5377,
  "åĪºæ¿Ģ": 5378,
  "ĠComm": 5379,
  "è´¢åĬ¡": 5380,
  "åĲĦä¸ª": 5381,
  "ĠTherefore": 5382,
  "ä¸ļç»©": 5383,
  "èµ«": 5384,
  "Ġinput": 5385,
  "Ġresults": 5386,
  "Ġappe": 5387,
  "åĩĨç¡®": 5388,
  "ä¸ĢçĤ¹": 5389,
  "å®ħ": 5390,
  "ĠĠĠĠĠ": 5391,
  "å§Ķä¼ļ": 5392,
  "Ġ17": 5393,
  "Ġavailable": 5394,
  "request": 5395,
  "ocus": 5396,
  "amb": 5397,
  "çĻ½çĻľé£İçļĦ": 5398,
  "ĠPh": 5399,
  "asing": 5400,
  "ane": 5401,
  "è§Ħå®ļçļĦ": 5402,
  "indows": 5403,
  "ĠâĢĶ": 5404,
  "valid": 5405,
  "çİ¯èĬĤ": 5406,
  "åģ¶": 5407,
  "è¿Ļæ¬¡": 5408,
  "ians": 5409,
  "æ¸¸å®¢": 5410,
  "ä½¿å¾Ĺ": 5411,
  "ties": 5412,
  "ET": 5413,
  "çļĦä¸Ģç§į": 5414,
  "éĺ²æŃ¢": 5415,
  "icle": 5416,
  "57": 5417,
  "ä¹¡æĿĳ": 5418,
  "æµģç¨ĭ": 5419,
  "Ġhig": 5420,
  "å®¿": 5421,
  "çļĦçłĶç©¶": 5422,
  "Ġkeep": 5423,
  "åĬ©æĶ»": 5424,
  "Ġhome": 5425,
  "So": 5426,
  "åĩłä¸ª": 5427,
  "åıĤèĢĥ": 5428,
  "æĶ¹éĢł": 5429,
  "Ġexist": 5430,
  "True": 5431,
  "æ»¨": 5432,
  "ç¾Ĭ": 5433,
  "çĤŃ": 5434,
  "ä¸Ģå®¶": 5435,
  "What": 5436,
  "åįģäºĮ": 5437,
  "ä¿¡åı·": 5438,
  "éĻ¶": 5439,
  "orld": 5440,
  "Ġperiod": 5441,
  "æĬ¤çĲĨ": 5442,
  "ename": 5443,
  "MA": 5444,
  "Ġ50": 5445,
  "çİ©å®¶": 5446,
  "äºĭé¡¹": 5447,
  "æĸ°åŀĭ": 5448,
  "68": 5449,
  "è£ħç½®": 5450,
  "ules": 5451,
  "æ¬£": 5452,
  "å¤ļå°ĳ": 5453,
  "cript": 5454,
  "ĠGod": 5455,
  "æī«": 5456,
  "Ġpain": 5457,
  "info": 5458,
  "my": 5459,
  "CD": 5460,
  "èĸª": 5461,
  "æĪ¿åľ°äº§": 5462,
  "çļĨ": 5463,
  "-\\": 5464,
  "Ġassoci": 5465,
  "çľģçº§": 5466,
  "alf": 5467,
  "vious": 5468,
  "52": 5469,
  "Ġagainst": 5470,
  "éļľç¢į": 5471,
  "Ġmajor": 5472,
  "æ°ĶåĢĻ": 5473,
  "Ġopt": 5474,
  "xy": 5475,
  "èħ¹": 5476,
  "ves": 5477,
  "Ġbecome": 5478,
  "å¤ļå¹´": 5479,
  "æī°": 5480,
  "å°Ŀ": 5481,
  "Ġturn": 5482,
  "http": 5483,
  "æ¼Ķåĳĺ": 5484,
  "èĩªæ²»": 5485,
  "Ġtoo": 5486,
  "Ġfinal": 5487,
  "pack": 5488,
  "éĺŁçļĦ": 5489,
  "çĶŁç´ł": 5490,
  "ES": 5491,
  "02": 5492,
  "Ġprovide": 5493,
  "è§£éĩĬ": 5494,
  "è¿ĺè¦ģ": 5495,
  "ä¹ĥ": 5496,
  "Ġuser": 5497,
  "æĽ¾ç»ı": 5498,
  "å¹¶åľ¨": 5499,
  "æĸ°æĬĢæľ¯": 5500,
  "egin": 5501,
  "èĤ¡ç¥¨": 5502,
  "ä¼ĺæĥł": 5503,
  "ung": 5504,
  "59": 5505,
  "æĬķèµĦèĢħ": 5506,
  "èģĶçĽŁ": 5507,
  "ved": 5508,
  "åĬŀåħ¬å®¤": 5509,
  "éĶģ": 5510,
  "æĻ¨": 5511,
  "åĲİæĿ¥": 5512,
  "å½¼": 5513,
  "Text": 5514,
  "ä¼Ļä¼´": 5515,
  "æĻ¯åĮº": 5516,
  "ftware": 5517,
  "Ġ13": 5518,
  "Ġgl": 5519,
  "æ²ĥ": 5520,
  "UT": 5521,
  "float": 5522,
  "èĦı": 5523,
  "crib": 5524,
  "æł¹æľ¬": 5525,
  "çģ°": 5526,
  "æ°¢": 5527,
  "Ġsize": 5528,
  "atures": 5529,
  "dis": 5530,
  "########": 5531,
  "åħ±äº«": 5532,
  "æ´ª": 5533,
  "æłı": 5534,
  "Ġbus": 5535,
  "ingle": 5536,
  "PI": 5537,
  "Ġcheck": 5538,
  "çĩ¥": 5539,
  "è¡Ģç®¡": 5540,
  "Ġcontrol": 5541,
  "è£ħå¤ĩ": 5542,
  "å¿ĥçļĦ": 5543,
  "tri": 5544,
  "Ġconditions": 5545,
  "åĲ¸æĶ¶": 5546,
  "äºİæĺ¯": 5547,
  "Ġmonth": 5548,
  "æ¹ĸåįĹ": 5549,
  "thon": 5550,
  "Ġdat": 5551,
  "mm": 5552,
  "å¦»": 5553,
  "å»ī": 5554,
  "æ¬²": 5555,
  "FI": 5556,
  "Ġcy": 5557,
  "Ġsource": 5558,
  "Ġspecific": 5559,
  "Ġcircle": 5560,
  "ä»ªåĻ¨": 5561,
  "ç¾İä¸½": 5562,
  "éĥ½åľ¨": 5563,
  "dated": 5564,
  "!(\"": 5565,
  "Ġfield": 5566,
  "match": 5567,
  "åĽŀåºĶ": 5568,
  "æīĢå¾Ĺ": 5569,
  "ä¹Łå°±æĺ¯": 5570,
  "æĪĲå°±": 5571,
  "ones": 5572,
  "object": 5573,
  "æĭ¼": 5574,
  "åŃ¦åİĨ": 5575,
  "Ġdoc": 5576,
  "error": 5577,
  "2007": 5578,
  "èĤĮ": 5579,
  "Ġant": 5580,
  "Ġgovernment": 5581,
  "Ġequal": 5582,
  "ends": 5583,
  "Ġsat": 5584,
  "Id": 5585,
  "åİĤå®¶": 5586,
  "éĽķ": 5587,
  "ä¼ļä¸Ĭ": 5588,
  "å¯¸": 5589,
  "Ġamong": 5590,
  "ç¬¬äºĶ": 5591,
  "Value": 5592,
  "cription": 5593,
  "plit": 5594,
  "ãĢĤãĢĬ": 5595,
  "å±ķè§Ī": 5596,
  "ä¼¸": 5597,
  "aper": 5598,
  "ula": 5599,
  "çĶŁéķ¿": 5600,
  "åĬ²": 5601,
  "Ġair": 5602,
  "Ġfamily": 5603,
  "è§Ĵèī²": 5604,
  "ails": 5605,
  "ä»£çĲĨ": 5606,
  "å¸ĥå±Ģ": 5607,
  "uration": 5608,
  "è¾ĸ": 5609,
  "å¾Ĵ": 5610,
  "Ġcode": 5611,
  "è¡Įä¸ļçļĦ": 5612,
  "ured": 5613,
  "ogn": 5614,
  "åº¦çļĦ": 5615,
  "æĦıåĳ³çĿĢ": 5616,
  "èĶ¬": 5617,
  "ĠStr": 5618,
  "åĲ«éĩı": 5619,
  "åŃĲçļĦ": 5620,
  "Ġrest": 5621,
  "æĪĲçĨŁ": 5622,
  "ä¼ļæľī": 5623,
  "éŃĶ": 5624,
  "åºĶçĶ¨äºİ": 5625,
  "lease": 5626,
  "åįĵ": 5627,
  "til": 5628,
  "?;": 5629,
  "é©¾é©¶": 5630,
  "éģĩåĪ°": 5631,
  "æįŁå¤±": 5632,
  "Ġevent": 5633,
  "åıįæĺł": 5634,
  "åģļåĩº": 5635,
  "æķ°åŃ¦": 5636,
  "urther": 5637,
  "omain": 5638,
  "inst": 5639,
  "èĩ´åĬĽäºİ": 5640,
  "çļĦæĥħåĨµä¸ĭ": 5641,
  "Ġdistance": 5642,
  "Ġhapp": 5643,
  "Ġmen": 5644,
  "çº¤ç»´": 5645,
  "å¥¥è¿Ĳ": 5646,
  "æĦŁè°¢": 5647,
  "èĪį": 5648,
  "æĭĶ": 5649,
  "Ġcause": 5650,
  "èĤ¡ä»½æľīéĻĲåħ¬åı¸": 5651,
  "Ġbetter": 5652,
  "åĽ´ç»ķ": 5653,
  "éĩĩè´Ń": 5654,
  "Ġsever": 5655,
  "ogle": 5656,
  "ething": 5657,
  "æĶ¯æĴĳ": 5658,
  "åįģå¹´": 5659,
  "æ°Ľ": 5660,
  "æ¸ħæ´ģ": 5661,
  "ä¸ĭéĿ¢": 5662,
  "ĠTrue": 5663,
  "Thus": 5664,
  "çĵľ": 5665,
  "2009": 5666,
  "çļĦåĲĮæĹ¶": 5667,
  "çī¹åĪ«æĺ¯": 5668,
  "çªģåĩº": 5669,
  "Ġneeds": 5670,
  "çĪ±æĥħ": 5671,
  "è¿Ļä½į": 5672,
  "Ġess": 5673,
  "é¢ĨåŁŁçļĦ": 5674,
  "image": 5675,
  "}.": 5676,
  "Reg": 5677,
  "æ°Ķä½ĵ": 5678,
  "å¤ļæ¬¡": 5679,
  "ä»ĵ": 5680,
  "json": 5681,
  "Ġabove": 5682,
  "å½ĵä¸Ń": 5683,
  "æĪĲåĪĨ": 5684,
  "èĿ": 5685,
  "Ġid": 5686,
  "Ġdep": 5687,
  "expect": 5688,
  "éĢıè¿ĩ": 5689,
  "åĬłä¸Ĭ": 5690,
  "Ġlocal": 5691,
  "è´§å¸ģ": 5692,
  "ocker": 5693,
  "ä¸»å¸Ń": 5694,
  "Ġblood": 5695,
  "ĠUnited": 5696,
  "å¦Ĥæŀľä½ł": 5697,
  "äº©": 5698,
  "çļĦæĸ¹æ³ķ": 5699,
  "Ð¸": 5700,
  "ä»ĸåľ¨": 5701,
  "çŃīæĸ¹éĿ¢": 5702,
  "è¾½": 5703,
  "MP": 5704,
  "èĤĿ": 5705,
  "äººæķ°": 5706,
  "ised": 5707,
  "ä¸»è¦ģæĺ¯": 5708,
  "aps": 5709,
  "ä¸ĭåįĪ": 5710,
  "é¸Ł": 5711,
  "Ġ\\(\\": 5712,
  "çļĦæľįåĬ¡": 5713,
  "OS": 5714,
  "æħĪ": 5715,
  "äºĭæķħ": 5716,
  "äº§éĩı": 5717,
  "è¯ŀ": 5718,
  "æ£®æŀĹ": 5719,
  "æŃ¦æ±ī": 5720,
  "ç»´ä¿®": 5721,
  "åĢ¾": 5722,
  "çºªå½ķ": 5723,
  "place": 5724,
  "Col": 5725,
  "Ġearly": 5726,
  "æĭĽèģĺ": 5727,
  "å½±çīĩ": 5728,
  "ister": 5729,
  "æ§": 5730,
  "}=": 5731,
  "ĠOr": 5732,
  "çłĶç©¶çĶŁ": 5733,
  "Ġsides": 5734,
  "yd": 5735,
  "å¥ī": 5736,
  "ä¸Ńåįİäººæ°ĳ": 5737,
  "ä¼¼ä¹İ": 5738,
  "ĠStates": 5739,
  "ç³»ç»ŁçļĦ": 5740,
  "Ġcountry": 5741,
  "å¥¹çļĦ": 5742,
  "Ġplant": 5743,
  "æĢ»ç»ĵ": 5744,
  "éħ¯": 5745,
  "ä¼ļåĳĺ": 5746,
  "ication": 5747,
  "Ġcertain": 5748,
  "zure": 5749,
  "ä¸Ńåįİäººæ°ĳåħ±åĴĮåĽ½": 5750,
  "å¨±ä¹Ĳ": 5751,
  "æĢĿèĢĥ": 5752,
  "åįıåĬ©": 5753,
  "une": 5754,
  "Ġput": 5755,
  "éĢĲæŃ¥": 5756,
  "åĽ¾ä¹¦": 5757,
  "html": 5758,
  "åĩºçĶŁ": 5759,
  "å¹»": 5760,
  "æĭįæĳĦ": 5761,
  "åı¯ä»¥åľ¨": 5762,
  "Ġareas": 5763,
  "åı¯éĿł": 5764,
  "ML": 5765,
  "ormal": 5766,
  "conn": 5767,
  "å¸¦é¢Ĩ": 5768,
  "æĹ¶çļĦ": 5769,
  "Ap": 5770,
  "Ġstring": 5771,
  "oper": 5772,
  "sa": 5773,
  ")(": 5774,
  "åĩ½": 5775,
  "à¤": 5776,
  "ĠSe": 5777,
  "OT": 5778,
  "éļ¾ä»¥": 5779,
  "Ġsequ": 5780,
  "æºª": 5781,
  "æĸĩåŃĹ": 5782,
  "åĲĮæľŁ": 5783,
  "book": 5784,
  "æıĲäº¤": 5785,
  "å¤§åĬĽ": 5786,
  "inter": 5787,
  "Ġspeed": 5788,
  "Ġcondition": 5789,
  "\\),": 5790,
  "æĭĴç»Ŀ": 5791,
  "å®¶éķ¿": 5792,
  "åĩī": 5793,
  "ological": 5794,
  "Ġintern": 5795,
  "Ġfore": 5796,
  "å±¥è¡Į": 5797,
  "èĤ¯å®ļ": 5798,
  "æĤ£èĢħçļĦ": 5799,
  "ception": 5800,
  "ai": 5801,
  "verage": 5802,
  "å¯¹å¤ĸ": 5803,
  "acy": 5804,
  "æľīå¾Īå¤ļ": 5805,
  "ä»¿": 5806,
  "ĠAmerican": 5807,
  "æĢģåº¦": 5808,
  "irt": 5809,
  "ç¨¿": 5810,
  "å¯¹æĸ¹": 5811,
  "ä¸ĢåĲį": 5812,
  "éħįå¥Ĺ": 5813,
  "ä¹Łåľ¨": 5814,
  "é¢ģ": 5815,
  "éĻķ": 5816,
  "Ġmov": 5817,
  "function": 5818,
  "Ġaccount": 5819,
  "å¿½": 5820,
  "à¼": 5821,
  "è²Į": 5822,
  "ä¸¤ç§į": 5823,
  "content": 5824,
  "Ġcomput": 5825,
  "Ġnet": 5826,
  "Ġaffect": 5827,
  "hel": 5828,
  "çļĦä½ľçĶ¨": 5829,
  "69": 5830,
  "\");": 5831,
  "æĳĨ": 5832,
  "ograph": 5833,
  "Ġ25": 5834,
  "çĸĨ": 5835,
  "Ġred": 5836,
  "Ġsw": 5837,
  "iver": 5838,
  "æ¯ķä¸ļçĶŁ": 5839,
  "ç»´çĶŁç´ł": 5840,
  "è®¤åı¯": 5841,
  "åºĶæĢ¥": 5842,
  "äºĳåįĹ": 5843,
  "åĪ¶åĵģ": 5844,
  "========": 5845,
  "Ġinvolv": 5846,
  "Ġ[]": 5847,
  "æ·±åº¦": 5848,
  "ayer": 5849,
  "ln": 5850,
  "è£ħé¥°": 5851,
  "çī§": 5852,
  "08": 5853,
  "ä¸ĵä¸ļçļĦ": 5854,
  "æĦŁåıĹ": 5855,
  "æŃ£æĺ¯": 5856,
  "ä½ľåĩº": 5857,
  "Ar": 5858,
  "Ġeconom": 5859,
  "ribute": 5860,
  "åĽŀæĶ¶": 5861,
  "ä½łä»¬": 5862,
  "oogle": 5863,
  "æłĩå¿Ĺ": 5864,
  "rix": 5865,
  "åľºæīĢ": 5866,
  "å°ĸ": 5867,
  "åĭŁ": 5868,
  "è§ĦåĪĻ": 5869,
  "æĽ´å¥½çļĦ": 5870,
  "Ġparticular": 5871,
  "Ġable": 5872,
  "ĠGerm": 5873,
  "å¤©æ´¥": 5874,
  "åĲįåįķ": 5875,
  "ä¸»åĬŀ": 5876,
  "æķ¢": 5877,
  "((": 5878,
  "Ċĉĉĉĉ": 5879,
  "é¢Ħæµĭ": 5880,
  "æµĭéĩı": 5881,
  "race": 5882,
  "åı¯æĮģç»Ń": 5883,
  "æĹ¶åĪ»": 5884,
  "ä¸įåĨį": 5885,
  "Ġpo": 5886,
  "ÑĤ": 5887,
  "Ġaddress": 5888,
  "éĤ¦": 5889,
  "è®¸åı¯": 5890,
  "å¼ķå¯¼": 5891,
  "éĿ¢åĲĳ": 5892,
  "æıĴ": 5893,
  "Ġeither": 5894,
  "åĴĮåħ¶ä»ĸ": 5895,
  "append": 5896,
  "79": 5897,
  "Ġseveral": 5898,
  "åĽ½åĨħå¤ĸ": 5899,
  "ailed": 5900,
  "æĿŃ": 5901,
  "Ġens": 5902,
  "agn": 5903,
  "çİ°æľī": 5904,
  "omet": 5905,
  "æĬ±": 5906,
  "tain": 5907,
  "Ġdisease": 5908,
  "éĢĤçĶ¨äºİ": 5909,
  "Ġlanguage": 5910,
  "Ġnatural": 5911,
  "åĨĴ": 5912,
  "edu": 5913,
  "åľ¨äºİ": 5914,
  "Ġposition": 5915,
  "æĤ¨çļĦ": 5916,
  "72": 5917,
  "Ġtypes": 5918,
  "åĪ©äºİ": 5919,
  "Ok": 5920,
  "ä¸īå¹´": 5921,
  "oud": 5922,
  "por": 5923,
  "Ġenc": 5924,
  "ended": 5925,
  "çĪ¶äº²": 5926,
  "éļıåĲİ": 5927,
  "Ġwar": 5928,
  "06": 5929,
  "Ġrelations": 5930,
  "è°ĭ": 5931,
  "ĠAd": 5932,
  "icense": 5933,
  "begin": 5934,
  "å©´": 5935,
  "æ¡Īä»¶": 5936,
  "empt": 5937,
  "æģĲ": 5938,
  "å»ºæĪĲ": 5939,
  "åĲĪæĪĲ": 5940,
  "54": 5941,
  "ready": 5942,
  "åĪ¶éĢłä¸ļ": 5943,
  "ĠOn": 5944,
  "ĠCent": 5945,
  "roll": 5946,
  ".__": 5947,
  "Ġnecess": 5948,
  "gether": 5949,
  "dev": 5950,
  "æ³µ": 5951,
  "Ġtogether": 5952,
  "èİ·åıĸ": 5953,
  "Ġmaking": 5954,
  "çļĦåīį": 5955,
  "æ¸łéģĵ": 5956,
  "try": 5957,
  "å·¥ä½ľäººåĳĺ": 5958,
  "ÑĢ": 5959,
  "é©±åĬ¨": 5960,
  "æĶ¿åºľä¿¡æģ¯": 5961,
  "çĶµèĦĳ": 5962,
  "How": 5963,
  "As": 5964,
  "Ġneg": 5965,
  "Ġstandard": 5966,
  "å°¿": 5967,
  "Ġ60": 5968,
  "Ġoriginal": 5969,
  "Ġsimilar": 5970,
  "Ġwords": 5971,
  "èĻİ": 5972,
  "å¤§èµĽ": 5973,
  "ä¹Ķ": 5974,
  "''": 5975,
  "Ġsomething": 5976,
  "Ġsuccess": 5977,
  "æī¿åĮħ": 5978,
  "Node": 5979,
  "Ġbehav": 5980,
  "åľ°çĲĥ": 5981,
  "ç½ĳä¸Ĭ": 5982,
  "å®ļæľŁ": 5983,
  "Ġhistory": 5984,
  "åį±å®³": 5985,
  "ç¡®è®¤": 5986,
  "ä¸»ä½ĵ": 5987,
  "By": 5988,
  "æĹ©å·²": 5989,
  "ä¸ĩäºº": 5990,
  "å¯º": 5991,
  "ont": 5992,
  "Ġexpression": 5993,
  "Ġscient": 5994,
  "åľ°åĿĢ": 5995,
  "fact": 5996,
  "03": 5997,
  "è¿Ŀæ³ķ": 5998,
  "Ġsimpl": 5999,
  "åİŁæĸĻ": 6000,
  "æīĭæ®µ": 6001,
  "èĩ³å°ĳ": 6002,
  "Ġlater": 6003,
  "ecut": 6004,
  "Ġthings": 6005,
  "ä¸Ģèĩ´": 6006,
  "82": 6007,
  "Ġnear": 6008,
  "å°±åĥı": 6009,
  "ä»¥åīį": 6010,
  "æķ¦": 6011,
  "ales": 6012,
  "Ġsay": 6013,
  "Ġrequired": 6014,
  "åĳ¨æľŁ": 6015,
  "trans": 6016,
  "åĪ«äºº": 6017,
  "éĥģ": 6018,
  "åħ¨ä½ĵ": 6019,
  "Ġhard": 6020,
  "å¿§": 6021,
  "å¤§å¤§": 6022,
  "icy": 6023,
  "Ġage": 6024,
  "53": 6025,
  "æ¹ĸåĮĹ": 6026,
  "å±Ĥæ¬¡": 6027,
  "Ġrespect": 6028,
  "æ´»æĢ§": 6029,
  "ators": 6030,
  "mark": 6031,
  "join": 6032,
  "æ¸ħæ¥ļ": 6033,
  "ä¸ĵéĹ¨": 6034,
  "Ġtre": 6035,
  "04": 6036,
  "fficient": 6037,
  "æł¡åĽŃ": 6038,
  "éĥŃ": 6039,
  "no": 6040,
  "bre": 6041,
  "Ġ2021": 6042,
  "ç¿»è¯ĳ": 6043,
  "Ġlik": 6044,
  "ffer": 6045,
  "éĺ²æİ§": 6046,
  "ctions": 6047,
  "èĤ¾": 6048,
  "ero": 6049,
  "æŃ¤åīį": 6050,
  "æįĲ": 6051,
  "çĻ¾åĪĨçĤ¹": 6052,
  "æ£ĢéªĮ": 6053,
  "éĶĪ": 6054,
  "å¿Ļ": 6055,
  "æĢĿç»´": 6056,
  "Ġtry": 6057,
  "çĽ¸äºĴ": 6058,
  "Ġdue": 6059,
  "è¯±": 6060,
  "è¿Ī": 6061,
  "51": 6062,
  "é»ĳèī²": 6063,
  "ĠUS": 6064,
  "çłĶç©¶éĻ¢": 6065,
  "æ»´": 6066,
  "æİĺ": 6067,
  "ç¢İ": 6068,
  "è½¬åĮĸ": 6069,
  "ç±»ä¼¼": 6070,
  "éĥ¨ç½²": 6071,
  "ä¸Ĭæ¶¨": 6072,
  "ä»Ļ": 6073,
  "ele": 6074,
  "ittle": 6075,
  "è¡¥åħħ": 6076,
  "å¤§å¹ħ": 6077,
  "æ··åĲĪ": 6078,
  "åħģ": 6079,
  "Ġ!": 6080,
  "Ġsolution": 6081,
  "check": 6082,
  "ights": 6083,
  "ä¸ĵé¡¹": 6084,
  "éĥ¨ä»¶": 6085,
  "äººåĬĽ": 6086,
  "Ġshort": 6087,
  "utes": 6088,
  "çļĦå¥½": 6089,
  "ION": 6090,
  "Ġhours": 6091,
  "åı¥è¯Ŀ": 6092,
  "ync": 6093,
  "éħįç½®": 6094,
  "æĶ¾åľ¨": 6095,
  "ç²¾å½©": 6096,
  "Ġĉ": 6097,
  "æľĢæĸ°": 6098,
  "idth": 6099,
  "Ġmatch": 6100,
  "è¹": 6101,
  "rs": 6102,
  "çĵ·": 6103,
  "è®©æĪĳä»¬": 6104,
  "ä½ľä¸ļ": 6105,
  "å¤§çº¦": 6106,
  "Ġimpact": 6107,
  "éĤĢè¯·": 6108,
  "çĶ³æĬ¥": 6109,
  "åĽŃåĮº": 6110,
  "Ġconc": 6111,
  "éĺĶ": 6112,
  "bb": 6113,
  "Ġver": 6114,
  "Ġcontain": 6115,
  "ĠLet": 6116,
  "());": 6117,
  "éĵº": 6118,
  "æĺ¯ä¸į": 6119,
  "å¹³è¡¡": 6120,
  "çī¢": 6121,
  "Ġpress": 6122,
  "Ġos": 6123,
  "ä¸ĢæĿ¡": 6124,
  "Ġerror": 6125,
  "Ġsignific": 6126,
  "Ġindust": 6127,
  "å®¤åĨħ": 6128,
  "Ġdog": 6129,
  "Ġfil": 6130,
  "Ġï¼Į": 6131,
  "Ġfeel": 6132,
  "çĵ¶": 6133,
  "ç»ĦåĲĪ": 6134,
  "çļĦä¸Ń": 6135,
  "pose": 6136,
  "è¡Ĺéģĵ": 6137,
  "ä¾ĿçĦ¶": 6138,
  "èĢģå¹´": 6139,
  "ĠEr": 6140,
  "æ¸ħæ´Ĺ": 6141,
  "ä¸ĬåįĪ": 6142,
  "Ġ14": 6143,
  "åİ¦": 6144,
  "RO": 6145,
  "Ġincrease": 6146,
  "ç¾İæľ¯": 6147,
  "èµĦè´¨": 6148,
  "çĶµåķĨ": 6149,
  "Ġfocus": 6150,
  "åħ¹": 6151,
  "sing": 6152,
  "çŁ¥è¯Ĩäº§æĿĥ": 6153,
  "èİ·å¾ĹäºĨ": 6154,
  "ä¸Ģä¸ªäºº": 6155,
  "æľŁå¾ħ": 6156,
  "ĠAss": 6157,
  "ä¸ĢæĹ¦": 6158,
  "ging": 6159,
  "çļĦäºĭæĥħ": 6160,
  "å¼ķåıĳ": 6161,
  "ä¼ĺåħĪ": 6162,
  "æĬĢæľ¯çļĦ": 6163,
  "Ġalong": 6164,
  "eps": 6165,
  "Ġteam": 6166,
  "æŃ»äº¡": 6167,
  "æķĪçĽĬ": 6168,
  "stitute": 6169,
  "Ġrate": 6170,
  "åĪĨç±»": 6171,
  "è¡ĮçļĦ": 6172,
  "though": 6173,
  "æĭĨ": 6174,
  "IC": 6175,
  "ç»´æĮģ": 6176,
  "ĠLe": 6177,
  "å¾®ä¿¡": 6178,
  "ç¢±": 6179,
  "struction": 6180,
  "çĻ½æĸĳ": 6181,
  "Ġcancer": 6182,
  "rack": 6183,
  "å·¥åİĤ": 6184,
  "æĺ¯ä¸ŃåĽ½": 6185,
  "Im": 6186,
  "å½ķåıĸ": 6187,
  "æĢ»ä½ĵ": 6188,
  "Ġ24": 6189,
  "æĹ¥åīį": 6190,
  "Ġways": 6191,
  "rel": 6192,
  "çļĦçĥŃ": 6193,
  "Ġbenef": 6194,
  "æĤ¬": 6195,
  "åĽŀåĪ°": 6196,
  "ä¿Ŀåģ¥": 6197,
  "æıŃ": 6198,
  "ä¸Ģæ®µ": 6199,
  "ä¸Ģæµģ": 6200,
  "tings": 6201,
  "æ²³åĮĹ": 6202,
  "å¾Īéļ¾": 6203,
  "93": 6204,
  ")ãĢģ": 6205,
  "Ġpotential": 6206,
  "éĽ¶åĶ®": 6207,
  "å¤įåĲĪ": 6208,
  "å¯¼æ¼Ķ": 6209,
  "ĠFalse": 6210,
  "å·¥åķĨ": 6211,
  "ä¸ªçĻ¾åĪĨçĤ¹": 6212,
  "Ġsit": 6213,
  "HE": 6214,
  "urope": 6215,
  "èµ¢å¾Ĺ": 6216,
  "å¾Īå¤ļäºº": 6217,
  "å®¡æŁ¥": 6218,
  "}{\\": 6219,
  "ç¡ħ": 6220,
  "Ġsays": 6221,
  "ç¬¬ä¸Ģæ¬¡": 6222,
  "æķĻèĤ²éĥ¨": 6223,
  "Ġtrad": 6224,
  "Ġimage": 6225,
  "ialize": 6226,
  "np": 6227,
  "Wh": 6228,
  "Ġhttps": 6229,
  "æ·»åĬł": 6230,
  "éĤ»": 6231,
  "umn": 6232,
  "150": 6233,
  "èĥ½éĩı": 6234,
  "db": 6235,
  "é¢ľèī²": 6236,
  "æīĭæľ¯": 6237,
  "å®īå¾½": 6238,
  "çºº": 6239,
  "Ġchanges": 6240,
  "èħº": 6241,
  "æĿĥåĪ©": 6242,
  "::{": 6243,
  "ä¹ĭä¸Ń": 6244,
  "çļĦæ°´": 6245,
  "{}": 6246,
  "Ġothers": 6247,
  "array": 6248,
  "Ġfull": 6249,
  "åľ¨æŃ¤": 6250,
  "à¼ĭ": 6251,
  "ãĥ¼ãĥ": 6252,
  "èĩªåĬ¨åĮĸ": 6253,
  "é£ŁçĶ¨": 6254,
  "tools": 6255,
  "å¦Ļ": 6256,
  "status": 6257,
  "Ġfree": 6258,
  "èī°": 6259,
  "Ġtarget": 6260,
  "Ġspace": 6261,
  "æĻ®éģį": 6262,
  "æ¨¡åŀĭ": 6263,
  "clone": 6264,
  "å¾Īå¤§çļĦ": 6265,
  "ç«¹": 6266,
  "çļĦä¸į": 6267,
  "aves": 6268,
  "æĤ²": 6269,
  "çĲ´": 6270,
  "æ°¯": 6271,
  "Ġmar": 6272,
  "Ġflow": 6273,
  "Ġparent": 6274,
  "Ġë": 6275,
  "åį±éĻ©": 6276,
  "icult": 6277,
  "Ġport": 6278,
  "å¿ĹæĦ¿": 6279,
  "åľºæĻ¯": 6280,
  "æĢª": 6281,
  "å¹²çĩ¥": 6282,
  "ĠBy": 6283,
  "ling": 6284,
  "down": 6285,
  "uggest": 6286,
  "ä½¿çĶ¨çļĦ": 6287,
  "Ġcome": 6288,
  "åĬłå¤§": 6289,
  "rec": 6290,
  "Ġparam": 6291,
  "å¤©æ°Ķ": 6292,
  "GB": 6293,
  "èĭ¹": 6294,
  "åħ¬çĽĬ": 6295,
  "å¥ĳ": 6296,
  "èµ¶": 6297,
  "Ġfac": 6298,
  "itch": 6299,
  "ips": 6300,
  "çĪ¸": 6301,
  "è¯´éģĵ": 6302,
  "æĽ´ä¸º": 6303,
  "æīĢè°ĵ": 6304,
  "utions": 6305,
  "å¤§ä¼Ĺ": 6306,
  "ze": 6307,
  "ius": 6308,
  "120": 6309,
  "åį³åı¯": 6310,
  "æĪ¿å±ĭ": 6311,
  "Ġ40": 6312,
  "Ġgives": 6313,
  "Ġinvest": 6314,
  "é«ĺç«¯": 6315,
  "start": 6316,
  "èĳ£äºĭéķ¿": 6317,
  "çŃĸçķ¥": 6318,
  "ards": 6319,
  "Ġvalid": 6320,
  "éĢĤå½ĵ": 6321,
  "è¿ĽçĲĥ": 6322,
  "ä»¥ä¸º": 6323,
  "ä½İäºİ": 6324,
  "now": 6325,
  "Result": 6326,
  "ç¼ºä¹ı": 6327,
  "çĶ³è¯·äºº": 6328,
  "æĹ©æľŁ": 6329,
  "process": 6330,
  "context": 6331,
  "æ·±åĪ»": 6332,
  "èµĽäºĭ": 6333,
  "éĩĳé¢Ŀ": 6334,
  "çļĦè¦ģæ±Ĥ": 6335,
  "ped": 6336,
  "Ġquestion": 6337,
  "Ġpolit": 6338,
  "èŀįèµĦ": 6339,
  "å¿«ä¹Ĳ": 6340,
  "æģĭ": 6341,
  ")$,": 6342,
  "ĠĊĊ": 6343,
  "çĭĤ": 6344,
  "achine": 6345,
  "ĠMar": 6346,
  "ç§įæ¤į": 6347,
  "Ġwrite": 6348,
  "nal": 6349,
  "au": 6350,
  "èĶ¬èıľ": 6351,
  "æĢ»æĺ¯": 6352,
  "Pl": 6353,
  "ounds": 6354,
  "äººæ°ĳå¸ģ": 6355,
  "å¤ļåħĥ": 6356,
  "èħĲèļĢ": 6357,
  "åºŁæ°´": 6358,
  "Ġspecies": 6359,
  "æĿ¡ä¾ĭ": 6360,
  "ably": 6361,
  "é«ĺæ¸©": 6362,
  "å¯¹æīĭ": 6363,
  "Ġbase": 6364,
  "Ġproblems": 6365,
  "æĢ»ç»ıçĲĨ": 6366,
  "ä¸ĵæ³¨": 6367,
  "éľį": 6368,
  "dat": 6369,
  "NAME": 6370,
  "éĻ¢éķ¿": 6371,
  "ä¸»ç®¡éĥ¨éĹ¨": 6372,
  "è¿ĳæľŁ": 6373,
  "ä¿¡å¿ĥ": 6374,
  "çĦĬ": 6375,
  "å»·": 6376,
  "æľīä¸Ģä¸ª": 6377,
  "dict": 6378,
  "åĪĻæĺ¯": 6379,
  "é¡¹çĽ®çļĦ": 6380,
  "ç®¡éģĵ": 6381,
  "çĽĪ": 6382,
  "éĿ©åĳ½": 6383,
  "å·®å¼Ĥ": 6384,
  "comp": 6385,
  "ç¾İçļĦ": 6386,
  "éĶ¡": 6387,
  "åĲįä¸º": 6388,
  "æ¸Ĺ": 6389,
  "å¿ł": 6390,
  "èµĭ": 6391,
  "èĭ¹æŀľ": 6392,
  "åĨľæ°ĳ": 6393,
  "Ġstep": 6394,
  "09": 6395,
  "åłĨ": 6396,
  "éģĵå¾·": 6397,
  "ä¸Ļ": 6398,
  "ires": 6399,
  "Par": 6400,
  "Ġprevent": 6401,
  "client": 6402,
  "åĻ¨çļĦ": 6403,
  "çºªå¿µ": 6404,
  "earch": 6405,
  "Ġstd": 6406,
  "éĢĨ": 6407,
  "73": 6408,
  "å¯¿åĳ½": 6409,
  "é½¿": 6410,
  "ava": 6411,
  "æĮĸ": 6412,
  "omin": 6413,
  "ison": 6414,
  "title": 6415,
  "Ġservice": 6416,
  "ĠResult": 6417,
  "å¯»æī¾": 6418,
  "è®¾å¤ĩçļĦ": 6419,
  "çĥ¦": 6420,
  "ught": 6421,
  "Ġcannot": 6422,
  "ĠEurope": 6423,
  "éĵ¸": 6424,
  "Ġprom": 6425,
  "ä»ĸäºº": 6426,
  "Ġpriv": 6427,
  "åįµ": 6428,
  "63": 6429,
  "çĮ«": 6430,
  "è¯ĨåĪ«": 6431,
  "ç¡«": 6432,
  "ĠAll": 6433,
  "æķĮ": 6434,
  "è®ºåĿĽ": 6435,
  "Ġuntil": 6436,
  "There": 6437,
  "å¤Ħç½ļ": 6438,
  "ĠPart": 6439,
  "åŃ¦èĢħ": 6440,
  "OC": 6441,
  "èį£èİ·": 6442,
  "Ġ\\):": 6443,
  "Ġpi": 6444,
  "sy": 6445,
  "cy": 6446,
  ">>": 6447,
  "Ġdefault": 6448,
  "æ¡ĳ": 6449,
  "è¾ŀ": 6450,
  "Ġlen": 6451,
  "ä¸Ģåľº": 6452,
  "Ġcourse": 6453,
  "åŁ¹èĤ²": 6454,
  "Ġdepend": 6455,
  "ĠAt": 6456,
  "åĲĪéĩĳ": 6457,
  "ls": 6458,
  "\\_": 6459,
  "Sh": 6460,
  "theta": 6461,
  "å¼ķé¢Ĩ": 6462,
  "åĪĽæĦı": 6463,
  "ä¼ļçļĦ": 6464,
  "Ġexpress": 6465,
  "lete": 6466,
  "Ġcombin": 6467,
  "å®ļä½į": 6468,
  "åĨ»": 6469,
  "čĊčĊ": 6470,
  "ĠMan": 6471,
  "urity": 6472,
  "æĿ¥åĪ°": 6473,
  "Ġcrit": 6474,
  "åĽ½å®¶çº§": 6475,
  "èĥİ": 6476,
  "æ¶ĤæĸĻ": 6477,
  "å¹¶æ²¡æľī": 6478,
  "åľ°çĤ¹": 6479,
  "çīµ": 6480,
  "bit": 6481,
  "è¯ĬæĸŃ": 6482,
  "å£°éŁ³": 6483,
  "../": 6484,
  "èĥĨ": 6485,
  "åľ°çĲĨ": 6486,
  "æĹģ": 6487,
  "éĻķè¥¿": 6488,
  "è¿ĺåı¯ä»¥": 6489,
  "Ġaction": 6490,
  "uit": 6491,
  "å¹¿ä¸ľçľģ": 6492,
  "çĬ¯ç½ª": 6493,
  "Ġrequire": 6494,
  "ä¸Ģè·¯": 6495,
  "Ġcases": 6496,
  ",\"": 6497,
  "ifying": 6498,
  "aken": 6499,
  "èĢĥæł¸": 6500,
  "å½±è§Ĩ": 6501,
  "æĬ¥èĢĥ": 6502,
  "æĪĸè®¸": 6503,
  "å°ıçļĦ": 6504,
  "éĺĢ": 6505,
  "åĪ°çļĦ": 6506,
  "lected": 6507,
  "å£³": 6508,
  "andom": 6509,
  "omes": 6510,
  "äººæ°ĳæ³ķéĻ¢": 6511,
  "åī©": 6512,
  "Ġpast": 6513,
  "ises": 6514,
  "Ġsuggest": 6515,
  "ìĿ": 6516,
  "triangle": 6517,
  "ĠOption": 6518,
  "çĽ´æĴŃ": 6519,
  "çłĶç©¶æīĢ": 6520,
  "resp": 6521,
  "ä¸ĭäºĨ": 6522,
  "å¸ķ": 6523,
  "äºĴåĬ¨": 6524,
  "api": 6525,
  "èµĦè®¯": 6526,
  "ĠAdd": 6527,
  "Â°": 6528,
  "(-": 6529,
  "èµł": 6530,
  "æľīåı¯èĥ½": 6531,
  "Ġworking": 6532,
  "æĢ»é¢Ŀ": 6533,
  "ç¼Ŀ": 6534,
  "æıĲåīį": 6535,
  "List": 6536,
  "Fl": 6537,
  "Bu": 6538,
  "filename": 6539,
  "èį£èªī": 6540,
  "Ġspecial": 6541,
  "éķ¿çļĦ": 6542,
  "çİĽ": 6543,
  "Ġimplement": 6544,
  "response": 6545,
  "éĶĮ": 6546,
  "ä»Ķ": 6547,
  "uation": 6548,
  "create": 6549,
  "åİŁçĲĨ": 6550,
  "Ġalready": 6551,
  "âĢ¢": 6552,
  "Ġoccur": 6553,
  "åĩĢåĪ©æ¶¦": 6554,
  "æĥħåĨµä¸ĭ": 6555,
  "é¢Ħç®Ĺ": 6556,
  "ä¸ĸçķĮä¸Ĭ": 6557,
  "eters": 6558,
  "De": 6559,
  "ĠĠĠĠĠĠĠĠĠĠĠĠĠĠĠĠĠĠĠĠ": 6560,
  "æ»¡æĦı": 6561,
  "ä¸ĭè½½": 6562,
  "çļĦéľĢæ±Ĥ": 6563,
  "62": 6564,
  "ledge": 6565,
  "Ġhouse": 6566,
  "eral": 6567,
  "92": 6568,
  "è¸ª": 6569,
  "annel": 6570,
  "Ġsolve": 6571,
  "è¥¿å®ī": 6572,
  "äºĭåĬ¡": 6573,
  "å¤§æķ°æį®": 6574,
  "83": 6575,
  "));": 6576,
  "Ġve": 6577,
  "éĺ³åħī": 6578,
  "Ġwhy": 6579,
  "ager": 6580,
  "çłĸ": 6581,
  "å¸Ĥæ°ĳ": 6582,
  "Ġsingle": 6583,
  "label": 6584,
  "æľºåĻ¨äºº": 6585,
  "å·´é»İ": 6586,
  "ĠBe": 6587,
  "å°±èĥ½": 6588,
  "Ġgive": 6589,
  "ilt": 6590,
  "When": 6591,
  "Ġâ": 6592,
  "ä¼¤å®³": 6593,
  "æµģåĬ¨": 6594,
  "åıĸå¾ĹäºĨ": 6595,
  "position": 6596,
  "çīĪæľ¬": 6597,
  "æ³¨éĩį": 6598,
  "ED": 6599,
  "94": 6600,
  "ession": 6601,
  "å®¶çļĦ": 6602,
  "åı¯è§ģ": 6603,
  "åĩĮ": 6604,
  "run": 6605,
  "600": 6606,
  "Ġacross": 6607,
  "æĻ¯è§Ĥ": 6608,
  "odes": 6609,
  "æķ´åĲĪ": 6610,
  "éĴĻ": 6611,
  "å½¹": 6612,
  "èľľ": 6613,
  "å§Ĳ": 6614,
  "åĮ¹": 6615,
  "Ġexperience": 6616,
  "Ġupdated": 6617,
  "depend": 6618,
  "Ġusize": 6619,
  "ç²Ĺ": 6620,
  "Ġlittle": 6621,
  "åĴĮç¤¾ä¼ļ": 6622,
  "node": 6623,
  "æ¢¦æĥ³": 6624,
  "è¸ı": 6625,
  "Ġworks": 6626,
  "æĶ¯åĩº": 6627,
  "ĠFr": 6628,
  "Ġlib": 6629,
  "éĻµ": 6630,
  "å·¡": 6631,
  "ä¸Ģä»£": 6632,
  "method": 6633,
  "IV": 6634,
  "Ġrelationship": 6635,
  "åįĬåľº": 6636,
  "raft": 6637,
  "Ġ+=": 6638,
  "éĥ½ä¸į": 6639,
  "Ġbig": 6640,
  "æĺ¨": 6641,
  "lin": 6642,
  "åĵ²åŃ¦": 6643,
  "Ġcreated": 6644,
  "Ġrecord": 6645,
  "aching": 6646,
  "è®°å¿Ĩ": 6647,
  "ĠOne": 6648,
  "åħ±æľī": 6649,
  "ç½ĳåıĭ": 6650,
  "Ġsubject": 6651,
  "åį³å°Ĩ": 6652,
  "idx": 6653,
  "Ġloss": 6654,
  "Or": 6655,
  "çł´åĿı": 6656,
  "Ġwhether": 6657,
  "å°ıè¯´": 6658,
  "éĽ¾": 6659,
  "Ġbi": 6660,
  "ä¸Ģæĺ¯": 6661,
  "isf": 6662,
  "cs": 6663,
  "bol": 6664,
  "æ¶¯": 6665,
  "åĽ½å¤ĸ": 6666,
  "åľ¨ä¸Ģèµ·": 6667,
  "DP": 6668,
  "ociety": 6669,
  "çĽ¸åħ³çļĦ": 6670,
  "Ġabs": 6671,
  "Ġyoung": 6672,
  "è®¤å®ļ": 6673,
  "çĶµæ°Ķ": 6674,
  "çºµ": 6675,
  "çļĦåİŁåĽł": 6676,
  "Ġclear": 6677,
  "ĠChrist": 6678,
  "çĸ«èĭĹ": 6679,
  "åł¡": 6680,
  "Ġoutput": 6681,
  "èī²å½©": 6682,
  "è°Ĳ": 6683,
  "èĢĮåľ¨": 6684,
  "aim": 6685,
  "èĥľåĪ©": 6686,
  "çĪ±çļĦ": 6687,
  "çĸı": 6688,
  "èĩªè¡Į": 6689,
  "ilities": 6690,
  "ä¸ĬäºĨ": 6691,
  "è¡°": 6692,
  "CM": 6693,
  "åĬłçĽŁ": 6694,
  "æĥľ": 6695,
  "off": 6696,
  "oad": 6697,
  "Ġdetermine": 6698,
  "Ġgeneral": 6699,
  "Ġteac": 6700,
  "çº³ç¨İ": 6701,
  "Ġapp": 6702,
  "ä¿¡æģ¯åĮĸ": 6703,
  "æľŁåĪĬ": 6704,
  "ç¬¬ä¸Ģä¸ª": 6705,
  "ç¡®å®ŀ": 6706,
  "2006": 6707,
  "æľŁæľĽ": 6708,
  "åĬłéĢŁ": 6709,
  "Ġinteger": 6710,
  "Ġbrain": 6711,
  "æİĪæĿĥ": 6712,
  "Ġapplication": 6713,
  "ãģ®": 6714,
  "èİ²": 6715,
  "å¾Īå¥½çļĦ": 6716,
  "ä»£çłģ": 6717,
  "åĮºçļĦ": 6718,
  "æĸ°åĨł": 6719,
  "é¬": 6720,
  "cf": 6721,
  "åĮĹäº¬æĹ¶éĹ´": 6722,
  "Ġseg": 6723,
  "åŁİä¹¡": 6724,
  "éĽĨä½ĵ": 6725,
  "arr": 6726,
  "uid": 6727,
  "lim": 6728,
  "Add": 6729,
  "All": 6730,
  "Ġbusiness": 6731,
  "å´ĩ": 6732,
  "ç»Īäºİ": 6733,
  "éĹ®é¢ĺçļĦ": 6734,
  "åķĬ": 6735,
  "å¹¶ä¸įæĺ¯": 6736,
  "çĲĨäºĭ": 6737,
  "IL": 6738,
  "è§Ĩè§ī": 6739,
  "token": 6740,
  "Ġtoday": 6741,
  "Ġder": 6742,
  "rodu": 6743,
  "å¸ħ": 6744,
  "Ġoption": 6745,
  "ä¸Ģå¤©": 6746,
  "US": 6747,
  "74": 6748,
  "iddle": 6749,
  "åĩŃåĢŁ": 6750,
  "ĠWest": 6751,
  "Ġhalf": 6752,
  "UN": 6753,
  "èĤ¿çĺ¤": 6754,
  "è¯ļä¿¡": 6755,
  "Ġprim": 6756,
  "è½¬åıĺ": 6757,
  "æĪĸæĺ¯": 6758,
  "åĲĮæĦı": 6759,
  "æĸ°å¢ŀ": 6760,
  "å·¥èµĦ": 6761,
  "Some": 6762,
  "åŁºç¡Ģè®¾æĸ½": 6763,
  "æ¯ıä¸ªäºº": 6764,
  "resh": 6765,
  "Ġaway": 6766,
  "çļĦæķ°æį®": 6767,
  "Ġlikely": 6768,
  "åĽºå®ļ": 6769,
  "åŁºå±Ĥ": 6770,
  "alance": 6771,
  "(|": 6772,
  "Ġcells": 6773,
  "åĽ¢ä½ĵ": 6774,
  "Ġsens": 6775,
  "ges": 6776,
  "ç¼ĸåĪ¶": 6777,
  "å®¡è®¡": 6778,
  "ĠFrom": 6779,
  "ĠPr": 6780,
  "åľ°ä¸ĭ": 6781,
  "åĽ½æľī": 6782,
  "æĪĲç«ĭäºİ": 6783,
  "Ġtrain": 6784,
  "ĠEar": 6785,
  "å®ļä¹ī": 6786,
  "adr": 6787,
  "aset": 6788,
  "order": 6789,
  "Ġsignificant": 6790,
  "bytes": 6791,
  "å®¡æł¸": 6792,
  "ä¿®æĶ¹": 6793,
  "èħĶ": 6794,
  "éĢĤçĶ¨": 6795,
  "è°ĥèĬĤ": 6796,
  "ĠWorld": 6797,
  "Ġinstall": 6798,
  "åĨ²åĩ»": 6799,
  "æĦ¿æĦı": 6800,
  "Ġdescrib": 6801,
  "igned": 6802,
  "Ġcontent": 6803,
  "åı¯æĺ¯": 6804,
  "Ġpack": 6805,
  "Ġcur": 6806,
  "éĢļè®¯": 6807,
  "çļĦæķħäºĭ": 6808,
  "Ph": 6809,
  "å¼ķè¿Ľ": 6810,
  "è¡¨æ¼Ķ": 6811,
  "çłĤ": 6812,
  "åħ¶å®ĥ": 6813,
  "åħ¨çľģ": 6814,
  "Ġaverage": 6815,
  "hand": 6816,
  "åĩłå¹´": 6817,
  "é«ĺä¸Ń": 6818,
  "ilder": 6819,
  "å¤§éĩıçļĦ": 6820,
  "Ġsent": 6821,
  "side": 6822,
  "oot": 6823,
  "Ġversion": 6824,
  "äººå·¥æĻºèĥ½": 6825,
  "æ¶Īéĺ²": 6826,
  "nder": 6827,
  "éĤ£ä¸ª": 6828,
  "æµ·æ´ĭ": 6829,
  "æĦıæĢĿ": 6830,
  "ä¼ļåľ¨": 6831,
  "åĩ¤": 6832,
  "Ġcover": 6833,
  "çļĦä¸»": 6834,
  "Ġangle": 6835,
  "Ġtemper": 6836,
  "ibility": 6837,
  "æ¡Ĩ": 6838,
  "oman": 6839,
  "âĶ": 6840,
  "png": 6841,
  "ae": 6842,
  "URL": 6843,
  "ä¸Ĭå¸Ĥåħ¬åı¸": 6844,
  "Ġbelow": 6845,
  "çº¢èī²": 6846,
  "Ġcomplex": 6847,
  "ops": 6848,
  "æĪĳä»¬åľ¨": 6849,
  "Ġtreatment": 6850,
  "æŁĲäºĽ": 6851,
  "Ġprint": 6852,
  "Ġstrong": 6853,
  "ä½ıå®ħ": 6854,
  "è¾ĥå¤§": 6855,
  "å±±è¥¿": 6856,
  "debug": 6857,
  "Ġinequ": 6858,
  "field": 6859,
  "File": 6860,
  "æĺ¥èĬĤ": 6861,
  "åĦ¿åŃĲ": 6862,
  "çĽ´åĪ°": 6863,
  "èĢĮä¸į": 6864,
  "Ġmakes": 6865,
  "çĨŁæĤī": 6866,
  "æĲ¬": 6867,
  "æĸ¯çī¹": 6868,
  "uments": 6869,
  "å¯Ħ": 6870,
  "Ġfurther": 6871,
  "Ġbegin": 6872,
  "Ġindic": 6873,
  "Ġkind": 6874,
  "ĠNational": 6875,
  "æĪĲçļĦ": 6876,
  "ä¸įéĶĻ": 6877,
  "éĢĥ": 6878,
  "Set": 6879,
  "$\\": 6880,
  "éĶĻè¯¯": 6881,
  "Ġdifficult": 6882,
  "æīĢæľīçļĦ": 6883,
  "ĠAzure": 6884,
  "root": 6885,
  "sup": 6886,
  "ĠVec": 6887,
  "ä¹īåĬ¡": 6888,
  "çħ§çīĩ": 6889,
  "æµ·åįĹ": 6890,
  "è®¼": 6891,
  "åĲ¹": 6892,
  "heck": 6893,
  "FF": 6894,
  "å¦Īå¦Ī": 6895,
  "ç«ŀäºīåĬĽ": 6896,
  "æ¼Ķåĩº": 6897,
  "åıĤè§Ĥ": 6898,
  "è¾ĥä¸º": 6899,
  "Ġexact": 6900,
  "thing": 6901,
  "åŁºåĽł": 6902,
  "Ġmil": 6903,
  "([": 6904,
  "å¾ĭå¸Ī": 6905,
  "åĽ¾çīĩ": 6906,
  "acc": 6907,
  "çļĦåİĨåı²": 6908,
  "Ġconsum": 6909,
  "èģĮè´£": 6910,
  "èĢĥå¯Ł": 6911,
  "Ġweight": 6912,
  "æĪĳæł¡": 6913,
  "å¹´åºķ": 6914,
  "æĬ«": 6915,
  "çļĦå¸Ĥåľº": 6916,
  "è´µå·ŀ": 6917,
  "åĪ¤æĸŃ": 6918,
  "Ġimpl": 6919,
  "ĠInt": 6920,
  "Ġmillion": 6921,
  "æľīåĵªäºĽ": 6922,
  "Ġfalse": 6923,
  "è¿Ł": 6924,
  "äºŃ": 6925,
  "07": 6926,
  "æııè¿°": 6927,
  "æĭĵå±ķ": 6928,
  "éĻĦè¿ĳ": 6929,
  "æĿĥçĽĬ": 6930,
  "ï¼ŁâĢĿ": 6931,
  "åıĤèµĽ": 6932,
  "åįĹäº¬": 6933,
  "æĹ¥åľ¨": 6934,
  "Ġfuture": 6935,
  "Ġresponse": 6936,
  "æ·ĺ": 6937,
  "åŃ¤": 6938,
  "åħ¸åŀĭ": 6939,
  "åīįå¾Ģ": 6940,
  "å»ºéĢł": 6941,
  "ĊĊĉĉ": 6942,
  "Ġphysical": 6943,
  "Ġcharacter": 6944,
  "çī¹æĢ§": 6945,
  "å¤ļæł·": 6946,
  "Ind": 6947,
  ")=": 6948,
  "äººçī©": 6949,
  "aring": 6950,
  "eds": 6951,
  "ene": 6952,
  "åĹ": 6953,
  "fs": 6954,
  "è¯īè®¼": 6955,
  "åį°åĪ·": 6956,
  "å±ħä½ı": 6957,
  "å¤§åŃ¦çĶŁ": 6958,
  "istic": 6959,
  "è¾£": 6960,
  "çĽ¾": 6961,
  "Ġsure": 6962,
  "IM": 6963,
  "Ġconsid": 6964,
  "æĺŁæľŁ": 6965,
  "æ¼Ĩ": 6966,
  "ä¼łæī¿": 6967,
  "ĠIs": 6968,
  "æĸĩçī©": 6969,
  "å¾Īå¥½": 6970,
  "ä½¿åĳ½": 6971,
  "oll": 6972,
  "æĪĴ": 6973,
  "inary": 6974,
  "81": 6975,
  "åĲįåŃĹ": 6976,
  "æľĢä½İ": 6977,
  "fr": 6978,
  "äºĪä»¥": 6979,
  "ç¼ĸè¾ĳ": 6980,
  "():": 6981,
  "ç¾İå¥½": 6982,
  "åĽĬ": 6983,
  "light": 6984,
  "çŃ¾è®¢": 6985,
  "å§Ķæīĺ": 6986,
  "ç¥¥": 6987,
  "æľĢå¥½": 6988,
  "Def": 6989,
  "Ġpattern": 6990,
  "ä»¥ä¸ĭç®Ģç§°": 6991,
  "åĬ©åĬĽ": 6992,
  "ä¸¤å¹´": 6993,
  "ĠMed": 6994,
  "å¯¹æŃ¤": 6995,
  "ued": 6996,
  "Ġcalculate": 6997,
  "æ¬§åħĥ": 6998,
  "Ġnever": 6999,
  "udio": 7000,
  "åĲĪæ³ķ": 7001,
  "mon": 7002,
  "Ġcommunity": 7003,
  "å¤±åİ»": 7004,
  "å¾Īå¿«": 7005,
  "å¾ĹåĪ°äºĨ": 7006,
  "èĮĥåĽ´åĨħ": 7007,
  "æĺ¯ä¸Ģå®¶": 7008,
  "ĠJohn": 7009,
  "Ġkm": 7010,
  "è§Ĥçľĭ": 7011,
  "Ġusually": 7012,
  "aged": 7013,
  "older": 7014,
  "aced": 7015,
  "è¯¾é¢ĺ": 7016,
  "æīĵå¼Ģ": 7017,
  "æ¢¯": 7018,
  "åĬĽåº¦": 7019,
  "åıĳåĬ¨": 7020,
  "ä¸įèī¯": 7021,
  "Ġhigher": 7022,
  "æ©¡": 7023,
  "ä»ªå¼ı": 7024,
  "Ġsimple": 7025,
  "ched": 7026,
  "é»Ħéĩĳ": 7027,
  "éĿĴæĺ¥": 7028,
  "å¸¦æĿ¥çļĦ": 7029,
  "æµ¸": 7030,
  "èĢķ": 7031,
  "alt": 7032,
  "most": 7033,
  "Ġlevels": 7034,
  "slant": 7035,
  "Ġsystems": 7036,
  "å¼Ĥå¸¸": 7037,
  "åĨ³çŃĸ": 7038,
  "æ£Ĵ": 7039,
  "izing": 7040,
  "äºĮæĺ¯": 7041,
  "ump": 7042,
  "ä¸ŃåĮ»": 7043,
  "Ġauthor": 7044,
  "å¤ıå¤©": 7045,
  "åģľæŃ¢": 7046,
  "overed": 7047,
  "textbf": 7048,
  "åħ¨å¸Ĥ": 7049,
  "olve": 7050,
  "Ñģ": 7051,
  "æ¯įäº²": 7052,
  "åīĳ": 7053,
  "è¦ģæ³¨æĦı": 7054,
  "çļĦè®¾è®¡": 7055,
  "íķ": 7056,
  "æ°¸è¿ľ": 7057,
  "ONG": 7058,
  "çıŃçīĻ": 7059,
  "ä»¥ä¸ĬçļĦ": 7060,
  "ĠĠĠĠĠĠĠĠĠĠĠĠĠĠĠĠĠĠĠĠĠĠĠĠ": 7061,
  "è¥¿çıŃçīĻ": 7062,
  "æİ¥è¿ĳ": 7063,
  "åĲĦçº§": 7064,
  "istance": 7065,
  "å°ıåŃ¦": 7066,
  "èĬ³": 7067,
  "æ²Ī": 7068,
  "åıĳçļĦ": 7069,
  "Ġcenter": 7070,
  "çģĮ": 7071,
  "åºĶå¯¹": 7072,
  "idence": 7073,
  "Ġfive": 7074,
  "atio": 7075,
  "å·¥ç¨ĭå¸Ī": 7076,
  "åĽĽä¸ª": 7077,
  "ci": 7078,
  "61": 7079,
  "Ġsequence": 7080,
  "Ġinitial": 7081,
  "å¯ĨåĪĩ": 7082,
  "ideo": 7083,
  "å¢ŀéĢŁ": 7084,
  "ĠIm": 7085,
  "Ġge": 7086,
  "åľ°çļĦ": 7087,
  "Ġvert": 7088,
  "åħģè®¸": 7089,
  "Ġproperties": 7090,
  "Ġdiscuss": 7091,
  "Ġcolor": 7092,
  "éĥ½èĥ½": 7093,
  "èĩŃ": 7094,
  "âĸ": 7095,
  "Ð½": 7096,
  "ccording": 7097,
  "Ġenough": 7098,
  "ä¸ĵç§ĳ": 7099,
  "ä¿¡çĶ¨": 7100,
  "æ°´æŀľ": 7101,
  "Ġfar": 7102,
  "çļĦä¸ĵä¸ļ": 7103,
  "Ġheart": 7104,
  "ocol": 7105,
  "osed": 7106,
  "And": 7107,
  "91": 7108,
  "$:": 7109,
  "å©´åĦ¿": 7110,
  "spec": 7111,
  "å¨ľ": 7112,
  "ĠWith": 7113,
  "åĿĬ": 7114,
  "search": 7115,
  "åī²": 7116,
  "åħ¬å®ī": 7117,
  "Ġreason": 7118,
  "econd": 7119,
  "èĩªæ²»åĮº": 7120,
  "ambda": 7121,
  "ĠShe": 7122,
  "æ³Į": 7123,
  "PE": 7124,
  "State": 7125,
  "ç¢ĳ": 7126,
  "é«ĺè¾¾": 7127,
  "gress": 7128,
  "Config": 7129,
  "çĶŁæ´»çļĦ": 7130,
  "iding": 7131,
  "åĪĨç¦»": 7132,
  "71": 7133,
  "èĻļæĭŁ": 7134,
  "Ġattack": 7135,
  "Ġemploy": 7136,
  "train": 7137,
  "ĠBl": 7138,
  "çķª": 7139,
  "åĪ°åºķ": 7140,
  "è´¾": 7141,
  "Ġdest": 7142,
  "äººä¸º": 7143,
  "Ġcreat": 7144,
  "æ·±åĮĸ": 7145,
  "è¥¿éĥ¨": 7146,
  "Ġwhite": 7147,
  "chie": 7148,
  "æµ©": 7149,
  "éĻª": 7150,
  "Equ": 7151,
  "<'": 7152,
  "Ġur": 7153,
  "Ġeducation": 7154,
  "çĽĳæİ§": 7155,
  "é¢ĦæľŁ": 7156,
  "æľĢå¥½çļĦ": 7157,
  "Ġonce": 7158,
  "atter": 7159,
  "çļĦçĶŁäº§": 7160,
  "é¬¼": 7161,
  "Ġbecame": 7162,
  "where": 7163,
  "Ġcrate": 7164,
  "æĿĤå¿Ĺ": 7165,
  "å®ŀéĻħä¸Ĭ": 7166,
  "æĶ¶åĪ°": 7167,
  "ä¸īå¤§": 7168,
  "ç§ī": 7169,
  "Ġinters": 7170,
  "Ġsoil": 7171,
  "ending": 7172,
  "æ»ĭ": 7173,
  "æĹº": 7174,
  "äº§ä¸ļéĵ¾": 7175,
  "2005": 7176,
  "ç¤¾äº¤": 7177,
  "çĲĥè¿·": 7178,
  "ä¸ŃåĽ½çļĦ": 7179,
  "å¹¶éĿŀ": 7180,
  "çĤ¸": 7181,
  "æµĨ": 7182,
  "ä¸Ńæľī": 7183,
  "Ġsatisf": 7184,
  "Ġvarious": 7185,
  "alculate": 7186,
  "ension": 7187,
  "ä¼łæĦŁ": 7188,
  "ç¾½": 7189,
  "ä¸»æ¼Ķ": 7190,
  "é«ĺäºİ": 7191,
  "ython": 7192,
  "Ġconsidered": 7193,
  "èĪŀåı°": 7194,
  "å°½éĩı": 7195,
  "éĺ²æ²»": 7196,
  "ender": 7197,
  "umber": 7198,
  "Ġthought": 7199,
  "å¥Ķ": 7200,
  "ä¸įçŁ¥éģĵ": 7201,
  "Ġpair": 7202,
  "Ġhowever": 7203,
  "avel": 7204,
  "è§ĤçĤ¹": 7205,
  "å¸¦åĬ¨": 7206,
  "èµ´": 7207,
  "Ġpred": 7208,
  "pri": 7209,
  "do": 7210,
  "bx": 7211,
  "Ġq": 7212,
  "æĽ¼èģĶ": 7213,
  "Ġformula": 7214,
  "è®©æĪĳ": 7215,
  "çĥĺ": 7216,
  "åı¸æ³ķ": 7217,
  "Ġhol": 7218,
  "mt": 7219,
  "ixed": 7220,
  "iol": 7221,
  "gh": 7222,
  "éĽĨæĪĲ": 7223,
  "æľºéģĩ": 7224,
  "ming": 7225,
  "iet": 7226,
  "çªģçĦ¶": 7227,
  "å¥³åĦ¿": 7228,
  "é¥±": 7229,
  "è¯ķçĤ¹": 7230,
  "æĹ¥æľŁ": 7231,
  "ä¿Ĭ": 7232,
  "ä¸ŃåŃ¦": 7233,
  "æĨ": 7234,
  "åį°åº¦": 7235,
  "èĢģäºº": 7236,
  "åĬŀåŃ¦": 7237,
  "çĹħäºº": 7238,
  "æıĲéĨĴ": 7239,
  "Ġann": 7240,
  "Ġfrequ": 7241,
  "cm": 7242,
  "ĊĠ": 7243,
  "Ġmaximum": 7244,
  "annot": 7245,
  "ĠIntern": 7246,
  "èĥĢ": 7247,
  "ĠMiss": 7248,
  "ä¹Łè®¸": 7249,
  "å®Ļ": 7250,
  "}-": 7251,
  "Find": 7252,
  "ç£·": 7253,
  "éĴ¢éĵģ": 7254,
  "éĿĴå²Ľ": 7255,
  "æĥ³åĪ°": 7256,
  "æĥħæĦŁ": 7257,
  "éĢļéģĵ": 7258,
  "æįķ": 7259,
  "SC": 7260,
  "Ġestab": 7261,
  "åĳ¼åĲ¸": 7262,
  "Ġprice": 7263,
  "Ġclimate": 7264,
  "ä¸¤äºº": 7265,
  "ç©Ĩ": 7266,
  "ä¹Łèĥ½": 7267,
  "ä¸įç®¡": 7268,
  "onal": 7269,
  "part": 7270,
  "nces": 7271,
  "flow": 7272,
  "Ġrespons": 7273,
  "Ġtechnology": 7274,
  "çĶ·åŃĲ": 7275,
  "elling": 7276,
  "ĠPar": 7277,
  "Ġask": 7278,
  "éķĢ": 7279,
  "çĶ¨äºº": 7280,
  "allel": 7281,
  "Ġparts": 7282,
  "é£İæľº": 7283,
  "kn": 7284,
  "bor": 7285,
  "You": 7286,
  "HT": 7287,
  "äº§çĶŁçļĦ": 7288,
  "ç¦ıå»º": 7289,
  "Ġresources": 7290,
  "åĬ¨ä½ľ": 7291,
  "\";": 7292,
  "local": 7293,
  "åį±æľº": 7294,
  "è¶ĬåįĹ": 7295,
  "Ġdeath": 7296,
  "]:": 7297,
  "æħİ": 7298,
  "æŁ¥è¯¢": 7299,
  "ä¼ĺèī¯": 7300,
  "èĩ³äºİ": 7301,
  "åĬłæĭ¿": 7302,
  "Ġmultiple": 7303,
  "Ġcountries": 7304,
  "çĭĹ": 7305,
  "è¥¿äºļ": 7306,
  "æµħ": 7307,
  "çĶ¨æĿ¥": 7308,
  "pecially": 7309,
  "è¡¥è´´": 7310,
  "èĭ±æĸĩ": 7311,
  "ä¿Ŀæ¸©": 7312,
  "æ±¡æ°´å¤ĦçĲĨ": 7313,
  "å¸¸è§ģçļĦ": 7314,
  "Ġpopulation": 7315,
  "æīĭè¡¨": 7316,
  "èĮ¨": 7317,
  "ç®Ń": 7318,
  "ece": 7319,
  "é£ŀæľº": 7320,
  "åįłåľ°": 7321,
  "åĬ¨çĶ»": 7322,
  "ä¸Ńæĸĩ": 7323,
  "cing": 7324,
  "å·¨å¤§": 7325,
  "è®¿éĹ®": 7326,
  "ç»Ŀå¯¹": 7327,
  "Ġplants": 7328,
  "å¸¦çĿĢ": 7329,
  "äº¤æį¢": 7330,
  "è¿ĺä¼ļ": 7331,
  "æľ¬äºº": 7332,
  "åĬ¨æĢģ": 7333,
  "ä¼ļè®¡": 7334,
  "èµĶ": 7335,
  "Ġdone": 7336,
  "ç¦ģåĮº": 7337,
  "éŃĤ": 7338,
  "ĠGMT": 7339,
  "åĻª": 7340,
  "æ·Ģ": 7341,
  "åħ¨åĬĽ": 7342,
  "çĶŁæ¶¯": 7343,
  "Ġcustom": 7344,
  "ä»°": 7345,
  "IR": 7346,
  "Ġprobability": 7347,
  "Ġgoing": 7348,
  "æł¡éķ¿": 7349,
  "åįģåĽĽ": 7350,
  "åĢ¡": 7351,
  "][": 7352,
  "Ġprotect": 7353,
  "ç¨İæĶ¶": 7354,
  "Ġquadr": 7355,
  "æ¯ıä¸Ģä¸ª": 7356,
  "æĸ°çĸĨ": 7357,
  "top": 7358,
  "tem": 7359,
  "å®īåħ¨çĶŁäº§": 7360,
  "è¾©": 7361,
  "Ġlink": 7362,
  "Ġill": 7363,
  "\"></": 7364,
  "è°¨": 7365,
  "ç¨Ģ": 7366,
  "æ¸¡": 7367,
  "æĹ¶å°ļ": 7368,
  "ä¸Ĭä¸ĭ": 7369,
  "Ġanalysis": 7370,
  "oney": 7371,
  "ournal": 7372,
  "åľ°éĵģ": 7373,
  "ä¸Ģç³»åĪĹ": 7374,
  "çļĦåĨħå®¹": 7375,
  "âĶĢ": 7376,
  "Ġneeded": 7377,
  "obj": 7378,
  "Ġmeet": 7379,
  "çº¿è·¯": 7380,
  "æĢ§è´¨": 7381,
  "ades": 7382,
  "mb": 7383,
  "Int": 7384,
  "Ġimprove": 7385,
  "Ġclean": 7386,
  "ä¼ĳéĹ²": 7387,
  "Ġsuper": 7388,
  "ĠFind": 7389,
  "è¢ĭ": 7390,
  "que": 7391,
  "Ġpay": 7392,
  "æĸ¤": 7393,
  "AG": 7394,
  ")^{": 7395,
  "block": 7396,
  "Ġblack": 7397,
  "æĤ¦": 7398,
  "æ¼Ĥ": 7399,
  "è¾Ĳ": 7400,
  "éĹª": 7401,
  "ä¸Ĭå¹´": 7402,
  "LONG": 7403,
  "äººåĬĽèµĦæºĲ": 7404,
  "è¿Ŀåıį": 7405,
  "equest": 7406,
  "Ġexpected": 7407,
  "ordin": 7408,
  "åıĺæĪĲ": 7409,
  "ä½Ĩåľ¨": 7410,
  "ä¸»åľº": 7411,
  "Ġmot": 7412,
  "åį¢": 7413,
  "Ġcentury": 7414,
  "Ġscience": 7415,
  "çĮĽ": 7416,
  "æ¡Īä¾ĭ": 7417,
  "å¤ĸè§Ĥ": 7418,
  "Ġcontr": 7419,
  "ç¨į": 7420,
  "çľł": 7421,
  "call": 7422,
  "Ġfeet": 7423,
  "å¼ĢåĲ¯": 7424,
  "Ġmind": 7425,
  "æĺ¯æľī": 7426,
  "Ġpatients": 7427,
  "Ġground": 7428,
  "äºı": 7429,
  "From": 7430,
  "Ġtests": 7431,
  "Ġquality": 7432,
  "éĩĩè®¿": 7433,
  "åĪ©äºļ": 7434,
  "èģĬ": 7435,
  "èĤĥ": 7436,
  "æ²¦": 7437,
  "ĊĠĠĠĠĠĠĠĠĠĠ": 7438,
  "Ġfund": 7439,
  "ising": 7440,
  "éģĹäº§": 7441,
  "å³¡": 7442,
  "æ±Łè¥¿": 7443,
  "åŃĺåĤ¨": 7444,
  "ĠNorth": 7445,
  "ç©·": 7446,
  "ĠTest": 7447,
  "Ġnational": 7448,
  "}(": 7449,
  "å¹¼åĦ¿": 7450,
  "æĪªæŃ¢": 7451,
  "å½¢åĬ¿": 7452,
  "å¹¿åľº": 7453,
  "éĿ¢è¯ķ": 7454,
  "è¾¨": 7455,
  "aff": 7456,
  "å«Į": 7457,
  "éŃħ": 7458,
  "åŃ¦çĶŁçļĦ": 7459,
  "Ġhaving": 7460,
  "Ġson": 7461,
  "];": 7462,
  "åį°è±¡": 7463,
  "Ġsoftware": 7464,
  "astic": 7465,
  "æĶ¾å¼ĥ": 7466,
  "çĿĽ": 7467,
  "éĥ¨ä½į": 7468,
  "èĢĢ": 7469,
  "ï¼į": 7470,
  "çİ°ä»£åĮĸ": 7471,
  "åĩºçİ°äºĨ": 7472,
  "ä¹¦æ³ķ": 7473,
  "ptoms": 7474,
  "åįģä¸ī": 7475,
  "æľįè£ħ": 7476,
  "ç§įç±»": 7477,
  "ç¬¬åħŃ": 7478,
  "æ³ķäºº": 7479,
  "å®¶åħ·": 7480,
  "uel": 7481,
  "Ġassociated": 7482,
  "Ġsurface": 7483,
  "å®ŀçİ°äºĨ": 7484,
  "box": 7485,
  "izer": 7486,
  "ouri": 7487,
  "Ġfall": 7488,
  "fer": 7489,
  "èĮ¶åı¶": 7490,
  "ä¼ĺçĤ¹": 7491,
  "Ġexam": 7492,
  "å°Ĩåħ¶": 7493,
  "Ġlower": 7494,
  "ĊĊĠĠ": 7495,
  "å¾¡": 7496,
  "ares": 7497,
  "Re": 7498,
  "Ġfactors": 7499,
  "è¶ħçº§": 7500,
  "å¸ĪèĮĥ": 7501,
  "åŁİéķĩ": 7502,
  "çĶµåĻ¨": 7503,
  "Ġlines": 7504,
  "Ġpaper": 7505,
  "Ġpubl": 7506,
  "è¾½å®ģ": 7507,
  "åĳ¨å¹´": 7508,
  "ç«ĭåį³": 7509,
  "è¿Ļä¹Łæĺ¯": 7510,
  "æ³³": 7511,
  "ores": 7512,
  "è¾ħåĬ©": 7513,
  "Ġproducts": 7514,
  "è½»æĿ¾": 7515,
  "ç²¾åĩĨ": 7516,
  "Ġvec": 7517,
  "ä¿ĿçķĻ": 7518,
  "æĽ°": 7519,
  "è¿Ļå°±æĺ¯": 7520,
  "åĮĢ": 7521,
  "CH": 7522,
  "æĹłè®ºæĺ¯": 7523,
  "å¿«éĢŁå¢ŀéķ¿": 7524,
  "è¶³å¤Ł": 7525,
  "æĿ¥äºĨ": 7526,
  "çŃĽ": 7527,
  "å¿į": 7528,
  "å¤§éĻĨ": 7529,
  "Ġbool": 7530,
  "En": 7531,
  ")}": 7532,
  "Ġregion": 7533,
  "æ¯ıä¸Ģ": 7534,
  "ĠCM": 7535,
  "æľ¬ä¹¦": 7536,
  "æľīä»Ģä¹Ī": 7537,
  "'.": 7538,
  "Ġactivity": 7539,
  "Ġgroups": 7540,
  "Ġarticle": 7541,
  "Ġstudent": 7542,
  "æĺİçĻ½": 7543,
  "scri": 7544,
  "æ¯ĶèµĽä¸Ń": 7545,
  "Ġrole": 7546,
  "ç¢°": 7547,
  "ĠDes": 7548,
  "æīĢéľĢ": 7549,
  "å¤§å¸Ī": 7550,
  "å¼ĺ": 7551,
  "Ġsite": 7552,
  "OD": 7553,
  "Name": 7554,
  "å°Ŀè¯ķ": 7555,
  "Ġeffects": 7556,
  "åĮĹäº¬å¸Ĥ": 7557,
  "éĺ²æĬ¤": 7558,
  "éĩĮéĿ¢": 7559,
  "æĥħå½¢": 7560,
  "Ġlive": 7561,
  "source": 7562,
  "Ġmodels": 7563,
  "Ġskin": 7564,
  "ç²īä¸Ŀ": 7565,
  "Ġprovided": 7566,
  "åİĭç¼©": 7567,
  "åĲĪçī©": 7568,
  "çŃīçº§": 7569,
  "Ġreally": 7570,
  "lement": 7571,
  "ÃĹ": 7572,
  "æ°ĽåĽ´": 7573,
  "Ġdifference": 7574,
  "èį¯åĵģ": 7575,
  "åĳ¨åĽ´": 7576,
  "Ġword": 7577,
  "æĶ¹è¿Ľ": 7578,
  "åħ¶æ¬¡": 7579,
  "âĢĿï¼Ī": 7580,
  "256": 7581,
  "æī¿è¯º": 7582,
  "ç©ºè°ĥ": 7583,
  "ä¸ľåĮĹ": 7584,
  "ä¸ľæĸ¹": 7585,
  "ube": 7586,
  "Ġlistening": 7587,
  "æĻļä¸Ĭ": 7588,
  "åĩĢåĮĸ": 7589,
  "å²Ń": 7590,
  "èº«ä¸Ĭ": 7591,
  "æľºç»Ħ": 7592,
  "æŀĿ": 7593,
  "çļĦè§Ħå®ļ": 7594,
  "æĦŁæĥħ": 7595,
  "å¤ĸåĽ½": 7596,
  "åĮºåĪ«": 7597,
  "è¿Ľå±ķ": 7598,
  "ä¸ªç¯®æĿ¿": 7599,
  "æ³Ħ": 7600,
  "group": 7601,
  "æıĲåĩºäºĨ": 7602,
  "çĶ¨éĢĶ": 7603,
  "Ġfri": 7604,
  "Ġknowledge": 7605,
  "ä¸¥éĩįçļĦ": 7606,
  "åŃ©åŃĲä»¬": 7607,
  "åĲ¦åĪĻ": 7608,
  "åĤ¬": 7609,
  "åįłæ¯Ķ": 7610,
  "ç¨İåĬ¡": 7611,
  "åĪĩå®ŀ": 7612,
  "ä¸ľåįĹ": 7613,
  "Ġ21": 7614,
  "å¦¹": 7615,
  "Ġey": 7616,
  "çĶŁåŃĺ": 7617,
  "Ġgreater": 7618,
  "Ġparticip": 7619,
  "Ġblock": 7620,
  "Ġque": 7621,
  "æĴŀ": 7622,
  "åįıåĲĮ": 7623,
  "åı¯ä»¥è¯´": 7624,
  "å°±è¦ģ": 7625,
  "è®¾æľī": 7626,
  "aly": 7627,
  "mit": 7628,
  "å®¶äºº": 7629,
  "æŀª": 7630,
  "åİ¨": 7631,
  "æ°Ł": 7632,
  "åľ¨è¿Ļä¸ª": 7633,
  "Ġachie": 7634,
  "ĠCont": 7635,
  "Ġdefin": 7636,
  "ĠNe": 7637,
  "abase": 7638,
  "ä¹ĭè·¯": 7639,
  "Ġwind": 7640,
  "Ġespecially": 7641,
  "Ġmembers": 7642,
  "ING": 7643,
  "è¿ĲåĬ¨åĳĺ": 7644,
  "čĊčĊĠĠĠĠ": 7645,
  "åı¤ä»£": 7646,
  "åĭĥ": 7647,
  "æĳĩ": 7648,
  "æĤŁ": 7649,
  "å®Įç¾İ": 7650,
  "èµ·åĪ°": 7651,
  "Ġra": 7652,
  "sequ": 7653,
  "æĹ¥åŃĲ": 7654,
  "åĪ°è¾¾": 7655,
  "ione": 7656,
  "ĠState": 7657,
  "oken": 7658,
  "Ġsepar": 7659,
  "éģ¥": 7660,
  "å¤ļé¡¹": 7661,
  "å½°": 7662,
  "ä¸¢": 7663,
  "Ġbuilding": 7664,
  "________": 7665,
  "Ġproduction": 7666,
  "Ġwhole": 7667,
  "ç¢§": 7668,
  "åĳ¨è¾¹": 7669,
  "å¾Īå®¹æĺĵ": 7670,
  "ĠCons": 7671,
  "åħ¨å¹´": 7672,
  "åĩºæĿ¥çļĦ": 7673,
  "æľīæĹ¶": 7674,
  "Ġpage": 7675,
  "sk": 7676,
  "host": 7677,
  "èĦĤèĤ": 7678,
  "èĦĤèĤª": 7679,
  "Ġprevious": 7680,
  "è®²è¿°": 7681,
  "ç»ĨèĬĤ": 7682,
  "Ġcompon": 7683,
  "aging": 7684,
  "Ġstory": 7685,
  "ĠCL": 7686,
  "igure": 7687,
  "leg": 7688,
  "Ġpri": 7689,
  "èģĮä¸ļæķĻèĤ²": 7690,
  "åĬŁçİĩ": 7691,
  "uster": 7692,
  "Ġheight": 7693,
  "æ¡Į": 7694,
  "ivity": 7695,
  "éĥ½åı¯ä»¥": 7696,
  "eline": 7697,
  "äººç¾¤": 7698,
  "ĠComp": 7699,
  "é¸£": 7700,
  "æ¿Ģåħī": 7701,
  "ä¸ĭåĪĹ": 7702,
  "åĪĨæ³Į": 7703,
  "æĺ¯ä¸ª": 7704,
  "enn": 7705,
  "æĿŃå·ŀ": 7706,
  "å®ĩå®Ļ": 7707,
  "Ġaccording": 7708,
  "æµģéĩı": 7709,
  "æ¡¶": 7710,
  "å½ĵå¹´": 7711,
  "è¾Ī": 7712,
  "çļĦèĥ½åĬĽ": 7713,
  "ving": 7714,
  "Ġlimit": 7715,
  "å°Ĭéĩį": 7716,
  "æ¸©æļĸ": 7717,
  "æĢ»éĥ¨": 7718,
  "ayout": 7719,
  "reen": 7720,
  "è¾Ĳå°Ħ": 7721,
  "çĥĪçļĦ": 7722,
  "è½¬æį¢": 7723,
  "hern": 7724,
  "iment": 7725,
  "åľ¨è¿ĻéĩĮ": 7726,
  "Read": 7727,
  "Ġnecessary": 7728,
  "Ġdocument": 7729,
  "Ġincreasing": 7730,
  "plications": 7731,
  "Ġindex": 7732,
  "æķ´çĲĨ": 7733,
  "æĪĺäºī": 7734,
  "Ġchall": 7735,
  "ç§įåŃĲ": 7736,
  "æĻ°": 7737,
  "ĠSup": 7738,
  "éĢ¾": 7739,
  "ä¸Ģçº§": 7740,
  "800": 7741,
  "Ġinequality": 7742,
  "éĶĢéĩı": 7743,
  "è¯ģæį®": 7744,
  "è·¯çº¿": 7745,
  "èĭ¯": 7746,
  "dfrac": 7747,
  "äºĭå®ŀä¸Ĭ": 7748,
  "äºĭä¸ļåįķä½į": 7749,
  "Ġroot": 7750,
  "ervice": 7751,
  "å·´è¥¿": 7752,
  "ç§ĳåŃ¦å®¶": 7753,
  "é¢Ī": 7754,
  "img": 7755,
  "åħĦ": 7756,
  "beta": 7757,
  "Ġbasic": 7758,
  "çĥŃæĥħ": 7759,
  "Ġdeg": 7760,
  "ĠDr": 7761,
  "Ġitself": 7762,
  "ĠCar": 7763,
  "æĮ¡": 7764,
  "ä¸ĬåįĬå¹´": 7765,
  "åĴĮè°Ĳ": 7766,
  "Ġtaken": 7767,
  "ï¼Ĳ": 7768,
  "body": 7769,
  "åĲĮåŃ¦ä»¬": 7770,
  "æ¬§åĨł": 7771,
  "èŀįåħ¥": 7772,
  "èĤ¡æĿĥ": 7773,
  "å¹³æĹ¶": 7774,
  "ections": 7775,
  "åħ¬æ°ĳ": 7776,
  "åŁĭ": 7777,
  "CL": 7778,
  "Ġrow": 7779,
  "æµĵåº¦": 7780,
  "å¯Ĩåº¦": 7781,
  "éĶ»": 7782,
  "ĠSub": 7783,
  "Ġhold": 7784,
  "åıĳæĺİ": 7785,
  "rary": 7786,
  "Ġproperty": 7787,
  "æľīæķĪçļĦ": 7788,
  "Ġobserv": 7789,
  "Ġseen": 7790,
  "çĬ¹": 7791,
  "åĮ»å¸Ī": 7792,
  "åħ³å¿ĥ": 7793,
  "ä¹Łå°Ĩ": 7794,
  "ä¸²": 7795,
  "ÃŃ": 7796,
  "toolshed": 7797,
  "æĹħè¡Į": 7798,
  "Ġcontext": 7799,
  "psu": 7800,
  "æ¡Ĥ": 7801,
  "å¤©çļĦ": 7802,
  "query": 7803,
  "æľīåĬ©": 7804,
  "Ġtakes": 7805,
  "Ġentire": 7806,
  "è®²è§£": 7807,
  "åıĸæ¶Ī": 7808,
  "å¼Ģæĭĵ": 7809,
  "æĹ¥çļĦ": 7810,
  "issions": 7811,
  "åº·å¤į": 7812,
  "ä»ĸè¯´": 7813,
  "åĪĨæķ°": 7814,
  "éĶĪéĴ¢": 7815,
  "Ġorigin": 7816,
  "ä¾ĽåºĶåķĨ": 7817,
  "Ġchem": 7818,
  "çĸ¾çĹħçļĦ": 7819,
  "ä¾¿åĪ©": 7820,
  "æĪĲä¸ºäºĨ": 7821,
  "åĩºåıĳ": 7822,
  "Ġcut": 7823,
  "åıł": 7824,
  "çļĦåŁºæľ¬": 7825,
  "çļĦä¿¡æģ¯": 7826,
  "ĠĠĊĉĉ": 7827,
  "ober": 7828,
  "Cont": 7829,
  "æĹłçº¿": 7830,
  "TE": 7831,
  "PO": 7832,
  "èĪĴéĢĤ": 7833,
  "Ġjob": 7834,
  "äºĶå¹´": 7835,
  "éħ±": 7836,
  "éķ¿æĹ¶éĹ´": 7837,
  "å¤§å°ı": 7838,
  "current": 7839,
  "Ġskills": 7840,
  "é¹ı": 7841,
  "ĠHealth": 7842,
  "Ġrelig": 7843,
  "éļıæĹ¶": 7844,
  "ç§°åı·": 7845,
  "ĠDep": 7846,
  "ament": 7847,
  "åħ¬åĬ¡": 7848,
  "Sc": 7849,
  "éŀĭ": 7850,
  "Ġactivities": 7851,
  "è¾ĥé«ĺ": 7852,
  "è½¦ç«Ļ": 7853,
  "Ġrather": 7854,
  "ä»£è°¢": 7855,
  "Ġglobal": 7856,
  "Ġdu": 7857,
  "bon": 7858,
  "Ġminutes": 7859,
  "åĪĨåĪ«ä¸º": 7860,
  "Ġimm": 7861,
  "ĠGe": 7862,
  "åĲįçļĦ": 7863,
  "ä¹Łè¦ģ": 7864,
  "å¤ļå®¶": 7865,
  "åĽ½æ°ĳ": 7866,
  "æĺ¯ä»¥": 7867,
  "Ġinflu": 7868,
  "çħ®": 7869,
  "å¤©ä¸ĭ": 7870,
  "Ġcity": 7871,
  "ĠĠĠĠĠĠĠ": 7872,
  "Ġregular": 7873,
  "è¯Ħå®¡": 7874,
  "çī©ä¸ļ": 7875,
  "æľ¬èµĽåŃ£": 7876,
  "bits": 7877,
  "Ġfunctions": 7878,
  "å®ĺç½ĳ": 7879,
  "å°¼äºļ": 7880,
  "æł¼åħ°": 7881,
  "Ġrev": 7882,
  "aries": 7883,
  "atory": 7884,
  "oes": 7885,
  "II": 7886,
  "But": 7887,
  "å¥ĭæĸĹ": 7888,
  "å·¨å¤§çļĦ": 7889,
  "ä¼łç»ŁçļĦ": 7890,
  "èĪªå¤©": 7891,
  "ä¿®å¤į": 7892,
  "éħ¶": 7893,
  "Ġeff": 7894,
  "ç²®é£Ł": 7895,
  "matrix": 7896,
  "wards": 7897,
  "Ġactually": 7898,
  "ĠThus": 7899,
  "æĤł": 7900,
  "éªĹ": 7901,
  "éĴ»": 7902,
  "æĺ¯åĽłä¸º": 7903,
  "next": 7904,
  "Ġmeasure": 7905,
  "é¡¾å®¢": 7906,
  "æµģè¡Į": 7907,
  "è¯´çļĦ": 7908,
  "è¿ĺèĥ½": 7909,
  "æĸ¹ä½į": 7910,
  "vec": 7911,
  "iation": 7912,
  "5000": 7913,
  "ront": 7914,
  "Ġadded": 7915,
  "æĵ¦": 7916,
  "è®¤çŁ¥": 7917,
  "å°ıç¼ĸ": 7918,
  "æĮ¤": 7919,
  "åĩºå¸Ń": 7920,
  "çºł": 7921,
  "éĢĬ": 7922,
  "èĬ¯çīĩ": 7923,
  "Ġgreen": 7924,
  "è¡Ģæ¶²": 7925,
  "åĨįçĶŁ": 7926,
  "upt": 7927,
  "Ġweek": 7928,
  "æ¯ģ": 7929,
  "elves": 7930,
  "Ġsix": 7931,
  "æĬĳåĪ¶": 7932,
  "ĠThat": 7933,
  "soft": 7934,
  "æĶ¶è´¹": 7935,
  "Ġstates": 7936,
  "imal": 7937,
  "std": 7938,
  "è´º": 7939,
  "LO": 7940,
  "èĽĭçĻ½è´¨": 7941,
  "ISO": 7942,
  "èĵĦ": 7943,
  "å¤Ħç½®": 7944,
  "éĶĤ": 7945,
  "ifies": 7946,
  "ground": 7947,
  "3000": 7948,
  ")$.": 7949,
  "éģĹä¼ł": 7950,
  "Ġaddition": 7951,
  "åıįå¤į": 7952,
  "è½¬ç§»": 7953,
  "æ°ĳä¼Ĺ": 7954,
  "ival": 7955,
  "åĬłçĥŃ": 7956,
  "ä¹ĭä¸ĭ": 7957,
  "False": 7958,
  "ç»ıæµİåŃ¦": 7959,
  "2004": 7960,
  "ĠHist": 7961,
  "Ġconcept": 7962,
  "éĹ´çļĦ": 7963,
  "ĠAm": 7964,
  "amed": 7965,
  "account": 7966,
  "wo": 7967,
  "dig": 7968,
  "'),": 7969,
  "åĬłæĭ¿å¤§": 7970,
  "LED": 7971,
  "é¤Ĳé¥®": 7972,
  "^{\\": 7973,
  "å§ľ": 7974,
  "çĶµè·¯": 7975,
  "itude": 7976,
  "isual": 7977,
  "Ġensure": 7978,
  "æĲľç´¢": 7979,
  "åľ°åĮºçļĦ": 7980,
  "æī§æ³ķ": 7981,
  "æĳ¸": 7982,
  "å¹¿è¥¿": 7983,
  "except": 7984,
  "åĨħå¤ĸ": 7985,
  "Ġax": 7986,
  "rm": 7987,
  "çĭ¬çī¹çļĦ": 7988,
  "ounter": 7989,
  "çº·çº·": 7990,
  "posed": 7991,
  "encies": 7992,
  "æĮĩæĮ¥": 7993,
  "æİ¥ç§į": 7994,
  "oph": 7995,
  "çĶµæºĲ": 7996,
  "åľ°è´¨": 7997,
  "ping": 7998,
  "Dis": 7999,
  "èĴĻåı¤": 8000,
  "Ġresearc": 8001,
  "åħĭæĸ¯": 8002,
  "Ġthird": 8003,
  "Ġï¼Ī": 8004,
  "Ġprovides": 8005,
  "åĵªéĩĮ": 8006,
  "å£°æĺİ": 8007,
  "æİ§èĤ¡": 8008,
  "æĶ¯éĥ¨": 8009,
  "å°ĳæķ°": 8010,
  "çĻ½èī²": 8011,
  "èº«è¾¹": 8012,
  "æ»ļ": 8013,
  "çĶ±æŃ¤": 8014,
  "update": 8015,
  "item": 8016,
  "orage": 8017,
  "pen": 8018,
  "%ãĢģ": 8019,
  "æŁ´": 8020,
  "ĠCan": 8021,
  "ĠAf": 8022,
  "å¯ĵ": 8023,
  "ĠĠĠĠĠĠĠĠĠĠĠĠĠĠĠĠĠĠĠĠĠĠĠĠĠĠĠĠĠĠĠĠ": 8024,
  "ãģĻ": 8025,
  "åħ»æ®ĸ": 8026,
  "å£¤": 8027,
  "message": 8028,
  "make": 8029,
  "Get": 8030,
  "ributes": 8031,
  "çľŁæŃ£çļĦ": 8032,
  "ĠWar": 8033,
  "åı¹": 8034,
  "Ġpolitical": 8035,
  "Ġdecre": 8036,
  "åłª": 8037,
  "æĥ³æ³ķ": 8038,
  "éªĳ": 8039,
  "éĩĮæĸ¯": 8040,
  "æŁı": 8041,
  "eturn": 8042,
  "Ġcomplete": 8043,
  "Ġformat": 8044,
  "çĭ¼": 8045,
  "éĢīæīĭ": 8046,
  "åĪ©çİĩ": 8047,
  "æľŁéĻĲ": 8048,
  "èĢĮä¸įæĺ¯": 8049,
  "åĲĮå¿Ĺ": 8050,
  "Not": 8051,
  "æĳĦå½±": 8052,
  "çĻ½çĻľé£İæĤ£èĢħ": 8053,
  "rown": 8054,
  "è¾¾æĪĲ": 8055,
  "////": 8056,
  "plied": 8057,
  "åĴĮæľįåĬ¡": 8058,
  "level": 8059,
  "ä¸Ģçº¿": 8060,
  "HO": 8061,
  "Ġmodern": 8062,
  "èħ°": 8063,
  "duc": 8064,
  "ustain": 8065,
  "Ġunits": 8066,
  "åĨ¶": 8067,
  "åıī": 8068,
  "uk": 8069,
  "docker": 8070,
  "ĠEnglish": 8071,
  "Ġload": 8072,
  "Ġrelated": 8073,
  "çº³åħ¥": 8074,
  "ãģĦ": 8075,
  "open": 8076,
  "emic": 8077,
  "æ¯ĶåĪĨ": 8078,
  "å®ļåĪ¶": 8079,
  "ä¸įéĶĪéĴ¢": 8080,
  "åħ½": 8081,
  "ike": 8082,
  "Ġcontains": 8083,
  "è¿ĩçļĦ": 8084,
  "MI": 8085,
  "é¼»": 8086,
  "åĽ¾åĥı": 8087,
  "ç§¯ç´¯": 8088,
  "æģ°": 8089,
  "èĬ¬": 8090,
  "å°±åľ¨": 8091,
  "åĲĪéĢĤ": 8092,
  "ĠString": 8093,
  "Ġelement": 8094,
  "å¾®åįļ": 8095,
  "æĴ¤": 8096,
  "ï¼ģâĢĿ": 8097,
  "æ£ĭ": 8098,
  "å¢ŀåĢ¼": 8099,
  "çĶµæľº": 8100,
  "ï¼īï¼Ľ": 8101,
  "ä¸ªæĢ§": 8102,
  "Ġflo": 8103,
  "ä¸Ģå¸¦": 8104,
  "Ġwriting": 8105,
  "Ġpersonal": 8106,
  "çĩķ": 8107,
  "Ġcommand": 8108,
  "éħįå¤ĩ": 8109,
  "Ġexc": 8110,
  "irus": 8111,
  "æĪĪ": 8112,
  "Ġavoid": 8113,
  "èĭ±éĽĦ": 8114,
  "çİ¯å¢ĥä¿ĿæĬ¤": 8115,
  "ç»ĻäºĨ": 8116,
  "æ®¿": 8117,
  "å¾Īæľī": 8118,
  "å½ĵäºĭ": 8119,
  "001": 8120,
  "ä¸Ģä»½": 8121,
  "ä¸§": 8122,
  "respond": 8123,
  "åįĵè¶Ĭ": 8124,
  "Ġmarket": 8125,
  "Ġetc": 8126,
  "ä¹Ļçĥ¯": 8127,
  "Ġbox": 8128,
  "ribution": 8129,
  "aily": 8130,
  "æĬĬæı¡": 8131,
  "æīįæĺ¯": 8132,
  "ĠGr": 8133,
  "ried": 8134,
  "èµĦåĬ©": 8135,
  "wise": 8136,
  "$(": 8137,
  "čĊĠĠĠĠĠĠĠĠĠĠĠĠ": 8138,
  "Ġstructure": 8139,
  "æ¶ĪåĮĸ": 8140,
  "åĽ½å®¶çļĦ": 8141,
  "ĠPer": 8142,
  "èī³": 8143,
  "æĭ¨": 8144,
  "ä¸Ńè¶ħ": 8145,
  "orch": 8146,
  "One": 8147,
  "çļĦåŁºç¡Ģä¸Ĭ": 8148,
  "Ġsymptoms": 8149,
  "Ġanaly": 8150,
  "Ġinside": 8151,
  "å¤ıåŃ£": 8152,
  "è¯¾åłĤ": 8153,
  "è¿ĺåľ¨": 8154,
  "åīįæĻ¯": 8155,
  "çĶ¨æ°´": 8156,
  "Ġdivis": 8157,
  "Ġdeveloped": 8158,
  "çľ¼çĿĽ": 8159,
  "æĬ¥å¯¼": 8160,
  "åĬłéĩį": 8161,
  "æĺĤ": 8162,
  "æķ°åŃĹåĮĸ": 8163,
  "//!": 8164,
  "èįĴ": 8165,
  "aint": 8166,
  "ä¸ºå®¢æĪ·": 8167,
  "å¼¯": 8168,
  "env": 8169,
  "å¤¹": 8170,
  "iot": 8171,
  "Ġunderstanding": 8172,
  "Ġquestions": 8173,
  "çĨĬ": 8174,
  "Ġstudies": 8175,
  "ç½Ĺé©¬": 8176,
  "æ¸ħæĻ°": 8177,
  "çļĦä½¿çĶ¨": 8178,
  "den": 8179,
  "Ġminimum": 8180,
  "ç§ĳæĬĢåĪĽæĸ°": 8181,
  "è½¬ä¼ļ": 8182,
  "èĥº": 8183,
  "æĽ´æľī": 8184,
  "ç½Ĳ": 8185,
  "åīª": 8186,
  "Ġnut": 8187,
  "inline": 8188,
  "Des": 8189,
  "éĤ®ä»¶": 8190,
  "ç»ıæµİåıĳå±ķ": 8191,
  "æĸľ": 8192,
  ")}\\": 8193,
  "Ġprivate": 8194,
  "Ġnetwork": 8195,
  "åĽ¾ä¹¦é¦Ĩ": 8196,
  "Ġissues": 8197,
  "æħ¢æĢ§": 8198,
  "å®¡æī¹": 8199,
  "æĶ¶è´Ń": 8200,
  "èĥģ": 8201,
  "Ġbir": 8202,
  "åŃĿ": 8203,
  "LT": 8204,
  "Ġ!=": 8205,
  "Ġwritten": 8206,
  "æ·±åľ³å¸Ĥ": 8207,
  "Ġmethods": 8208,
  "èĳĹä½ľ": 8209,
  "ç¾¤ä½ĵ": 8210,
  "Ġ31": 8211,
  "ä¸ĩå¹³æĸ¹ç±³": 8212,
  "æŁ³": 8213,
  "river": 8214,
  "åħ¥éĢī": 8215,
  "çĸ¼": 8216,
  "ĠAfter": 8217,
  "æ±Ĺ": 8218,
  "Ġdam": 8219,
  "ica": 8220,
  "åºĻ": 8221,
  "First": 8222,
  "CC": 8223,
  "äºĮçº§": 8224,
  "æĪĳä»¬å°Ĩ": 8225,
  "acro": 8226,
  "ä»¥å¤ĸ": 8227,
  "At": 8228,
  "ä¼łæĦŁåĻ¨": 8229,
  "Ġbehavior": 8230,
  "è½¨éģĵ": 8231,
  "å±±ä¸ľçľģ": 8232,
  "çī¹å®ļ": 8233,
  "çĸ²": 8234,
  "elif": 8235,
  "Ġmid": 8236,
  "Ġwon": 8237,
  "och": 8238,
  "kw": 8239,
  "but": 8240,
  "FA": 8241,
  "Ġpressure": 8242,
  "çĽ¸åºĶçļĦ": 8243,
  "åı¦ä¸Ģæĸ¹éĿ¢": 8244,
  "ç´§å¼ł": 8245,
  "äº§ä¸ļåıĳå±ķ": 8246,
  "leep": 8247,
  "Ġbit": 8248,
  "Form": 8249,
  "çĶ¨äººåįķä½į": 8250,
  "ĠQu": 8251,
  "çĸ«æĥħéĺ²æİ§": 8252,
  "æįŁå®³": 8253,
  "è¡Ģåİĭ": 8254,
  "Ġintrodu": 8255,
  "ä¾Ŀçħ§": 8256,
  "è§Ĥå¿µ": 8257,
  "æŃ£è§Ħ": 8258,
  "åıĳåĩº": 8259,
  "ä¸įå¥½": 8260,
  "Ġmusic": 8261,
  "éģµå®Ī": 8262,
  "anced": 8263,
  "raction": 8264,
  "åĭĺ": 8265,
  "æĸĩåĮĸçļĦ": 8266,
  "åŀĤ": 8267,
  "static": 8268,
  "äººæĸĩ": 8269,
  "Ġeffort": 8270,
  "é«ĺè´¨éĩıåıĳå±ķ": 8271,
  "Ġreduce": 8272,
  "çĩĥæĸĻ": 8273,
  "æĺİæĺŁ": 8274,
  "åĲĮæŃ¥": 8275,
  "åħ¨æĸ°": 8276,
  "aches": 8277,
  "uary": 8278,
  "crate": 8279,
  ".)": 8280,
  "ç¦ģæŃ¢": 8281,
  "æłĳèĦĤ": 8282,
  "å¥ĸåĬ±": 8283,
  "èĲ¥éĢł": 8284,
  "ä¼łéĢĴ": 8285,
  "é¦Ī": 8286,
  "çŃĭ": 8287,
  "ä¸įçŁ¥": 8288,
  "Ġvisual": 8289,
  "Ġexperi": 8290,
  "Ġfactor": 8291,
  "Ġupdate": 8292,
  "portun": 8293,
  "çĹħä¾ĭ": 8294,
  "æ°Ķæ¸©": 8295,
  "æĮģæľī": 8296,
  "å¾Īé«ĺ": 8297,
  "æĬĽ": 8298,
  "åĲĬ": 8299,
  "files": 8300,
  "Ġinstance": 8301,
  "æİ¢è®¨": 8302,
  "parse": 8303,
  "Ġevents": 8304,
  "ä¾Ŀèµĸ": 8305,
  "æħ°": 8306,
  "Ġability": 8307,
  "çĶŁäº§çļĦ": 8308,
  "Ġuses": 8309,
  "çľĭæĿ¥": 8310,
  "è¢Ń": 8311,
  "ç¼Ĩ": 8312,
  "Ġstress": 8313,
  "æĸ°åĮº": 8314,
  "imately": 8315,
  "Ġthough": 8316,
  "ä¸ªä½ĵ": 8317,
  "known": 8318,
  "çººç»ĩ": 8319,
  "olving": 8320,
  "Ġphot": 8321,
  "åįģäºĶ": 8322,
  "è§Ħå¾ĭ": 8323,
  "event": 8324,
  "bed": 8325,
  "On": 8326,
  "icrosoft": 8327,
  "ounc": 8328,
  "æ¾³å¤§åĪ©": 8329,
  "Ġrecogn": 8330,
  "Ġactive": 8331,
  "ĠMin": 8332,
  "å»Ĭ": 8333,
  "æĭĸ": 8334,
  "å¹´åĪĿ": 8335,
  "~~": 8336,
  "Ob": 8337,
  "æīĢå¾Ĺç¨İ": 8338,
  "æµĻæ±Łçľģ": 8339,
  "éĿĴå°ĳå¹´": 8340,
  "åĪĨéħį": 8341,
  "è´¤": 8342,
  "Ġ,": 8343,
  "Ġincreased": 8344,
  "Ġeval": 8345,
  "åĬŁæķĪ": 8346,
  "é£ĺ": 8347,
  "åĲĮä¸Ģ": 8348,
  "ä¹Łæ²¡æľī": 8349,
  "ada": 8350,
  "tags": 8351,
  "CP": 8352,
  "åĨ¬åŃ£": 8353,
  "çĶ»éĿ¢": 8354,
  "æłĩåĩĨåĮĸ": 8355,
  "ä»ĬæĹ¥": 8356,
  "èĬ½": 8357,
  "éĥ¨éķ¿": 8358,
  "ä¸ĭåİ»": 8359,
  "å¼¥": 8360,
  "æľ´": 8361,
  "çļĦåħ³éĶ®": 8362,
  "é³": 8363,
  "push": 8364,
  "æ¾³å¤§åĪ©äºļ": 8365,
  "Ġexactly": 8366,
  "åī§æĥħ": 8367,
  "keys": 8368,
  "istry": 8369,
  "adata": 8370,
  "vey": 8371,
  "Ġrecomm": 8372,
  "Ġdevice": 8373,
  "çħ¤çĤŃ": 8374,
  "æĢİæł·": 8375,
  "ä½ĽæķĻ": 8376,
  "åŁİåĮº": 8377,
  "izes": 8378,
  "è½¦åŀĭ": 8379,
  "å·¥ä½ľä¸Ń": 8380,
  "éĥ½è¦ģ": 8381,
  "åħ³èĬĤ": 8382,
  "ĠAPI": 8383,
  "Ġthus": 8384,
  "çĽĨ": 8385,
  "çļĦç®¡çĲĨ": 8386,
  "go": 8387,
  "Ġstrateg": 8388,
  "æļĳ": 8389,
  "éŁ¦": 8390,
  "åıĺæĽ´": 8391,
  "åıĹçĲĨ": 8392,
  "ango": 8393,
  "æĶ¶èİ·": 8394,
  "æĦıå¤ĸ": 8395,
  "ĠAct": 8396,
  "è¿Ļéĥ¨": 8397,
  "Ġmass": 8398,
  "Ġcame": 8399,
  "ony": 8400,
  "çļĦæľºä¼ļ": 8401,
  "å°ºå¯¸": 8402,
  "Ġfamil": 8403,
  "Ġbuilt": 8404,
  "åį«æĺŁ": 8405,
  "board": 8406,
  "æĸ°æĹ¶ä»£": 8407,
  "hib": 8408,
  "èĬĤçº¦": 8409,
  "çľĭè§ģ": 8410,
  "éķ¿æ±Ł": 8411,
  "igr": 8412,
  "Ġmag": 8413,
  "ä¸įåĬ¨": 8414,
  "åħĨ": 8415,
  "Ã§": 8416,
  "æĶ¿åºľä¿¡æģ¯åħ¬å¼Ģ": 8417,
  "color": 8418,
  "Ġassess": 8419,
  "ney": 8420,
  "çĥŃæ°´": 8421,
  "å¸¸è§Ħ": 8422,
  "äº§èĥ½": 8423,
  "ged": 8424,
  "Ġissue": 8425,
  "çļĦä¸ĢäºĽ": 8426,
  "artment": 8427,
  "å·²æľī": 8428,
  "ä¸ĵé¢ĺ": 8429,
  "ä¸Ģæī¹": 8430,
  "çļĦçİ¯å¢ĥ": 8431,
  "Ġnegative": 8432,
  "safe": 8433,
  "expected": 8434,
  "åĺ´": 8435,
  "ports": 8436,
  "ä¸īè§Ĵ": 8437,
  "ç½©": 8438,
  "å¸½": 8439,
  "åľ¨ç¾İåĽ½": 8440,
  "js": 8441,
  "æĮ¯åħ´": 8442,
  "è¸¢": 8443,
  "æķ°æį®æĺ¾ç¤º": 8444,
  "ĠULONG": 8445,
  "åĽ½å®¶åĴĮ": 8446,
  "ä¸ĵçĶ¨": 8447,
  "æ°®": 8448,
  "na": 8449,
  "Ġutil": 8450,
  "æĹ¨åľ¨": 8451,
  "ç§Łèµ": 8452,
  "ypes": 8453,
  "æĲŀ": 8454,
  "å®ĥæĺ¯": 8455,
  "è¾ĥä½İ": 8456,
  "è°ĥçłĶ": 8457,
  "åģļäºĨ": 8458,
  "Ġgraph": 8459,
  "ened": 8460,
  "çļĦè¿ĩç¨ĭä¸Ń": 8461,
  "Âł": 8462,
  "pat": 8463,
  "ç§Łèµģ": 8464,
  "Ġengine": 8465,
  "Ġprofess": 8466,
  "like": 8467,
  "--------------------------------": 8468,
  "echan": 8469,
  "åĨ·åį´": 8470,
  "èµ°åĲĳ": 8471,
  "Ġshows": 8472,
  "ç®¡çĲĨå±Ģ": 8473,
  "æĹłäºº": 8474,
  "æľ¬åľ°": 8475,
  "åĬĽåĴĮ": 8476,
  "ado": 8477,
  "æµı": 8478,
  "åºŀ": 8479,
  "åħīä¼ı": 8480,
  "ĠDis": 8481,
  "Ġstop": 8482,
  "åĬłåĿ¡": 8483,
  "orks": 8484,
  "Field": 8485,
  "åħħåĪĨåıĳæĮ¥": 8486,
  "Ġfollows": 8487,
  "Ġsaf": 8488,
  "Ġtraining": 8489,
  "è®©ä½ł": 8490,
  "å¼ºå¤§çļĦ": 8491,
  "ä¹Łåı¯": 8492,
  "Ġlot": 8493,
  "post": 8494,
  "æ²¦ä¸º": 8495,
  "å°ļæľª": 8496,
  "è´¢å¯Į": 8497,
  "ãģ«": 8498,
  "æļ¨": 8499,
  "é¦ĸå¸Ń": 8500,
  "ford": 8501,
  "åħ±è®¡": 8502,
  "ä¼łè¾ĵ": 8503,
  "è¿Ĳä½ľ": 8504,
  "åĲĦä½į": 8505,
  "Ġnormal": 8506,
  "Ġanimals": 8507,
  "ç¡¬ä»¶": 8508,
  "æī©å±ķ": 8509,
  "åİĨåı²ä¸Ĭ": 8510,
  "å®ĮæĪĲäºĨ": 8511,
  "ãģ¯": 8512,
  "ä¿ĿåŃĺ": 8513,
  "ä¼Ĳ": 8514,
  "\"),": 8515,
  "Ġresearchers": 8516,
  "medi": 8517,
  "åı¯èĥ½æĺ¯": 8518,
  "é¢ĸ": 8519,
  "ä¸įéľĢè¦ģ": 8520,
  "åĲĲ": 8521,
  "æľµ": 8522,
  "çļĦåºĶçĶ¨": 8523,
  "ä¸ĺ": 8524,
  "ç¼ĵè§£": 8525,
  "minist": 8526,
  "å»ºç«ĭäºĨ": 8527,
  "Conclusion": 8528,
  "ĠNo": 8529,
  "ĠBr": 8530,
  "å¹½": 8531,
  "save": 8532,
  "fort": 8533,
  "\").": 8534,
  "ä¼ĳæģ¯": 8535,
  "ãĥ³": 8536,
  "æīĭç»Ń": 8537,
  "çľĭçľĭ": 8538,
  "ĠReg": 8539,
  "rip": 8540,
  "çĶµç«Ļ": 8541,
  "å®ŀä½ĵ": 8542,
  "Ġnames": 8543,
  "å¤§è¿ŀ": 8544,
  "tan": 8545,
  "pm": 8546,
  "length": 8547,
  "Ġprinc": 8548,
  "è¾ĵåĩº": 8549,
  "æĭħå¿ĥ": 8550,
  "å¾·éĩĮ": 8551,
  "Ġcomes": 8552,
  "åıĬä»¥ä¸Ĭ": 8553,
  "æ³ķå®ļ": 8554,
  "Ġliving": 8555,
  "çļĦçĽ®æłĩ": 8556,
  "press": 8557,
  "Equal": 8558,
  "derive": 8559,
  "è¶ħè¶Ĭ": 8560,
  "æł¼å±Ģ": 8561,
  "çĪ·": 8562,
  "æľ¬å±Ĭ": 8563,
  "æĹ¥çĽĬ": 8564,
  "æĬ¼": 8565,
  "Ġmicro": 8566,
  "æ²³åįĹçľģ": 8567,
  "ä¾ĽåºĶéĵ¾": 8568,
  "çĶµè§Ĩåī§": 8569,
  "equiv": 8570,
  "å»¶éķ¿": 8571,
  "Ġarch": 8572,
  "éĢłåŀĭ": 8573,
  "æ¶Į": 8574,
  "å®ŀåľ¨": 8575,
  "å®¶æĹı": 8576,
  "å¯¹åħ¶": 8577,
  "ä¸ºæĤ¨": 8578,
  "Ġfill": 8579,
  "çļĦä»·æł¼": 8580,
  "çļĦç²¾ç¥ŀ": 8581,
  "TP": 8582,
  "å®ĹæĹ¨": 8583,
  "ildren": 8584,
  "åĽ¢ç»ĵ": 8585,
  "ects": 8586,
  "ĠCo": 8587,
  "æĽĿ": 8588,
  "ä¸İæŃ¤": 8589,
  "Ġrele": 8590,
  "ached": 8591,
  "OP": 8592,
  "ä¸ĩç¾İåħĥ": 8593,
  "Ġ(\\": 8594,
  "å¯¹éĺµ": 8595,
  "ley": 8596,
  "era": 8597,
  "inct": 8598,
  "ĠMissouri": 8599,
  "Ã¶r": 8600,
  "Ġmedical": 8601,
  "çŃ¾çº¦": 8602,
  "ä¾Ŀæīĺ": 8603,
  "æĮĩå®ļ": 8604,
  "æĬķè¯ī": 8605,
  "åħ¬å¹³": 8606,
  "uting": 8607,
  "å¤§æ°Ķ": 8608,
  "lic": 8609,
  "ä¸Ģä½ĵåĮĸ": 8610,
  "ĠIndia": 8611,
  "æĹĹä¸ĭ": 8612,
  "itted": 8613,
  "Ġeffective": 8614,
  "Ġerr": 8615,
  "Ġapply": 8616,
  "Ġclos": 8617,
  "åįģåħ«": 8618,
  "ĠPe": 8619,
  "æľĪåºķ": 8620,
  "æĸ°åĬłåĿ¡": 8621,
  "æĪĳåľ¨": 8622,
  "ĠEarth": 8623,
  "å¥¥è¿Ĳä¼ļ": 8624,
  "æĽ¿ä»£": 8625,
  "Ġopportun": 8626,
  "ä¸Ĭæµ·å¸Ĥ": 8627,
  "åĪĿæŃ¥": 8628,
  "Ġmanagement": 8629,
  "å¸¸å¸¸": 8630,
  "ä¹ĭä¸º": 8631,
  "æĸ°åħ´": 8632,
  "çĲĨå·¥": 8633,
  "ä¼ļéķ¿": 8634,
  "çļĦçĽ¸åħ³": 8635,
  "ufact": 8636,
  ")\\": 8637,
  "ç»Īç«¯": 8638,
  "æ¶ĪéĻ¤": 8639,
  "æĪĺæĸĹ": 8640,
  "è¥¿æĸ¹": 8641,
  "ocks": 8642,
  "Ġnode": 8643,
  "asc": 8644,
  "æĺ¯éĿŀå¸¸": 8645,
  "Ġtable": 8646,
  "uck": 8647,
  "src": 8648,
  "Ser": 8649,
  "=\\": 8650,
  "Ġ90": 8651,
  "åĢºåĪ¸": 8652,
  "èº«ä½ĵåģ¥åº·": 8653,
  "æ¶ĪèĢĹ": 8654,
  "ç®¡çĲĨä½ĵç³»": 8655,
  "ĠNot": 8656,
  "æ°Ķè±¡": 8657,
  "èį¡": 8658,
  "ä¸įäºĨ": 8659,
  "ä¸Ģä½ĵçļĦ": 8660,
  "Ġcat": 8661,
  "split": 8662,
  "Self": 8663,
  "build": 8664,
  "æĢ»è£ģ": 8665,
  "æĹłçĸĳ": 8666,
  "osis": 8667,
  "æľŁè´§": 8668,
  "unt": 8669,
  "link": 8670,
  "He": 8671,
  "Flags": 8672,
  "Ġgrowth": 8673,
  "Ġapproach": 8674,
  "æ··åĩĿ": 8675,
  "æħ¢æħ¢": 8676,
  "æ¯ķç«Ł": 8677,
  "æĻºèĥ½åĮĸ": 8678,
  "æĿĲæĸĻçļĦ": 8679,
  "Ġshare": 8680,
  "åİŁæľ¬": 8681,
  "åĲĦèĩª": 8682,
  "ĠMay": 8683,
  "æĪĳä»¬åı¯ä»¥": 8684,
  "éĢļçĶ¨": 8685,
  "é«ĺæĸ°æĬĢæľ¯": 8686,
  "Ġclo": 8687,
  "main": 8688,
  "based": 8689,
  "MS": 8690,
  "ouncil": 8691,
  "Ġmeaning": 8692,
  "æ±Łèĭıçľģ": 8693,
  "å½¢æĪĲäºĨ": 8694,
  "Ġactual": 8695,
  "å·®è·Ŀ": 8696,
  "å½¢æĢģ": 8697,
  "åİŁæĿ¥": 8698,
  "ĠBrit": 8699,
  "èĥ¸": 8700,
  "istics": 8701,
  "åħ¬ç¤º": 8702,
  "çº²": 8703,
  "yper": 8704,
  "div": 8705,
  ")?;": 8706,
  "æĸ°èĥ½æºĲæ±½è½¦": 8707,
  "Ġdoesn": 8708,
  "éĢıéľ²": 8709,
  "Ġclaim": 8710,
  "Ġdoct": 8711,
  "èħĬ": 8712,
  "è¯ķç®¡": 8713,
  "Ġunique": 8714,
  "æľįåĬ¡çļĦ": 8715,
  "Ġratio": 8716,
  "éĩįçļĦ": 8717,
  "ĠSim": 8718,
  "èµ¤": 8719,
  "Ġsound": 8720,
  "çļĦå®īåħ¨": 8721,
  "ring": 8722,
  "éĢĢä¼ĳ": 8723,
  "čĊĉ": 8724,
  "èģļçĦ¦": 8725,
  "cles": 8726,
  "å·²æĪĲä¸º": 8727,
  "åıĳè¾¾": 8728,
  "ste": 8729,
  "reed": 8730,
  "[:": 8731,
  "Model": 8732,
  "ĠGerman": 8733,
  "è´¦æĪ·": 8734,
  "ributed": 8735,
  "éĢĶå¾Ħ": 8736,
  "éĩĬæĶ¾": 8737,
  "çģµæ´»": 8738,
  "æŁĲç§į": 8739,
  "åĿļå®ļ": 8740,
  "çģ«éĶħ": 8741,
  "åĶ®åĲİ": 8742,
  "æķ°æį®åºĵ": 8743,
  "è®¾è®¡çļĦ": 8744,
  "æ¯ıæ¬¡": 8745,
  "å½¢çĬ¶": 8746,
  "æĢ»å±Ģ": 8747,
  "ework": 8748,
  "æİ¥ä¸ĭæĿ¥": 8749,
  "é£İæĻ¯": 8750,
  "éľ¸": 8751,
  "æıĲç¤º": 8752,
  "icial": 8753,
  "gy": 8754,
  "come": 8755,
  "ĠAfric": 8756,
  "æľīåĬ©äºİ": 8757,
  "æ¶µçĽĸ": 8758,
  "æ¶²ä½ĵ": 8759,
  "2003": 8760,
  "èĮħ": 8761,
  "éĺŁä»¥": 8762,
  "Ġ23": 8763,
  "èµļ": 8764,
  "target": 8765,
  "Ġparents": 8766,
  "ä¼¦æķ¦": 8767,
  "åĬ³åĬ¨åĲĪåĲĮ": 8768,
  "Ġremain": 8769,
  "æħķ": 8770,
  "clude": 8771,
  "æ°´æ³¥": 8772,
  "æĻĴ": 8773,
  "lying": 8774,
  "å®ŀçĶ¨": 8775,
  "pare": 8776,
  "loss": 8777,
  "è¯»èĢħ": 8778,
  "åı¦ä¸Ģä¸ª": 8779,
  "alls": 8780,
  "ä¸ľäº¬": 8781,
  "::<": 8782,
  "å¸ĤæĶ¿åºľ": 8783,
  "æłĭ": 8784,
  "é¢Ĺç²Ĵ": 8785,
  "é¢ĳçİĩ": 8786,
  "åĽŀçŃĶ": 8787,
  "ç²¾åº¦": 8788,
  "ldots": 8789,
  "çķľ": 8790,
  "åĨħå¿ĥ": 8791,
  "æ³ª": 8792,
  "åĴĸ": 8793,
  "äººåĴĮ": 8794,
  "free": 8795,
  "çĶ·æĢ§": 8796,
  "clud": 8797,
  "åĮĹéĥ¨": 8798,
  "ä¸¤æ¬¡": 8799,
  "æĽ´é«ĺ": 8800,
  "å§»": 8801,
  "æĹ¥ä¸ĬåįĪ": 8802,
  "ams": 8803,
  "ä¸Ĭæĺł": 8804,
  "å¥ł": 8805,
  "å¥Ī": 8806,
  "è¡Ķ": 8807,
  "lambda": 8808,
  "å°½å¿«": 8809,
  "æīĵåį°": 8810,
  "åģļçļĦ": 8811,
  "abled": 8812,
  "Ġstatus": 8813,
  "å¤ļå¹´æĿ¥": 8814,
  "çĽ²": 8815,
  "Ġtell": 8816,
  "éĺ¿å°Ķ": 8817,
  "è¢«ç§°ä¸º": 8818,
  "èµ·éĩį": 8819,
  "æĥĳ": 8820,
  "åīĬ": 8821,
  "Ġtask": 8822,
  "hood": 8823,
  "Ġmonths": 8824,
  "æĥ³è±¡": 8825,
  "ĠMon": 8826,
  "amin": 8827,
  "åĬ£": 8828,
  "pg": 8829,
  "å®ĹæķĻ": 8830,
  "Ġsold": 8831,
  "çľĭèµ·æĿ¥": 8832,
  "fect": 8833,
  "Ġblue": 8834,
  "Ġquick": 8835,
  "åĳĬçŁ¥": 8836,
  "Ġshown": 8837,
  "åħ±äº§": 8838,
  "æº¢": 8839,
  "é¦¨": 8840,
  "èĥ½åľ¨": 8841,
  "èĩ£": 8842,
  "Total": 8843,
  "Ġê": 8844,
  "äººæīįåŁ¹åħ»": 8845,
  "Ġcollect": 8846,
  "äºĴçĽ¸": 8847,
  "ä»ĬåĲİ": 8848,
  "Ġunit": 8849,
  "æķĪåºĶ": 8850,
  "ĠEd": 8851,
  "åīįè¿Ľ": 8852,
  "åīįçļĦ": 8853,
  "çĲĨçĶ±": 8854,
  "imin": 8855,
  "Ġfiles": 8856,
  "anch": 8857,
  "SD": 8858,
  "Qu": 8859,
  "No": 8860,
  "Ġtemperature": 8861,
  "Ġmaterials": 8862,
  "éĢıæĺİ": 8863,
  "åıĳå¸ĥçļĦ": 8864,
  "ä¾¿æĺ¯": 8865,
  "å½ĵä»£": 8866,
  "çĤĴ": 8867,
  "å°±æľī": 8868,
  "ifier": 8869,
  "ä¸Ģæĸ¹éĿ¢": 8870,
  "oon": 8871,
  "iers": 8872,
  "service": 8873,
  "Ġservices": 8874,
  "Ġrights": 8875,
  "Ġinstead": 8876,
  "ç§ĳæĬĢæľīéĻĲåħ¬åı¸": 8877,
  "åĽŃæŀĹ": 8878,
  "æ°´çļĦ": 8879,
  "éĩįå¤į": 8880,
  "eterm": 8881,
  "Ġtax": 8882,
  "è©": 8883,
  "pan": 8884,
  "Ġpractice": 8885,
  "æ½ľåĬĽ": 8886,
  "Ġpatient": 8887,
  "Ġadditional": 8888,
  "æķħéļľ": 8889,
  "å¥³åŃĲ": 8890,
  "Ġ22": 8891,
  "èĬĿ": 8892,
  "æĽ¹": 8893,
  "lege": 8894,
  "æľīåĪ©äºİ": 8895,
  "Ġhttp": 8896,
  "Ġargs": 8897,
  "Ġremov": 8898,
  "æłĳç«ĭ": 8899,
  "Ġ2016": 8900,
  "ç¿°": 8901,
  "è´§çī©": 8902,
  "åģ¥åħ¨": 8903,
  "åĨľèį¯": 8904,
  "åĽŀå½Ĵ": 8905,
  "å¸ĪçĶŁ": 8906,
  "åĲĦåĽ½": 8907,
  "ç¬¬ä¸ĥ": 8908,
  "æĸ°å»º": 8909,
  "é¢ĩ": 8910,
  "ä¸įä½Ĩ": 8911,
  "éĢ»": 8912,
  "å¼Ħ": 8913,
  "æ©¡èĥ¶": 8914,
  "åıĳåĬ¨æľº": 8915,
  "Ġcomputer": 8916,
  "ç§ĺä¹¦": 8917,
  "èľĤ": 8918,
  "ERS": 8919,
  "åĦĴ": 8920,
  "åĵįåºĶ": 8921,
  "æ°ĳçĶŁ": 8922,
  "æĽ´æį¢": 8923,
  "Ġbar": 8924,
  "mission": 8925,
  "Ġidea": 8926,
  "Ġhistor": 8927,
  "Ġhealthy": 8928,
  "Ġproduce": 8929,
  "åĲĪä½ľä¼Ļä¼´": 8930,
  "çº¿ä¸ĭ": 8931,
  "plate": 8932,
  "ç»ıè´¹": 8933,
  "çŃīé¢ĨåŁŁ": 8934,
  "Ġhost": 8935,
  "Ã£": 8936,
  "Path": 8937,
  "è´«åĽ°": 8938,
  "Ġlonger": 8939,
  "tra": 8940,
  "å¯¼å¸Ī": 8941,
  "ĠDec": 8942,
  "èµ·äºĨ": 8943,
  "ç¥Ń": 8944,
  "çĽ¸ç»ĵåĲĪ": 8945,
  "çĶ¨åĵģ": 8946,
  "ä¸įå¤Ł": 8947,
  "å¥īçĮ®": 8948,
  "Ġintegers": 8949,
  "irectory": 8950,
  "è¯»ä¹¦": 8951,
  "çĻ¾å¹´": 8952,
  "ç¤¾ä¼ļä¸»ä¹ī": 8953,
  "éĤ£éĩĮ": 8954,
  "åįģå¤§": 8955,
  "ĠFl": 8956,
  "Ġconduct": 8957,
  "acity": 8958,
  "PD": 8959,
  "ĠResearch": 8960,
  "åİļçļĦ": 8961,
  "çĻ¾å§ĵ": 8962,
  "ç±³åħ°": 8963,
  "è£ħä¿®": 8964,
  "å¾Īå°ĳ": 8965,
  "abit": 8966,
  "ĠAg": 8967,
  "å¤ļå¹´çļĦ": 8968,
  "åŃ¦çļĦ": 8969,
  "ä¸įä¹ħ": 8970,
  "æĺ¯å¯¹": 8971,
  "ban": 8972,
  "æĽ´å¥½åľ°": 8973,
  "Ġelements": 8974,
  "Ġmemory": 8975,
  "é¹¿": 8976,
  "parser": 8977,
  "](#": 8978,
  "è¿Ļä¸ªéĹ®é¢ĺ": 8979,
  "å¥³åŃ©": 8980,
  "è¯·æ±Ĥ": 8981,
  "çĶŁäº§çº¿": 8982,
  "Ġtravel": 8983,
  "çħĮ": 8984,
  "è¯¥åħ¬åı¸": 8985,
  "æŃ¤æĹ¶": 8986,
  "æ°´åĪ©": 8987,
  "æĪĳæĥ³": 8988,
  "Ġhref": 8989,
  "çĶŁæĪĲ": 8990,
  "Ġdraw": 8991,
  "Ġcal": 8992,
  "Ġtaking": 8993,
  "dec": 8994,
  "auth": 8995,
  "With": 8996,
  "Index": 8997,
  "Ġbooks": 8998,
  "ĠStud": 8999,
  "ç§ĳåŃ¦éĻ¢": 9000,
  "Ġnote": 9001,
  "ĠDef": 9002,
  "verse": 9003,
  "æľ¬æ³ķ": 9004,
  "ä¸ĬéĿ¢": 9005,
  "stream": 9006,
  "åĮł": 9007,
  "å·¢": 9008,
  "Ġfish": 9009,
  "uate": 9010,
  "master": 9011,
  "mar": 9012,
  "cap": 9013,
  "110": 9014,
  "æµıè§Ī": 9015,
  "irtual": 9016,
  "Ġtransform": 9017,
  "reng": 9018,
  "æĵħ": 9019,
  "æ°ĳéĹ´": 9020,
  "å§¿": 9021,
  "æĢ§æł¼": 9022,
  "èĤĸ": 9023,
  "Ġnature": 9024,
  "æī®": 9025,
  "req": 9026,
  "attle": 9027,
  "é¼ł": 9028,
  "é¼İ": 9029,
  "æ¿Ģç´ł": 9030,
  "åĿĩåĮĢ": 9031,
  "Ġcontact": 9032,
  "éħ·": 9033,
  "ĠSer": 9034,
  "store": 9035,
  "çļĦè´¨éĩı": 9036,
  "çļĦä¸ŃåĽ½": 9037,
  "kens": 9038,
  "ga": 9039,
  "aa": 9040,
  "`.": 9041,
  "Ġenvironmental": 9042,
  "Ġdirectly": 9043,
  "æ¯ıæĹ¥": 9044,
  "èĲ¥æĶ¶": 9045,
  "èİİ": 9046,
  "Ġwalk": 9047,
  "ä¸įå¾Ĺä¸į": 9048,
  "é¥°æ¼Ķ": 9049,
  "åĤ¨å¤ĩ": 9050,
  "actions": 9051,
  "å®¹éĩı": 9052,
  "ĠWed": 9053,
  "çłĶè®¨": 9054,
  "çĥ¤": 9055,
  "æľĪçļĦ": 9056,
  "åĩºåı°": 9057,
  "gs": 9058,
  "NO": 9059,
  "Map": 9060,
  "sych": 9061,
  "çĦĬæİ¥": 9062,
  "å¢ŀåĬłäºĨ": 9063,
  "æĿĳæ°ĳ": 9064,
  "å¢ĥåĨħ": 9065,
  "ä¹¦éĿ¢": 9066,
  "ĠHis": 9067,
  "æ·ĭ": 9068,
  "å¢ĵ": 9069,
  "Ġ$-": 9070,
  "ĠSee": 9071,
  "æĢĴ": 9072,
  "çļĦåħ³ç³»": 9073,
  "âĪ": 9074,
  "AA": 9075,
  "Ã£o": 9076,
  "Ġoptions": 9077,
  "æ¡£æ¡Ī": 9078,
  "é¡¾éĹ®": 9079,
  "èĭıå·ŀ": 9080,
  "æıĲä¾ĽçļĦ": 9081,
  "çİĩä¸º": 9082,
  "èİī": 9083,
  "ä¿¡ä»»": 9084,
  "ĠPol": 9085,
  "æĬĢå·§": 9086,
  "å¼Ģå·¥": 9087,
  "âĢĿãĢģ": 9088,
  "Ġtook": 9089,
  "Ġmessage": 9090,
  "IG": 9091,
  "'re": 9092,
  "Ġappear": 9093,
  "èķ´": 9094,
  "çļ®èĤ¤çĹħ": 9095,
  "åĪļåĪļ": 9096,
  "Ġconsist": 9097,
  "ä¿®è®¢": 9098,
  "éĿŀæ³ķ": 9099,
  "ä»¶äºĭ": 9100,
  "ä¸Ĭä¸Ģ": 9101,
  "åĴĮæĬĢæľ¯": 9102,
  "can": 9103,
  "Ð°Ð": 9104,
  "è£ģåĪ¤": 9105,
  "ĠChina": 9106,
  "çħ§æĺİ": 9107,
  "å²³": 9108,
  "ç®¡çĲĨçļĦ": 9109,
  "ĠEl": 9110,
  "éĺŁåľ¨": 9111,
  "çĥĤ": 9112,
  "æĹ¥ä¸ĭåįĪ": 9113,
  "ä¸ļåĨħ": 9114,
  "æľīå®³": 9115,
  "æĺ¯æľĢ": 9116,
  "çļĦçī¹çĤ¹": 9117,
  "å½¼æŃ¤": 9118,
  "docs": 9119,
  "Ġregard": 9120,
  "åĩıè½»": 9121,
  "ä»»æĦı": 9122,
  "æį®æĤī": 9123,
  "ĠCON": 9124,
  "ä¹ĭå¤Ħ": 9125,
  "Ġgame": 9126,
  "æĹ¥æĬ¥": 9127,
  "åĩºåľº": 9128,
  "åŃŁ": 9129,
  "ui": 9130,
  "ha": 9131,
  "PA": 9132,
  "èµĶåģ¿": 9133,
  "æ¡Ĩæŀ¶": 9134,
  "await": 9135,
  "Inst": 9136,
  "åĩºçİ°åľ¨": 9137,
  "mselves": 9138,
  "rypt": 9139,
  "ensive": 9140,
  "è¯ĦéĢī": 9141,
  "è¯Ħä¸º": 9142,
  "active": 9143,
  "ivil": 9144,
  "å¸¸åĬ¡": 9145,
  "Ġalt": 9146,
  "ĠTe": 9147,
  "è¿Ļä¹Ł": 9148,
  "arily": 9149,
  "åĪ¹": 9150,
  "pol": 9151,
  "ĠAmerica": 9152,
  "Ġvisit": 9153,
  "å¯Ĩå°ģ": 9154,
  "å¾®çĶŁçī©": 9155,
  "Ġtra": 9156,
  "åıĤæķ°": 9157,
  "ç»ŁçŃ¹": 9158,
  "åĨħåľ°": 9159,
  "é«ĺèĢĥ": 9160,
  "åıĳæĶ¾": 9161,
  "æĮĸæİĺ": 9162,
  "Ġlarger": 9163,
  "éĤĵ": 9164,
  "å±Ģéķ¿": 9165,
  "äº§åĵģè´¨éĩı": 9166,
  "ĠThen": 9167,
  "ä½¿åħ¶": 9168,
  "å®ŀæĹ¶": 9169,
  "ĠSystem": 9170,
  "used": 9171,
  "æĭĮ": 9172,
  "Ġdaily": 9173,
  "Ġthemselves": 9174,
  "yl": 9175,
  "Ġ...": 9176,
  "æĬ«éľ²": 9177,
  "è´¯å½»èĲ½å®ŀ": 9178,
  "å¸¦æĿ¥äºĨ": 9179,
  "åĲīæŀĹ": 9180,
  "åī¯ä¸»ä»»": 9181,
  "æĻ®åıĬ": 9182,
  "ç¦½": 9183,
  "Ġheat": 9184,
  "ĠFe": 9185,
  "ĠRep": 9186,
  "urch": 9187,
  "è¿ĩäºİ": 9188,
  "ä¸įåıĹ": 9189,
  "ä¸įçĶ¨": 9190,
  "onstr": 9191,
  "çļĦåŃ¦çĶŁ": 9192,
  "è©¹": 9193,
  "Ġbreak": 9194,
  "ĠGener": 9195,
  "å¾ĹåĪĨ": 9196,
  "igin": 9197,
  "ä¸ºæŃ¤": 9198,
  "Ġpref": 9199,
  "sm": 9200,
  "cases": 9201,
  "Ġeconomic": 9202,
  "èĳ¡èĲĦéħĴ": 9203,
  "Ġeasy": 9204,
  "ĠLicense": 9205,
  "èĪŁ": 9206,
  "Ġexerc": 9207,
  "æĸĩçĮ®": 9208,
  "çŁĽ": 9209,
  "ceed": 9210,
  "éĥİ": 9211,
  "Ġgas": 9212,
  "ĠSet": 9213,
  "åĩºç§Ł": 9214,
  "Ġcopy": 9215,
  "Ġcross": 9216,
  "Ġessential": 9217,
  "å§Ĩæĸ¯": 9218,
  "Ġcorrespond": 9219,
  "æ´»åĬ¨çļĦ": 9220,
  "è¥¿åįĹ": 9221,
  "æĬĢæľ¯åĴĮ": 9222,
  "ä½ĵåĪ¶": 9223,
  "çļĦç¾İ": 9224,
  "Size": 9225,
  "è¯¸å¤ļ": 9226,
  "æŃĮæĽ²": 9227,
  "èĲ½åľ°": 9228,
  "Ġweb": 9229,
  "Ġyet": 9230,
  "å¸ĤæĶ¿": 9231,
  "Ġlives": 9232,
  "Ġep": 9233,
  "Ġmoney": 9234,
  "align": 9235,
  "reate": 9236,
  "Ġaw": 9237,
  "çļĦä¸ľè¥¿": 9238,
  "çļĦé£Łçī©": 9239,
  "tag": 9240,
  "cp": 9241,
  "å½ĵäºĭäºº": 9242,
  "å½»åºķ": 9243,
  "åħĪè¿ĽçļĦ": 9244,
  "æľīåħ³éĥ¨éĹ¨": 9245,
  "åľŁå£¤": 9246,
  "ãģĹ": 9247,
  "åŃ£èĬĤ": 9248,
  "ĠEach": 9249,
  "æ¯Ķäºļ": 9250,
  "èģª": 9251,
  "images": 9252,
  "çļĦä¸ĸçķĮ": 9253,
  "xx": 9254,
  "Request": 9255,
  "ĠåĴĮ": 9256,
  "çº½çº¦": 9257,
  "Ġserver": 9258,
  "æķĳæı´": 9259,
  "åĬ³åĬ¨èĢħ": 9260,
  "å¨ģèĥģ": 9261,
  "ç®Ģä»ĭ": 9262,
  "Ġallows": 9263,
  "ç§°ä¹ĭä¸º": 9264,
  "çº¦ä¸º": 9265,
  "æīĵçł´": 9266,
  "åı¯ä»¥éĢļè¿ĩ": 9267,
  "æ±°": 9268,
  "å¯¹æ¯Ķ": 9269,
  "ä¸Ĭæľī": 9270,
  "æłª": 9271,
  "Ġdou": 9272,
  "ä¸ŃåĮ»èį¯": 9273,
  "Ġbacter": 9274,
  "Ġtree": 9275,
  "last": 9276,
  "del": 9277,
  "cannot": 9278,
  "åĢºåĬ¡": 9279,
  "Ġdefined": 9280,
  "å·´èĲ¨": 9281,
  "æĴĴ": 9282,
  "è®¾è®¡å¸Ī": 9283,
  "å°Ķçī¹": 9284,
  "å¯¼åĲĳ": 9285,
  "å°ıåŀĭ": 9286,
  "æĪĲäº¤": 9287,
  "å·¥äºº": 9288,
  "ä¸ŃéĹ´": 9289,
  "ners": 9290,
  "Ġ80": 9291,
  "éŃħåĬĽ": 9292,
  "éĥĳå·ŀ": 9293,
  "Ġreading": 9294,
  "ternal": 9295,
  "æĵİ": 9296,
  "Ġroots": 9297,
  "çģ«ç®Ń": 9298,
  "ç²¾åĵģ": 9299,
  "æ£ļ": 9300,
  "ä¸ĩäº¿åħĥ": 9301,
  "åĲĦçķĮ": 9302,
  "çī©åĵģ": 9303,
  "ĠAust": 9304,
  "åľ°éľĩ": 9305,
  "stars": 9306,
  "oring": 9307,
  "èĲ¥ä¸ļæĶ¶åħ¥": 9308,
  "è¿İæĿ¥": 9309,
  "Ġinterval": 9310,
  "logger": 9311,
  "æĹħå®¢": 9312,
  "èĭ±è¶ħ": 9313,
  "å¡ĺ": 9314,
  "åĨįåº¦": 9315,
  "peed": 9316,
  "ĠRec": 9317,
  "éĴł": 9318,
  "Ġfail": 9319,
  "Ref": 9320,
  "è¾ħå¯¼": 9321,
  "ĠScience": 9322,
  "çŃĶæ¡Ī": 9323,
  "Ġsimply": 9324,
  "Ġcompany": 9325,
  "éļ¾åº¦": 9326,
  "è¶ħå£°": 9327,
  "è£ķ": 9328,
  "åįķåħĥ": 9329,
  "æµģéĢļ": 9330,
  "å¼ıçļĦ": 9331,
  "ç²¤": 9332,
  "å¤ĸéĥ¨": 9333,
  "å¦Ĩ": 9334,
  "æ¸Ķ": 9335,
  "Ġdie": 9336,
  "kg": 9337,
  "é«ĺéĢŁåħ¬è·¯": 9338,
  "åĩ»è´¥": 9339,
  "ensor": 9340,
  "å½±åĥı": 9341,
  "ä»İä¸ļ": 9342,
  "char": 9343,
  "irm": 9344,
  "Ġforms": 9345,
  "å®ŀè®Ń": 9346,
  "ecause": 9347,
  "hash": 9348,
  "Log": 9349,
  "++": 9350,
  "break": 9351,
  "poname": 9352,
  "ãĤĴ": 9353,
  "è¿ľç¨ĭ": 9354,
  "å¤±è´¥": 9355,
  "å¤ªå¤ļ": 9356,
  "åĲĮæĹ¶ä¹Ł": 9357,
  "abet": 9358,
  "Ġlack": 9359,
  "æµ´": 9360,
  "reponame": 9361,
  "éģŃéģĩ": 9362,
  "Ġsolutions": 9363,
  "è¾ĵéĢģ": 9364,
  "è´Ńçī©": 9365,
  "æ¶Īæ¯Ĵ": 9366,
  "å¯¼ä½ĵ": 9367,
  "è¿Ľåĩºåı£": 9368,
  "å®¶å±ħ": 9369,
  "Ġpublished": 9370,
  "ĠWhile": 9371,
  "éļĶç¦»": 9372,
  "Ġaccept": 9373,
  "éĴ¢ç»ĵæŀĦ": 9374,
  "Ġadult": 9375,
  "æ¨¡æĭŁ": 9376,
  "è®°è½½": 9377,
  "è§Ĩä¸º": 9378,
  "æķĻæĿĲ": 9379,
  "Ġface": 9380,
  "âĹ": 9381,
  "ba": 9382,
  "DA": 9383,
  "èĤłéģĵ": 9384,
  "æĭĽåķĨ": 9385,
  "çŃĸåĪĴ": 9386,
  "true": 9387,
  "çłĶåĪ¶": 9388,
  "åı¯åľ¨": 9389,
  "çļĦè¿ĩç¨ĭ": 9390,
  "}),": 9391,
  "rupt": 9392,
  "pace": 9393,
  "æ··åĩĿåľŁ": 9394,
  "æĶ»åĩ»": 9395,
  "è§Ħæł¼": 9396,
  "ä¸īæĺ¯": 9397,
  "åĿª": 9398,
  "å¼Ģè®¾": 9399,
  "ä»¬çļĦ": 9400,
  "Ġharm": 9401,
  "çĽĴ": 9402,
  "ä»²": 9403,
  "instance": 9404,
  "Ġschools": 9405,
  "Ã¤r": 9406,
  "å©ļå§»": 9407,
  "çīĽçļ®çĻ£çļĦ": 9408,
  "Ġupon": 9409,
  "æĪĺèĥľ": 9410,
  "éĽĩ": 9411,
  "ä¾ł": 9412,
  "èĤ©": 9413,
  "çŃīå¾ħ": 9414,
  "Ġliter": 9415,
  "æľīåºı": 9416,
  "gener": 9417,
  "NT": 9418,
  "EL": 9419,
  "Ġfeatures": 9420,
  "Ġremaining": 9421,
  "shape": 9422,
  "raise": 9423,
  "èĬ±åĽŃ": 9424,
  "irection": 9425,
  "ä¸ĵä¸ļæĬĢæľ¯": 9426,
  "2002": 9427,
  "ĠEduc": 9428,
  "ĠHT": 9429,
  "å¤ļæķ°": 9430,
  "ç»µ": 9431,
  "Ġsociety": 9432,
  "erate": 9433,
  "\\/": 9434,
  "Up": 9435,
  "éŃı": 9436,
  "ĠYork": 9437,
  "åºĶçĶ¨ç¨ĭåºı": 9438,
  "æ¨¡åĿĹ": 9439,
  "ä»ĸä»¬åľ¨": 9440,
  "æľįçĶ¨": 9441,
  "ĠMod": 9442,
  "apan": 9443,
  "ĠCal": 9444,
  "å®¶éĩĮ": 9445,
  "åĪĨè§£": 9446,
  "Ġcook": 9447,
  "hem": 9448,
  "range": 9449,
  "jango": 9450,
  "ä¸İæŃ¤åĲĮæĹ¶": 9451,
  "è´Ŀå°Ķ": 9452,
  "æ¶²åİĭ": 9453,
  "çļĦäººçĶŁ": 9454,
  "æĺ¾çĦ¶": 9455,
  "æ¶Īå¤±": 9456,
  "å¤įè®®": 9457,
  "æİ¥æĶ¶": 9458,
  "Ġrandom": 9459,
  "æ´»åĬĽ": 9460,
  "ulate": 9461,
  "sim": 9462,
  "QL": 9463,
  "æ¬£èµı": 9464,
  "description": 9465,
  "Ġvolume": 9466,
  "åİ¿çº§": 9467,
  "èħ¿": 9468,
  "çħ§é¡¾": 9469,
  "å®¢åľº": 9470,
  "èĦĨ": 9471,
  "åħ¬åı¸åľ¨": 9472,
  "æľĢä¸º": 9473,
  "è°Ĭ": 9474,
  "uman": 9475,
  "ĠArt": 9476,
  "é«ĺåİĭ": 9477,
  "Ġcm": 9478,
  "æİĪäºĪ": 9479,
  "çĪ±å¿ĥ": 9480,
  "åįĹæĸ¹": 9481,
  "éª¤": 9482,
  "æľŁçļĦ": 9483,
  "ç³Ĭ": 9484,
  "åĲĮäºĭ": 9485,
  "æ±ģ": 9486,
  "æĪĲæķĪ": 9487,
  "hent": 9488,
  "author": 9489,
  "AI": 9490,
  "Ġdrug": 9491,
  "çŀ¬": 9492,
  "leqslant": 9493,
  "éļĲæĤ£": 9494,
  "Ġthroughout": 9495,
  "Ġrecent": 9496,
  "æī©æķ£": 9497,
  "ç§»æ°ĳ": 9498,
  "è¾ĵåħ¥": 9499,
  "åłµ": 9500,
  "å¹²åĩĢ": 9501,
  "2001": 9502,
  "plot": 9503,
  "rive": 9504,
  "æĽ´å¤§çļĦ": 9505,
  "ä½ĵæ£Ģ": 9506,
  "ĠSouth": 9507,
  "çŃīåľ°": 9508,
  "è¡·": 9509,
  "Ġsustain": 9510,
  "çļĦç¬¬ä¸Ģ": 9511,
  "Ġprior": 9512,
  "èĤºçĤİ": 9513,
  "Ġpopular": 9514,
  "assertEqual": 9515,
  "æ¼ĶåĶ±": 9516,
  "å¤ĩæ¡Ī": 9517,
  "èĪ°": 9518,
  "æį®äºĨè§£": 9519,
  "Ġ(-": 9520,
  "ĠCount": 9521,
  "ä¹Łå°±": 9522,
  "Ġlove": 9523,
  "æ³Ĭ": 9524,
  "æľīå¤ļ": 9525,
  "house": 9526,
  "cat": 9527,
  "ĠCLR": 9528,
  "Ġlargest": 9529,
  "ä¾ĿéĿł": 9530,
  "è¯Ħè®º": 9531,
  "æĢĿè·¯": 9532,
  "åįıä½ľ": 9533,
  "ä¿¡æģ¯æĬĢæľ¯": 9534,
  "é¥¼": 9535,
  "äºĮæ°§åĮĸ": 9536,
  "æĹłéľĢ": 9537,
  "Ġviol": 9538,
  "icles": 9539,
  "Ġsun": 9540,
  "atives": 9541,
  "ãĢĶ": 9542,
  "mathbb": 9543,
  "ç®ĢåįķçļĦ": 9544,
  "Ġscale": 9545,
  "æ»©": 9546,
  "ĠRev": 9547,
  "è¿ĺæ²¡æľī": 9548,
  "amma": 9549,
  "omial": 9550,
  "Ġanc": 9551,
  "ãĢķ": 9552,
  "vari": 9553,
  "Ad": 9554,
  "Ġsuccessful": 9555,
  "å¡Ķå°Ķ": 9556,
  "åĸľçĪ±": 9557,
  "å»ºçŃĳéĿ¢ç§¯": 9558,
  "éĩįè¦ģçļĦæĺ¯": 9559,
  "ç²¾å¯Ĩ": 9560,
  "hest": 9561,
  "samples": 9562,
  "XX": 9563,
  "Ġir": 9564,
  "Ġil": 9565,
  "Ġclose": 9566,
  "ç§īæī¿": 9567,
  "æĲºæīĭ": 9568,
  "Ġreceived": 9569,
  "ãĤĭ": 9570,
  "æ¿ĢåĬ±": 9571,
  "Ġquant": 9572,
  "ĠJul": 9573,
  "å¿ħçĦ¶": 9574,
  "å¼ķæĵİ": 9575,
  "uge": 9576,
  "ä¼łåªĴ": 9577,
  "agon": 9578,
  "æ¸´": 9579,
  "ä»¥ä¾¿": 9580,
  "pool": 9581,
  "Ġut": 9582,
  "çĥĺå¹²": 9583,
  "ç¼´çº³": 9584,
  "å¯»æ±Ĥ": 9585,
  "ynam": 9586,
  "æ¤Ĵ": 9587,
  "çķĻä¸ĭ": 9588,
  "å»ºè®¾çļĦ": 9589,
  "èĦ¾": 9590,
  "ĠData": 9591,
  "éħ¿": 9592,
  "ä¸īåįģ": 9593,
  "åħ¥äºĨ": 9594,
  "Ġ-\\": 9595,
  "çŁ©": 9596,
  "amm": 9597,
  "å¯¹è¯Ŀ": 9598,
  "ä¸įåľ¨": 9599,
  "ana": 9600,
  "oke": 9601,
  "åģľè½¦": 9602,
  "Ġmanufact": 9603,
  "åģ¥èº«": 9604,
  "arge": 9605,
  "éŁµ": 9606,
  "çłĶç©¶ä¸Ńå¿ĥ": 9607,
  "éĤ£æł·": 9608,
  "å¹³ç¨³": 9609,
  "æ¬¡åĬ©æĶ»": 9610,
  "æŁľ": 9611,
  "ĠAb": 9612,
  "æĪĳæĺ¯": 9613,
  "åıĳè¨Ģ": 9614,
  "ä¸įå¼Ģ": 9615,
  "ï¼ĳ": 9616,
  "oT": 9617,
  "cast": 9618,
  "Ġindustry": 9619,
  "æħĪåĸĦ": 9620,
  "ORD": 9621,
  "è·¨å¢ĥ": 9622,
  "çĹĽèĭ¦": 9623,
  "ç¨³å®ļæĢ§": 9624,
  "é¾Ļå¤´": 9625,
  "ä¸ªäººä¿¡æģ¯": 9626,
  "èĥ½åĬĽåĴĮ": 9627,
  "Ġcompet": 9628,
  "æĹ¶éĹ´çļĦ": 9629,
  "éĵħ": 9630,
  "åº¦åģĩ": 9631,
  "ä½ĵä¼ļ": 9632,
  "Ġnation": 9633,
  "ä¸įè¶ħè¿ĩ": 9634,
  "attr": 9635,
  "long": 9636,
  "SP": 9637,
  "Ġconstant": 9638,
  "Ġcoordin": 9639,
  "å©Ĩ": 9640,
  "æľªæĿ¥çļĦ": 9641,
  "çĶµåŃĲåķĨåĬ¡": 9642,
  "äº«æľī": 9643,
  "åĳ³éģĵ": 9644,
  "æĭħä¿Ŀ": 9645,
  "èİ·å¥ĸ": 9646,
  "ç©¶ç«Ł": 9647,
  "å¹¿æĴŃ": 9648,
  "dered": 9649,
  "Ġrule": 9650,
  "Ġstreng": 9651,
  "åĪĨåĴĮ": 9652,
  "ims": 9653,
  "åİĮ": 9654,
  "åıĳéĢģ": 9655,
  "edia": 9656,
  "Ã¼": 9657,
  "éĢ»è¾ĳ": 9658,
  "éĶ»çĤ¼": 9659,
  "Ġconcern": 9660,
  "èĢ¶ç¨": 9661,
  "èĢ¶ç¨£": 9662,
  "Ġdemonstr": 9663,
  "è¿Ļä¸ĢçĤ¹": 9664,
  "è´¢äº§": 9665,
  "Ġ&'": 9666,
  "æĤ£èĢħåľ¨": 9667,
  "fty": 9668,
  "Ġonline": 9669,
  "æ¬ł": 9670,
  "è¿Ļä¸¤": 9671,
  "éĻĢ": 9672,
  "æīŃ": 9673,
  "çļĦæķĪæŀľ": 9674,
  "èĳĹåĲįçļĦ": 9675,
  "mathbf": 9676,
  "ancial": 9677,
  "èĤ¢": 9678,
  "system": 9679,
  "domain": 9680,
  "ca": 9681,
  "Ġmatter": 9682,
  "Ġvariety": 9683,
  "Ġgenerally": 9684,
  "Ġattention": 9685,
  "åĪ¤åĨ³": 9686,
  "åŃ©åŃĲçļĦ": 9687,
  "Ġbecomes": 9688,
  "åĳ½è¿Ĳ": 9689,
  "éļ¾é¢ĺ": 9690,
  "æĿĲè´¨": 9691,
  "å¸Ĥåľºä¸Ĭ": 9692,
  "åĬŀäºĭ": 9693,
  "æĮĩåįĹ": 9694,
  "ĠLear": 9695,
  "æĶ¶èĹı": 9696,
  "èĮĤ": 9697,
  "çĿĢåĬĽ": 9698,
  "ä¿Ŀåħ»": 9699,
  "åĲİåį«": 9700,
  "Ġthing": 9701,
  "tract": 9702,
  "Ġdesigned": 9703,
  "Ġrequires": 9704,
  "ä»ħæľī": 9705,
  "ä¼łæŁĵ": 9706,
  "å¼ºå¤§": 9707,
  "æĸ°é²ľ": 9708,
  "åĽ½çļĦ": 9709,
  "reet": 9710,
  "EC": 9711,
  "kwargs": 9712,
  "ç¨ĭåº¦ä¸Ĭ": 9713,
  "Context": 9714,
  "Ġnumer": 9715,
  "èĻ¹": 9716,
  "æĸ¯åĿ¦": 9717,
  "è¿ĺåĮħæĭ¬": 9718,
  "åĽłèĢĮ": 9719,
  "çĽ¸ä¼¼": 9720,
  "æľĢæĹ©": 9721,
  "Ġstat": 9722,
  "ĠCity": 9723,
  "ä¸įå¦Ĥ": 9724,
  "lation": 9725,
  "Go": 9726,
  "'],": 9727,
  "Ġinvolved": 9728,
  "ä¹ĥèĩ³": 9729,
  "Ġmovement": 9730,
  "ä½Ļäºº": 9731,
  "overy": 9732,
  "æĿ¿åĿĹ": 9733,
  "ellow": 9734,
  "ĠOb": 9735,
  "æ¼ł": 9736,
  "Ġalmost": 9737,
  "è¯´æ³ķ": 9738,
  "éĢļæĬ¥": 9739,
  "è¿ĽæĶ»": 9740,
  "è¿Ľç¨ĭ": 9741,
  "æĪĲå¹´": 9742,
  "éĹ¹": 9743,
  "Ġmath": 9744,
  "atform": 9745,
  "ä½Ĳ": 9746,
  "het": 9747,
  "}}$.": 9748,
  "ying": 9749,
  "Dev": 9750,
  "250": 9751,
  "é»ĳèī²ç´ł": 9752,
  "Ġperformance": 9753,
  "Ġincludes": 9754,
  "çĩĥçĥ§": 9755,
  "server": 9756,
  "éĺ¿æł¹": 9757,
  "éĺ¿æł¹å»·": 9758,
  "åıĺå½¢": 9759,
  "äºĮæ¬¡": 9760,
  "å¿ĥéĩĮ": 9761,
  "éĩįéĩı": 9762,
  "åħ¨ä¸ĸçķĮ": 9763,
  "çĶ¨èį¯": 9764,
  "onic": 9765,
  "ä¸Ī": 9766,
  "åµ": 9767,
  "diff": 9768,
  "bar": 9769,
  "å¤ªéĺ³èĥ½": 9770,
  "Ġrunning": 9771,
  "Ġincluded": 9772,
  "ricult": 9773,
  "é¦ĸæī¹": 9774,
  "éĢīçĶ¨": 9775,
  "ä¾Ľç»Ļ": 9776,
  "Ġvia": 9777,
  "åĲĪå¹¶": 9778,
  "è¿ĽèĢĮ": 9779,
  "ç«Ń": 9780,
  "åĩºåİ»": 9781,
  "è¿Ļæ¬¾": 9782,
  "âĢķ": 9783,
  "çļĦåıĺåĮĸ": 9784,
  "çļĦç¤¾ä¼ļ": 9785,
  "å»¶ä¼¸": 9786,
  "Ġhelps": 9787,
  "é£ŀè¡Į": 9788,
  "æ¿Ģåıĳ": 9789,
  "åį°åıĳ": 9790,
  "éĽĨåĽ¢æľīéĻĲåħ¬åı¸": 9791,
  "å½±åĵįåĬĽ": 9792,
  "ugin": 9793,
  "å®¹åĻ¨": 9794,
  "åŁºçĿ£": 9795,
  "åŃĲå¥³": 9796,
  "æĸ°çĶŁ": 9797,
  "igation": 9798,
  "åĽ½äº§": 9799,
  "åįľ": 9800,
  "çļĦæĪĲç»©": 9801,
  "men": 9802,
  "base": 9803,
  "Simpl": 9804,
  "DC": 9805,
  "æ·ĺæ±°": 9806,
  "################": 9807,
  "ç¥Ŀç¦ı": 9808,
  "Trans": 9809,
  "éĻĦä»¶": 9810,
  "åŁºéĩĳä¼ļ": 9811,
  "èīºæľ¯å®¶": 9812,
  "Ġadj": 9813,
  "è§Ĩéĩİ": 9814,
  "ĠCor": 9815,
  "unk": 9816,
  "æĪĲäºº": 9817,
  "Ġthread": 9818,
  "åıĳåĶ®": 9819,
  "ederal": 9820,
  "aling": 9821,
  "Ġcit": 9822,
  "ä¹Ĵ": 9823,
  "atively": 9824,
  "æ¸ĹéĢı": 9825,
  "æī¶è´«": 9826,
  "åıĤåĬłäºĨ": 9827,
  "apping": 9828,
  "ramework": 9829,
  "ateral": 9830,
  "çĭ®": 9831,
  "ĠRuss": 9832,
  "åĲĦå¤§": 9833,
  "å¸Ĥå§Ķ": 9834,
  "æľīçĤ¹": 9835,
  "Ġpan": 9836,
  "uff": 9837,
  "260": 9838,
  "éĻ¶çĵ·": 9839,
  "èĵ¬": 9840,
  "Ġclient": 9841,
  "çľĭçĿĢ": 9842,
  "ĠRead": 9843,
  "åĪĽç«ĭ": 9844,
  "Ġitems": 9845,
  "éĥ½å¸Ĥ": 9846,
  "æıĲåĪ°": 9847,
  "æľºçĶµ": 9848,
  "åĩºåĶ®": 9849,
  "åĩºè¡Į": 9850,
  "Ġrepl": 9851,
  "åŃ¦å®¶": 9852,
  "Ġmechan": 9853,
  "ä¸ºæŃ¢": 9854,
  "äººå¤§": 9855,
  "å¹¿æ³ĽåºĶçĶ¨äºİ": 9856,
  "åħħçĶµ": 9857,
  "èµ°è¿Ľ": 9858,
  "ç»Ħç»ĩçļĦ": 9859,
  "180": 9860,
  "çĹħåĽł": 9861,
  "ĠFirst": 9862,
  "ifest": 9863,
  "å®ŀä¹ł": 9864,
  "ä½ĵåĨħ": 9865,
  "å±Ī": 9866,
  "Ġmap": 9867,
  "åĪł": 9868,
  "LI": 9869,
  "Ġseconds": 9870,
  "éĻĨç»Ń": 9871,
  "éĽ¶éĥ¨ä»¶": 9872,
  "æĿ¡ä»¶çļĦ": 9873,
  "åıĳå¸ĥäºĨ": 9874,
  "é¢ĦåĳĬ": 9875,
  "éªĮè¯ģ": 9876,
  "åħ¨æĸ¹ä½į": 9877,
  "sys": 9878,
  "NBA": 9879,
  "Ġbenefits": 9880,
  "Image": 9881,
  "è®¸åı¯è¯ģ": 9882,
  "å¤©çĦ¶æ°Ķ": 9883,
  "rics": 9884,
  "Ġoutside": 9885,
  "ç§ĳåŃ¦æĬĢæľ¯": 9886,
  "èĲ½åĲİ": 9887,
  "è´Łæĭħ": 9888,
  "ä½łåı¯ä»¥": 9889,
  "æľĢå¤ļ": 9890,
  "æ³»": 9891,
  "çĽĹ": 9892,
  "infty": 9893,
  "inux": 9894,
  "çļĦåİŁåĪĻ": 9895,
  "çļĦç»ĵæŀľ": 9896,
  "lt": 9897,
  "Check": 9898,
  "çŁĽçĽ¾": 9899,
  "Ġanimal": 9900,
  "Ġsomet": 9901,
  "stituting": 9902,
  "ç½ļæ¬¾": 9903,
  "åĤ²": 9904,
  "éĴ¢ç®¡": 9905,
  "ç»ĨèıĮ": 9906,
  "ä¼ĺå¼Ĥ": 9907,
  "åİ»éĻ¤": 9908,
  "æĹłæķ°": 9909,
  "å¹¶å°Ĩ": 9910,
  "æľ¬è´¨": 9911,
  "ä¾¨": 9912,
  "å¯¹åºĶ": 9913,
  "Ġreview": 9914,
  "Ġhyp": 9915,
  "ä¸įåºĶ": 9916,
  "ä¸Ńå±±": 9917,
  "åľ¨ä¸Ģ": 9918,
  "è¿ĶåĽŀ": 9919,
  "æº¶æ¶²": 9920,
  "çŃ¾ç½²": 9921,
  "Ġfeed": 9922,
  "éĺ²æ°´": 9923,
  "åķ¡": 9924,
  "éĶĲ": 9925,
  "æŀ¢": 9926,
  "ä¿±": 9927,
  "ä¸ºå¤§å®¶": 9928,
  "æ§½": 9929,
  "Response": 9930,
  "Ġsmaller": 9931,
  "ĠTrans": 9932,
  "èĶ¡": 9933,
  "çŁŃæľŁ": 9934,
  "ĠOk": 9935,
  "anda": 9936,
  "éħ¬": 9937,
  "å¯¹æİ¥": 9938,
  "åıĳä½ľ": 9939,
  "ä¸įä¸Ģæł·": 9940,
  "è¯Ī": 9941,
  "ä¼ª": 9942,
  "lished": 9943,
  "PV": 9944,
  "è¯ķç®¡å©´åĦ¿": 9945,
  "olec": 9946,
  "çªĹåı£": 9947,
  "æķıæĦŁ": 9948,
  "è®¢åįķ": 9949,
  "ç¿¼": 9950,
  "å¨ĺ": 9951,
  "å¦ĤæŀľæĤ¨": 9952,
  "æ¸ħçĲĨ": 9953,
  "ç»ĵå©ļ": 9954,
  "æĥħèĬĤ": 9955,
  "åĨħèĴĻåı¤": 9956,
  "åĨħæ¶µ": 9957,
  "è¿ĩæ»¤": 9958,
  "win": 9959,
  "oe": 9960,
  "åı¯æĮģç»Ńåıĳå±ķ": 9961,
  "Ġautom": 9962,
  "collect": 9963,
  "Ġgetting": 9964,
  "æıĲé«ĺäºĨ": 9965,
  "åŃ¦æł¡çļĦ": 9966,
  "æŀĹä¸ļ": 9967,
  "æ¸©é¦¨": 9968,
  "çİ¯æ¯Ķ": 9969,
  "çĤ¹åĩ»": 9970,
  "æľĢåĪĿ": 9971,
  "ç¬¬åħ«": 9972,
  "ç½ķ": 9973,
  "æĸ¹çļĦ": 9974,
  "Ġever": 9975,
  "Ġdict": 9976,
  "çļĦå½¢å¼ı": 9977,
  "Le": 9978,
  "Bl": 9979,
  "ä¸ĵæ³¨äºİ": 9980,
  "èħ¾è®¯": 9981,
  "Ġestim": 9982,
  "Ġcarbon": 9983,
  "Ġbring": 9984,
  "erved": 9985,
  "æŁ¥çľĭ": 9986,
  "å½ĵå¤©": 9987,
  "Ġstore": 9988,
  "Ġgir": 9989,
  "æĺ¯æĪĳ": 9990,
  "Ġsense": 9991,
  "uint": 9992,
  "tar": 9993,
  "Out": 9994,
  "DB": 9995,
  "<\\/": 9996,
  "Ġ)": 9997,
  "Regexp": 9998,
  "Ġculture": 9999,
  "Ġearth": 10000,
  "è¶ĬæĿ¥è¶Ĭå¤ļ": 10001,
  "Ġzero": 10002,
  "åĲĮæ¯Ķä¸ĭéĻį": 10003,
  "chema": 10004,
  "åİĤåķĨ": 10005,
  "Ġevidence": 10006,
  "åįĬå¯¼ä½ĵ": 10007,
  "ä½İç¢³": 10008,
  "çº¿çļĦ": 10009,
  "éħµ": 10010,
  "åĿİ": 10011,
  "åŃĲåħ¬åı¸": 10012,
  "åľºä¸Ĭ": 10013,
  "å»ºæĿĲ": 10014,
  "æĶĢ": 10015,
  "æĢ¨": 10016,
  "itary": 10017,
  "oice": 10018,
  "åħĦå¼Ł": 10019,
  "å¹´è½»äºº": 10020,
  "æĲŃéħį": 10021,
  "Ġleading": 10022,
  "ĊĠĠĠĠĠĠĠĠĠĠĠĠĠĠĠĠĠĠĠĠĠĠĠĠĠĠĠĠĠĠĠĠĠĠĠĠĠĠĠĠ": 10023,
  "ç´§å¯Ĩ": 10024,
  "Ġ2019": 10025,
  "ç»ıæµİç¤¾ä¼ļ": 10026,
  "é©¬æĿ¥": 10027,
  "åĽŀæĬ¥": 10028,
  "åĮĸåĲĪçī©": 10029,
  "Ġfarm": 10030,
  "Ġswe": 10031,
  "pers": 10032,
  "TC": 10033,
  "åĴĸåķ¡": 10034,
  "ä»ªè¡¨": 10035,
  "Ġdoing": 10036,
  "ç²¾å¿ĥ": 10037,
  "è¢«åĳĬ": 10038,
  "æİ¥å¾ħ": 10039,
  "çĤ¹çļĦ": 10040,
  "æıĲåıĸ": 10041,
  "ä¹Łä¸įä¼ļ": 10042,
  "è¦ģç´ł": 10043,
  "Ġtool": 10044,
  "ii": 10045,
  "Ġchemical": 10046,
  "Ġsecurity": 10047,
  "æįŁä¼¤": 10048,
  "åº§è°Ī": 10049,
  "èı©": 10050,
  "ĠJan": 10051,
  "åıįå¯¹": 10052,
  "èĬĤæĹ¥": 10053,
  "Ġexists": 10054,
  "exec": 10055,
  "è¿Ļåı¥è¯Ŀ": 10056,
  "Ġsources": 10057,
  "Ġsex": 10058,
  "inks": 10059,
  "Ã¥": 10060,
  "å¦»åŃĲ": 10061,
  "Ġstarted": 10062,
  "Ġmedia": 10063,
  "é¤Ĳåİħ": 10064,
  "äº¤æĺĵæīĢ": 10065,
  "æľĢåĲİä¸Ģ": 10066,
  "é¥®æĸĻ": 10067,
  "Ġworkers": 10068,
  "æł¡åĮº": 10069,
  "Ġprote": 10070,
  "ĠIsl": 10071,
  "ĠSw": 10072,
  "æĹ¥æĻļ": 10073,
  "éĺģ": 10074,
  "Ġsn": 10075,
  "New": 10076,
  "Ġapprox": 10077,
  "address": 10078,
  "è¿Ŀè§Ħ": 10079,
  "æľªèĥ½": 10080,
  "è®°å¾Ĺ": 10081,
  "Ġimages": 10082,
  "åģļæ³ķ": 10083,
  "Ġdeep": 10084,
  "éĻ¢å£«": 10085,
  "è¿ĺå°Ĩ": 10086,
  "æ°´ä¸Ń": 10087,
  "oration": 10088,
  "çļĦéĢīæĭ©": 10089,
  "çļĦé¡¹çĽ®": 10090,
  "sec": 10091,
  "èģĮä½į": 10092,
  "æĦŁåıĹåĪ°": 10093,
  "Ġheav": 10094,
  "Ġitem": 10095,
  "çĸ¹": 10096,
  "éĢļé£İ": 10097,
  "Ġstyle": 10098,
  "çİ°éĩĳ": 10099,
  "rest": 10100,
  "Ġtalk": 10101,
  "Ġtim": 10102,
  "Ġ//": 10103,
  "ç«Ļåľ¨": 10104,
  "åİŁå§ĭ": 10105,
  "ĠSchool": 10106,
  "çİ²": 10107,
  "Ġda": 10108,
  "Ġmachine": 10109,
  "Ġmiles": 10110,
  "Ġodd": 10111,
  "Ġslow": 10112,
  "Ġsort": 10113,
  "dm": 10114,
  "CON": 10115,
  "çĽĪåĪ©": 10116,
  "åĪĳäºĭ": 10117,
  "Ġangles": 10118,
  "ç§ĺå¯Ĩ": 10119,
  "stitution": 10120,
  "çļĩé©¬": 10121,
  "Ġseries": 10122,
  "Ġcentral": 10123,
  "ä¸ĢçĽ´åľ¨": 10124,
  "Ġdisplay": 10125,
  "ä¸ľéĥ¨": 10126,
  "æł·åĵģ": 10127,
  "illi": 10128,
  "Ġforce": 10129,
  "èĩªä¿¡": 10130,
  "ä¾¯": 10131,
  "Ġhor": 10132,
  "ä¸įå¤ļ": 10133,
  "æĺ¯æĪĳä»¬": 10134,
  "cel": 10135,
  "Fr": 10136,
  "cfg": 10137,
  "ÐµÐ": 10138,
  "Ġincor": 10139,
  "filter": 10140,
  "æ³ķå¾ĭæ³ķè§Ħ": 10141,
  "Ġremove": 10142,
  "å®¢æĪ·çļĦ": 10143,
  "çİ°åľ¨çļĦ": 10144,
  "è½¬è®©": 10145,
  "èº«å¿ĥ": 10146,
  "ç«ĭè¶³": 10147,
  "æ°ĳèĲ¥": 10148,
  "Ġsteps": 10149,
  "å¾Ĺä»¥": 10150,
  "Ġhyd": 10151,
  "anks": 10152,
  "ese": 10153,
  "\\\\": 10154,
  "Code": 10155,
  "Ġdiet": 10156,
  "æľīåħ³è§Ħå®ļ": 10157,
  "è±¡å¾ģ": 10158,
  "æī¿åıĹ": 10159,
  "å¿ĥä¸Ń": 10160,
  "æĮº": 10161,
  "çĶŁèĤ²": 10162,
  "å¹´åľ¨": 10163,
  "è¡į": 10164,
  "Ġcard": 10165,
  "qquad": 10166,
  "oo": 10167,
  "ael": 10168,
  "RA": 10169,
  "Event": 10170,
  "æ²³æµģ": 10171,
  "useum": 10172,
  "é¥²": 10173,
  "æīĵè¿Ľ": 10174,
  "è®¤åĲĮ": 10175,
  "æ£ī": 10176,
  "æľįåĬ¡åĻ¨": 10177,
  "abol": 10178,
  "çĹķ": 10179,
  "çĽ®å½ķ": 10180,
  "Ġones": 10181,
  "åĪ¶èį¯": 10182,
  "éĿ¢ä¸Ĭ": 10183,
  "ä¸»è§Ĵ": 10184,
  "Ġtro": 10185,
  "><": 10186,
  "ĠæľĪ": 10187,
  "Ġscientists": 10188,
  "Ġdigits": 10189,
  "Ġmulti": 10190,
  "æ½ľåľ¨": 10191,
  "ç¥¨æĪ¿": 10192,
  "Ġjoin": 10193,
  "perty": 10194,
  "éŁ§": 10195,
  "å¸ĤåľºéľĢæ±Ĥ": 10196,
  "ĠLog": 10197,
  "æĪĳä»¬è¦ģ": 10198,
  "apter": 10199,
  "term": 10200,
  "è¿ĩäºĨ": 10201,
  "åħ¬äº¤": 10202,
  "çĶ¨è½¦": 10203,
  "ä»¥åħį": 10204,
  "Ġwid": 10205,
  "aur": 10206,
  "Ġcaused": 10207,
  "Ġobjects": 10208,
  "efore": 10209,
  "åĤħ": 10210,
  "Ġequations": 10211,
  "çº¦å®ļ": 10212,
  "éªĮæĶ¶": 10213,
  "è¾ĥé«ĺçļĦ": 10214,
  "Ġwhose": 10215,
  "æľĢéĩįè¦ģçļĦ": 10216,
  "æľºåºĬ": 10217,
  "Ġreach": 10218,
  "Ġthreat": 10219,
  "Ġfav": 10220,
  "ï¼Ĵ": 10221,
  "NS": 10222,
  "Ġchoose": 10223,
  "åºŁå¼ĥ": 10224,
  "äººä»¬çļĦ": 10225,
  "æĺ¾å¾Ĺ": 10226,
  "ipeline": 10227,
  "Ġgard": 10228,
  "ä¸Ĭå¸Ŀ": 10229,
  "Ġfem": 10230,
  "'(": 10231,
  "Ġ2020": 10232,
  "æµªè´¹": 10233,
  "é»ĳé¾Ļ": 10234,
  "Ġcollection": 10235,
  "ĠJapan": 10236,
  "ç¢Ĺ": 10237,
  "æľ¬åľŁ": 10238,
  "ç¨»": 10239,
  "é«ĺå³°": 10240,
  "åħ¬åħĥ": 10241,
  "åľ¨å¤§": 10242,
  "ä¸ĢçĶŁ": 10243,
  "çļĦé¦ĸ": 10244,
  "fields": 10245,
  "æīİå®ŀ": 10246,
  "èĩªèº«çļĦ": 10247,
  "9999": 10248,
  "è®²åº§": 10249,
  "web": 10250,
  "è´¢ç»ı": 10251,
  "Ġcommit": 10252,
  "Ġsearch": 10253,
  "ç±»åĪ«": 10254,
  "ç½ĳé¡µ": 10255,
  "å°ıåĮº": 10256,
  "å¹¶æľª": 10257,
  "ĠCO": 10258,
  "ĠAB": 10259,
  "ä¸ĭæ»ĳ": 10260,
  "ĠSm": 10261,
  "è¿ĩåº¦": 10262,
  "step": 10263,
  "Ġbound": 10264,
  "Ġpow": 10265,
  "ench": 10266,
  "ino": 10267,
  "width": 10268,
  "ture": 10269,
  "æĻĭçº§": 10270,
  "00000000": 10271,
  "Ġsafe": 10272,
  "éĻĦåĬł": 10273,
  "Ġfeature": 10274,
  "Ġexpect": 10275,
  "ç«ŀæĬĢ": 10276,
  "æĿĥå¨ģ": 10277,
  "æ»ŀ": 10278,
  "ç³ķ": 10279,
  "è¿Ļé¡¹": 10280,
  "æīĳ": 10281,
  "orial": 10282,
  "zer": 10283,
  "Ġencour": 10284,
  "å°ĦéĹ¨": 10285,
  "ç¦ıåĪ©": 10286,
  "éĺ³å¸Ĥ": 10287,
  "ä»½é¢Ŀ": 10288,
  "Ġkill": 10289,
  "åĽŀå¿Ĩ": 10290,
  "ĠGiven": 10291,
  "ä¸¤ä½į": 10292,
  "()),": 10293,
  "ä¼ģä¸ļåĴĮ": 10294,
  "rial": 10295,
  "æĸ°åįİ": 10296,
  "çŃīçĽ¸åħ³": 10297,
  "èŁ": 10298,
  "batch": 10299,
  "Return": 10300,
  "è¯±åıĳ": 10301,
  "æ¢ħè¥¿": 10302,
  "çļĦäººåĳĺ": 10303,
  "ĠJew": 10304,
  "å¥³äºº": 10305,
  "åı°åĮĹ": 10306,
  "åįģä¸Ģ": 10307,
  "Ġ27": 10308,
  "æł½": 10309,
  "Ġmiddle": 10310,
  "Ġmor": 10311,
  "Ġcore": 10312,
  "table": 10313,
  "Se": 10314,
  "Ġimplies": 10315,
  "ĠCenter": 10316,
  "Ã³n": 10317,
  "Ġlocated": 10318,
  "ronic": 10319,
  "åįĥä¸ĩ": 10320,
  "æī¹è¯Ħ": 10321,
  "èģĮèĥ½": 10322,
  "ç®¡çĲĨéĥ¨éĹ¨": 10323,
  "ĠDo": 10324,
  "ĠDE": 10325,
  "æĹłéĻĲ": 10326,
  "ĠPre": 10327,
  "æĽ´å¤§": 10328,
  "ç§ĳçĽ®": 10329,
  "æĸĩèīº": 10330,
  "çĶµè§£": 10331,
  "çŃīçļĦ": 10332,
  "åĪĨæķ£": 10333,
  "åıĳèµ·": 10334,
  "å¤§äºİ": 10335,
  "åĴĮå¹³": 10336,
  "Ġindepend": 10337,
  "rees": 10338,
  "yg": 10339,
  "Ġchoice": 10340,
  "Ġcosts": 10341,
  "Ġplane": 10342,
  "velopment": 10343,
  "æĿ¡ä»¶ä¸ĭ": 10344,
  "Ġprec": 10345,
  "åĪ¶éĢłåķĨ": 10346,
  "æľīéĻĲè´£ä»»": 10347,
  "çĮľ": 10348,
  "æ´»åĬ¨ä¸Ń": 10349,
  "Ġselect": 10350,
  "èģĮç§°": 10351,
  "å®¢è§Ĥ": 10352,
  "ĠGu": 10353,
  "Ġconvert": 10354,
  "çĶµæµģ": 10355,
  "åİĺ": 10356,
  "Ġsection": 10357,
  "çļĦåĬŁèĥ½": 10358,
  "Ġteachers": 10359,
  "txt": 10360,
  "Ġgrowing": 10361,
  "Class": 10362,
  "Ġappropri": 10363,
  "éĺµå®¹": 10364,
  "äºīè®®": 10365,
  "åıįèĢĮ": 10366,
  "åĪĽå§ĭ": 10367,
  "å¥½å¤Ħ": 10368,
  "Ġbegan": 10369,
  "åīįéĶĭ": 10370,
  "asks": 10371,
  "Ġsug": 10372,
  "Ġé¥°": 10373,
  "Ġparticularly": 10374,
  "Ġbelieve": 10375,
  "Ġconnect": 10376,
  "iki": 10377,
  "Ġboard": 10378,
  "feature": 10379,
  "èĥĮåĲİ": 10380,
  "ĠChar": 10381,
  "æłĩåĩĨçļĦ": 10382,
  "ä¸¾æİª": 10383,
  "ĠInst": 10384,
  "èĢģæĿ¿": 10385,
  "ĠOct": 10386,
  "åİŁæĿĲæĸĻ": 10387,
  "åĲİç»Ń": 10388,
  "åĲİæľŁ": 10389,
  "Ġhands": 10390,
  "åıĳå°Ħ": 10391,
  "Ġinform": 10392,
  "çļĦåħ¨": 10393,
  "ĊĊĠĠĠĠĠĠĠĠĠĠĠĠĠĠĠĠ": 10394,
  "Ġsometimes": 10395,
  "while": 10396,
  "éī´å®ļ": 10397,
  "Ġcontinue": 10398,
  "number": 10399,
  "åŃĶåŃĲ": 10400,
  "Ġgrad": 10401,
  "èģļæ°¨": 10402,
  "ords": 10403,
  "aved": 10404,
  "çĪ±å¥½": 10405,
  "åħ¥åı£": 10406,
  "ĠAN": 10407,
  "ä¹Łå¾Ī": 10408,
  "async": 10409,
  "å¤§æ¦Ĥ": 10410,
  "æĿī": 10411,
  "Ġwest": 10412,
  "Ġcamp": 10413,
  "åĲķ": 10414,
  "});": 10415,
  "Ġchalleng": 10416,
  "Ġcritical": 10417,
  "è¯ŀçĶŁ": 10418,
  "æ®ĭçĸ¾": 10419,
  "Ġparallel": 10420,
  "enced": 10421,
  "è¡¥åĬ©": 10422,
  "åĪĩå°Ķ": 10423,
  "æĻ¯çĤ¹": 10424,
  "åįİä¸º": 10425,
  "ç¦ħ": 10426,
  "ĠHar": 10427,
  "çĥ·": 10428,
  "æģ¨": 10429,
  "åľºçļĦ": 10430,
  "èĢĮæĪĲ": 10431,
  "ils": 10432,
  "ä½ľå®¶": 10433,
  "åŃ¦éĩĳ": 10434,
  "asic": 10435,
  "Ġdate": 10436,
  "roid": 10437,
  "Ġfat": 10438,
  "hold": 10439,
  "gz": 10440,
  "Option": 10441,
  "å¢ŀåĢ¼ç¨İ": 10442,
  "ä¸Ńå°ıä¼ģä¸ļ": 10443,
  "æĲŃå»º": 10444,
  "implies": 10445,
  "Ġstatement": 10446,
  "æ¸Ĳæ¸Ĳ": 10447,
  "ä¸´æĹ¶": 10448,
  "ãĤ¹": 10449,
  ")))": 10450,
  "åĪĿå¿ĥ": 10451,
  "ç±»çļĦ": 10452,
  "æ¶Ľ": 10453,
  "change": 10454,
  "çĶµç¼Ĩ": 10455,
  "çİ°çĬ¶": 10456,
  "idge": 10457,
  "åĪĨåħ¬åı¸": 10458,
  "åĩºä¸Ģ": 10459,
  "ä»¥å¾Ģ": 10460,
  "æĺ¯ä¸įæĺ¯": 10461,
  "ï¼ı": 10462,
  "Ġprimary": 10463,
  "è¹Ī": 10464,
  "éħįä»¶": 10465,
  "æīĵåĩ»": 10466,
  "æľįåĬ¡ä¸Ńå¿ĥ": 10467,
  "angles": 10468,
  "è¥¿åĮĹ": 10469,
  "æ°ĳä¸»": 10470,
  "plt": 10471,
  "ç¾İé£Ł": 10472,
  "ĠMy": 10473,
  "Ġconstruct": 10474,
  "å¦Ĥæľī": 10475,
  "çĶµåİĭ": 10476,
  "æĹ¶åħī": 10477,
  "è¦ģæľī": 10478,
  "å¤ķ": 10479,
  "ining": 10480,
  "ç°": 10481,
  "dk": 10482,
  "Ġcauses": 10483,
  "Ġsurv": 10484,
  "Ġ2017": 10485,
  "æ¤ħ": 10486,
  "åįļè§Ī": 10487,
  "æīįä¼ļ": 10488,
  "å¤ĸçķĮ": 10489,
  "éĥ½æ²¡æľī": 10490,
  "åĮºåĿĹ": 10491,
  "ĠIS": 10492,
  "Ġmiss": 10493,
  "ä¸ºä¸»é¢ĺ": 10494,
  "ä¸įæĺĵ": 10495,
  "Ġbul": 10496,
  "itter": 10497,
  "ä¸Ģé¡¹": 10498,
  "rict": 10499,
  "rated": 10500,
  "pmod": 10501,
  "Per": 10502,
  "Ġradius": 10503,
  "å¿ħè¦ģçļĦ": 10504,
  "ç¬¬ä¸īæĸ¹": 10505,
  "çķĻåľ¨": 10506,
  "ãģ§": 10507,
  "Ġspread": 10508,
  "åįģåħŃ": 10509,
  "åįķä¸Ģ": 10510,
  "æĹ¥åĨħ": 10511,
  "Ġrect": 10512,
  "ros": 10513,
  "æīĩ": 10514,
  "ä¸Ńèį¯": 10515,
  "Ġwild": 10516,
  "pref": 10517,
  "core": 10518,
  "Hence": 10519,
  "ç´«å¤ĸ": 10520,
  "Ġlabor": 10521,
  "äº¤éĢļè¿Ĳè¾ĵ": 10522,
  "èĹ¤": 10523,
  "å¾ģæĶ¶": 10524,
  "ç§¯éĩĳ": 10525,
  "å±±åĮº": 10526,
  "ague": 10527,
  "umb": 10528,
  "åĴĮåıĳå±ķ": 10529,
  "Ġtf": 10530,
  "çļĦå¤©": 10531,
  "ĠĠĊĠĠ": 10532,
  "mail": 10533,
  "utils": 10534,
  "Ġreported": 10535,
  "åĤ¨åŃĺ": 10536,
  "éĽ¶ä»¶": 10537,
  "Ġ2015": 10538,
  "çªģåıĳ": 10539,
  "ervation": 10540,
  "æŀģå¤§": 10541,
  "å¸¦æľī": 10542,
  "æ¯ıæľĪ": 10543,
  "è¾¾åĪ°äºĨ": 10544,
  "çļĦè¡Įä¸º": 10545,
  "çļĦåħī": 10546,
  "Pr": 10547,
  "ä»ĭç»įäºĨ": 10548,
  "çŃ¾ä¸ĭ": 10549,
  "æľīæķĪåľ°": 10550,
  "è¡ĮæĶ¿å¤įè®®": 10551,
  "rench": 10552,
  "å·´å¡ŀ": 10553,
  "overline": 10554,
  "^{-": 10555,
  "Ġimag": 10556,
  "pty": 10557,
  "çĪ¬": 10558,
  "urren": 10559,
  "æ²ª": 10560,
  "asons": 10561,
  "Ġtang": 10562,
  "year": 10563,
  "Using": 10564,
  "frame": 10565,
  "........": 10566,
  "èį·åħ°": 10567,
  "æģĴå¤§": 10568,
  "æ±¡æŁĵçī©": 10569,
  "æī¿è®¤": 10570,
  "èĳ¬": 10571,
  "ç¤¾ä¼ļçļĦ": 10572,
  "å±Ģéĥ¨": 10573,
  "åĽ½å®¶éĺŁ": 10574,
  "çī©èµĦ": 10575,
  "vere": 10576,
  "åı¯è¾¾": 10577,
  "å¿Į": 10578,
  "Ġsil": 10579,
  "çļĦæł¸å¿ĥ": 10580,
  "Base": 10581,
  "é¸¿": 10582,
  "åħ´å¥ĭ": 10583,
  "ĠValue": 10584,
  "æģ¼": 10585,
  "ĠABC": 10586,
  "åħ¨æĸ°çļĦ": 10587,
  "çŃīå¤ļç§į": 10588,
  "åŃ¦åĳĺ": 10589,
  "çĶŁåĬ¨": 10590,
  "åľ¨åħ¨åĽ½": 10591,
  "çļĦéĢļçŁ¥": 10592,
  "cks": 10593,
  "cor": 10594,
  "Ġrespectively": 10595,
  "Ġdiagn": 10596,
  "åıĳçĶŁäºĨ": 10597,
  "æ³¢åĬ¨": 10598,
  "Ġperfect": 10599,
  "èħ»": 10600,
  "Ġ45": 10601,
  "é©¬åħĭ": 10602,
  "å·²å®ĮæĪĲ": 10603,
  "Ġgot": 10604,
  "çľī": 10605,
  "Ġeat": 10606,
  "Ġmom": 10607,
  "äººä¸İ": 10608,
  "å®´": 10609,
  "Rec": 10610,
  "é»ĳé¾Ļæ±Ł": 10611,
  "å¼ĺæī¬": 10612,
  "which": 10613,
  "çĶŁæĢģçİ¯å¢ĥ": 10614,
  "Ġpara": 10615,
  "ç´§æĢ¥": 10616,
  "èĨ¨": 10617,
  "Ġroad": 10618,
  "å¼ķåħ¥": 10619,
  "Ġdead": 10620,
  "å·¥ä½ľèĢħ": 10621,
  "éķ¿æ²Ļ": 10622,
  "å¯¹å¾ħ": 10623,
  "Ġhot": 10624,
  "å¤§è§Ħæ¨¡": 10625,
  "ä¸ºä¸ŃåĽ½": 10626,
  "æ¹ĸåĮĹçľģ": 10627,
  "æ¾³éĹ¨": 10628,
  "Ġmedic": 10629,
  "Ġaccom": 10630,
  "æĲı": 10631,
  "ĠUse": 10632,
  "Ġenum": 10633,
  "åıĺéĿ©": 10634,
  "anger": 10635,
  "æº¯": 10636,
  "æ·®": 10637,
  "æľĢåħ·": 10638,
  "åıĬçĽ¸åħ³": 10639,
  "æĭ³": 10640,
  "è¿Ļå¯¹": 10641,
  "åĴĮç®¡çĲĨ": 10642,
  "ä¸ĢçŃīå¥ĸ": 10643,
  "åĲŀ": 10644,
  "}\\)": 10645,
  "send": 10646,
  "ker": 10647,
  "find": 10648,
  "GDP": 10649,
  "èģļæ°¨éħ¯": 10650,
  "Ġpoor": 10651,
  "Ġinternational": 10652,
  "Ġcapital": 10653,
  "åºŁæ°Ķ": 10654,
  "åįłæľī": 10655,
  "å·²ç»ıæĪĲä¸º": 10656,
  "ä¹Ĳè§Ĥ": 10657,
  "çĸĹæ³ķ": 10658,
  "éĿŀæ´²": 10659,
  "åĻ¨æ¢°": 10660,
  "ä¼łè¯´": 10661,
  "æłĩçŃ¾": 10662,
  "åĪ°æĿ¥": 10663,
  "wide": 10664,
  "pret": 10665,
  "çĿ¡çľł": 10666,
  "èº«ä»½è¯ģ": 10667,
  "Ġidentify": 10668,
  "åľĨæ»¡": 10669,
  "åįłæį®": 10670,
  "æł¸éħ¸": 10671,
  "èĭ±æł¼åħ°": 10672,
  "ensity": 10673,
  "ĠUsing": 10674,
  "ellig": 10675,
  "Ġ{'": 10676,
  "ĠMany": 10677,
  "å°Ĩç»§ç»Ń": 10678,
  "ä¹ĭæĹ¥èµ·": 10679,
  "ç«£": 10680,
  "Ġled": 10681,
  "Ġhous": 10682,
  "ster": 10683,
  "ĠÂ": 10684,
  "ashing": 10685,
  "æĶ»åĿļ": 10686,
  "å¾ģæ±Ĥ": 10687,
  "çĭ±": 10688,
  "èĬĤå¥ı": 10689,
  "Ġ\"$": 10690,
  "ä¸ĩæ¬§åħĥ": 10691,
  "ä¸ĩè¾Ĩ": 10692,
  "åĿĳ": 10693,
  "åĪĨæĶ¯": 10694,
  "è¿Ļç±»": 10695,
  "åıĳèĤ²": 10696,
  "çļĦä½ľåĵģ": 10697,
  "task": 10698,
  "Calculate": 10699,
  "360": 10700,
  "etermine": 10701,
  "å¦ĩå¥³": 10702,
  "å¼ķèµ·çļĦ": 10703,
  "ç§ģåĭŁ": 10704,
  "é¡¶çº§": 10705,
  "æ¡¥æ¢ģ": 10706,
  "inese": 10707,
  "ocket": 10708,
  "åį¡å¡Ķå°Ķ": 10709,
  "çļĦä¸Ģéĥ¨åĪĨ": 10710,
  "ä»ħä»ħ": 10711,
  "Ġimmedi": 10712,
  "å¹¿éĺĶ": 10713,
  "ĠWindows": 10714,
  "ĠBu": 10715,
  "Ġvideo": 10716,
  "åľ°éĿ¢": 10717,
  "ĊĊĊĊ": 10718,
  "ä¼ļåĩºçİ°": 10719,
  "å¹´ä»¥æĿ¥": 10720,
  "Ġbur": 10721,
  "çļĦæ¯ĶèµĽ": 10722,
  "äºĮåįģå¤§": 10723,
  "æĬĵä½ı": 10724,
  "ç³ĸå°¿": 10725,
  "çĶµè§Ĩåı°": 10726,
  "ç§ģäºº": 10727,
  "Ġdeveloping": 10728,
  "æ±¡æ³¥": 10729,
  "è¡¥åģ¿": 10730,
  "æĭīæĸ¯": 10731,
  "ç»Ļå¤§å®¶": 10732,
  "ç¥ŀç§ĺ": 10733,
  "çłĶç©¶åĳĺ": 10734,
  "128": 10735,
  "åįģä¹Ŀ": 10736,
  "å¼ºåĬ²": 10737,
  "Ġprogress": 10738,
  "apid": 10739,
  "ĠAc": 10740,
  "å¦¥": 10741,
  "ulations": 10742,
  "Ġtools": 10743,
  "çĽ¼": 10744,
  "atest": 10745,
  "Ġcreating": 10746,
  "ç±»åŀĭçļĦ": 10747,
  "åºĨç¥Ŀ": 10748,
  "Ġsubst": 10749,
  "Ġ2010": 10750,
  "Ġprime": 10751,
  "Ġsett": 10752,
  "æķĻèĤ²çļĦ": 10753,
  "å¤įåıĳ": 10754,
  "èĬĤçľģ": 10755,
  "izations": 10756,
  "ĠHere": 10757,
  "éĺŁåĳĺ": 10758,
  "ä¸ĵè¾ĳ": 10759,
  "ç§ĳæĻ®": 10760,
  "ä¹ĭéĻħ": 10761,
  "ä¸ĭè·Į": 10762,
  "ĠType": 10763,
  "Ġmother": 10764,
  "icular": 10765,
  "ä¸Ģçīĩ": 10766,
  "âĨ": 10767,
  "hing": 10768,
  "æľīéĻĲè´£ä»»åħ¬åı¸": 10769,
  "åİ¦éĹ¨": 10770,
  "éģµå¾ª": 10771,
  "åĩºçīĪç¤¾": 10772,
  "å»¶ç»Ń": 10773,
  "åºĵåŃĺ": 10774,
  "Ġ2012": 10775,
  "ĠYour": 10776,
  "æ£Ģå¯Ł": 10777,
  "åĸ»": 10778,
  "è½¦éĹ´": 10779,
  "anding": 10780,
  "æĶ¿åĬ¡": 10781,
  "ĠMore": 10782,
  "æŁ¯": 10783,
  "email": 10784,
  "Ġstream": 10785,
  "å¼Ģå¹ķ": 10786,
  "ä½ĵç§¯": 10787,
  "ä»¥æŃ¤": 10788,
  "Ġsave": 10789,
  "ham": 10790,
  "hr": 10791,
  "Debug": 10792,
  "================": 10793,
  "åħ»èĢģéĩĳ": 10794,
  "ĠIndian": 10795,
  "Ġlooking": 10796,
  "çĪĨåıĳ": 10797,
  "Ġlocation": 10798,
  "åĽºä½ĵ": 10799,
  "åį´æĺ¯": 10800,
  "ĠInstitute": 10801,
  "èĤ¡ä»·": 10802,
  "conf": 10803,
  "æķ´æĶ¹": 10804,
  "ä½¿çĶ¨å¯¿åĳ½": 10805,
  "Ġ32": 10806,
  "ĠNow": 10807,
  "ç»Ħå»º": 10808,
  "åŀ«": 10809,
  "æ¯Ķéĩį": 10810,
  "ä»ĸæĺ¯": 10811,
  "è¦ģåľ¨": 10812,
  "å±¡": 10813,
  "Ġdrop": 10814,
  "æľīè¶£": 10815,
  "Ġfast": 10816,
  "Ġtheory": 10817,
  "EM": 10818,
  "Ġindividuals": 10819,
  "Ġcircum": 10820,
  "æ¶¦æ»ĳ": 10821,
  "ä»·åĢ¼è§Ĥ": 10822,
  "è§ĴéĢĲ": 10823,
  "åĨľäº§åĵģ": 10824,
  "èģĮåĬ¡": 10825,
  "åĽŀå®¶": 10826,
  "asset": 10827,
  "å¥½å¥½": 10828,
  "åľ°åĽ¾": 10829,
  "æ¯ħ": 10830,
  "etic": 10831,
  "Ġwood": 10832,
  "Ġtend": 10833,
  "void": 10834,
  "+\\": 10835,
  "ãĥ¼ãĥĪ": 10836,
  "empty": 10837,
  "ä¹Łå°±æĺ¯è¯´": 10838,
  "models": 10839,
  "Ġdivided": 10840,
  "RET": 10841,
  "æ³°åĽ½": 10842,
  "æĭħå½ĵ": 10843,
  "åĳ½ä»¤": 10844,
  "ä¾ĿæĹ§": 10845,
  "åıĹä¼¤": 10846,
  "ocr": 10847,
  "å±ķä¼ļ": 10848,
  "å¤ļäºº": 10849,
  "å¹´ä¸ŃåĽ½": 10850,
  "åľ¨æł¡": 10851,
  "ĠĠĠĠĠĠĠĠĠ": 10852,
  "CR": 10853,
  "ä¸Ļçĥ¯": 10854,
  "ä¼ĺæĥłæĶ¿çŃĸ": 10855,
  "ä¼ĺç§ĢçļĦ": 10856,
  "ä¸įä»ħä»ħ": 10857,
  "åĵªä¸ª": 10858,
  "è¿Ļæĺ¯ä¸Ģä¸ª": 10859,
  "posite": 10860,
  "Step": 10861,
  "æĽ¾åľ¨": 10862,
  "æ¹ĸäºº": 10863,
  "Ġ500": 10864,
  "æĲħ": 10865,
  "ç®Ĺæ³ķ": 10866,
  "çº¦ç¿°": 10867,
  "ä½İæ¸©": 10868,
  "è½¦çļĦ": 10869,
  "ĠPres": 10870,
  "éļ§": 10871,
  "éķ¿æĺ¥": 10872,
  "æĸ¹éĴĪ": 10873,
  "æĥ§": 10874,
  "ä¸įäºĪ": 10875,
  "Ġbott": 10876,
  "æĹ±": 10877,
  "tocol": 10878,
  "PU": 10879,
  "åĨ¶éĩĳ": 10880,
  "äºıæįŁ": 10881,
  "Ġtraditional": 10882,
  "ography": 10883,
  "ĠSpec": 10884,
  "command": 10885,
  "æĺİæĺ¾çļĦ": 10886,
  "azure": 10887,
  "Ġremains": 10888,
  "values": 10889,
  "å®£åĳĬ": 10890,
  "çĻ»å½ķ": 10891,
  "ichael": 10892,
  "æ·±åıĹ": 10893,
  "çĹħçļĦ": 10894,
  "Ġaltern": 10895,
  "ĠMost": 10896,
  "è®¾å®ļ": 10897,
  "æĦī": 10898,
  "å¹´å¼Ģå§ĭ": 10899,
  "ç§©": 10900,
  "éĢ¸": 10901,
  "Ġwin": 10902,
  "æĹŃ": 10903,
  "esus": 10904,
  "uous": 10905,
  "å¿ĹæĦ¿èĢħ": 10906,
  "params": 10907,
  "ĊĠĠĠĠĠĠĠĠĠĠĠĠĠĠĠĠĠĠĠĠĠĠĠĠĠĠĠĠĠĠĠĠĠĠĠĠ": 10908,
  "é¹°": 10909,
  "ç¯®çĲĥ": 10910,
  "insert": 10911,
  "Ġ2014": 10912,
  "æĴŃæĶ¾": 10913,
  "è¾¹ç¼ĺ": 10914,
  "åĩıéĢŁ": 10915,
  "osure": 10916,
  "å¹¶äºİ": 10917,
  "éģ£": 10918,
  "å¸ĤåĢ¼": 10919,
  "åİī": 10920,
  "alysis": 10921,
  "æª": 10922,
  "joy": 10923,
  "aul": 10924,
  "åĪ¹è½¦": 10925,
  "Ġfamilies": 10926,
  "Ġlabel": 10927,
  "å¤ºå¾Ĺ": 10928,
  "éķľå¤´": 10929,
  "Ġleaders": 10930,
  "éĢłæĪĲçļĦ": 10931,
  "Ġassum": 10932,
  "Ġformed": 10933,
  "å¸ĮèħĬ": 10934,
  "Ġrot": 10935,
  "äºīåıĸ": 10936,
  "éĺ²èħĲ": 10937,
  "é©°": 10938,
  "å¹³å®ī": 10939,
  "ĠPort": 10940,
  "çī©æµ¦": 10941,
  "è¾°": 10942,
  "ä¼ļå¯¼èĩ´": 10943,
  "Ġful": 10944,
  "åıĻ": 10945,
  "åĤ¬åĮĸ": 10946,
  "ä»Ķç»Ĩ": 10947,
  "Ġforest": 10948,
  "Ġdevices": 10949,
  "Ġserious": 10950,
  "Ġattempt": 10951,
  "ä¼łç»ŁæĸĩåĮĸ": 10952,
  "Status": 10953,
  "çĽĳä¼ļ": 10954,
  "ãģŁ": 10955,
  "project": 10956,
  "Ġbytes": 10957,
  "Ġexamples": 10958,
  "ectors": 10959,
  "åĿĿ": 10960,
  "æ°´è´¨": 10961,
  "çĶµä¿¡": 10962,
  "éĿ¢åīį": 10963,
  "oding": 10964,
  "Ġhi": 10965,
  "Ġnamed": 10966,
  "èĥ½åĲ¦": 10967,
  "éĻĮ": 10968,
  "Ġmix": 10969,
  "room": 10970,
  "Ġtorch": 10971,
  "Ġtrack": 10972,
  "ä¸Ľ": 10973,
  "aid": 10974,
  "Case": 10975,
  "ä¸Ģå¸¦ä¸Ģè·¯": 10976,
  "Ġeasily": 10977,
  "Ġprograms": 10978,
  "ursor": 10979,
  "æŀ¶æŀĦ": 10980,
  "è¯Ĺäºº": 10981,
  "vention": 10982,
  "Ġuseful": 10983,
  "ĠOther": 10984,
  "å¼ºåĪ¶": 10985,
  "thread": 10986,
  "æ´»è·ĥ": 10987,
  "ä¸»æµģ": 10988,
  "å·¥ä¼ļ": 10989,
  "SI": 10990,
  "çĸ¼çĹĽ": 10991,
  "Ġachieve": 10992,
  "æĩĪ": 10993,
  "åĪĿæľŁ": 10994,
  "ccount": 10995,
  "aker": 10996,
  "çĥŃåĻ¨": 10997,
  "è¾ĥå¤§çļĦ": 10998,
  "åĮĹæĸ¹": 10999,
  "åıĺåĬ¨": 11000,
  "éĵŃ": 11001,
  "å½ĵä½ł": 11002,
  "çĽ¸åıį": 11003,
  "åħ¨ç¨ĭ": 11004,
  "å½Ń": 11005,
  "âĢĿï¼ī": 11006,
  "(_": 11007,
  "å·´å¡ŀç½Ĺ": 11008,
  "å·´å¡ŀç½ĹéĤ£": 11009,
  "Ġholds": 11010,
  "å±ķçİ°åĩº": 11011,
  "ä»ĺåĩº": 11012,
  "Ġproduced": 11013,
  "æ¸¯åı£": 11014,
  "Ġround": 11015,
  "rowser": 11016,
  "çĻ¾åº¦": 11017,
  "å¥ĸé¡¹": 11018,
  "****": 11019,
  "åĪ©çī©æµ¦": 11020,
  "åºĶèģĺ": 11021,
  "åīįæ²¿": 11022,
  "åľºåľ°": 11023,
  "ĠAccording": 11024,
  "Ġthous": 11025,
  "Ġinj": 11026,
  "Ġfire": 11027,
  "çļĦç»ıèĲ¥": 11028,
  "çĢ": 11029,
  "nov": 11030,
  "ees": 11031,
  "Pass": 11032,
  "æī«æıı": 11033,
  "è¡£æľį": 11034,
  "æĭ¿åĪ°": 11035,
  "scrib": 11036,
  "ç»§æī¿": 11037,
  "orders": 11038,
  "å¥¹ä»¬": 11039,
  "1500": 11040,
  "åħļå»º": 11041,
  "çİ¯å¢ĥçļĦ": 11042,
  "éĶĢåķĨ": 11043,
  "å¥³è¶³": 11044,
  "123": 11045,
  "Ġ300": 11046,
  "è¾ĥå¼ºçļĦ": 11047,
  "åįĹéĥ¨": 11048,
  "äºĮçŃīå¥ĸ": 11049,
  "ä½ĨæĪĳ": 11050,
  "è¯´è¯Ŀ": 11051,
  "çī©æĸĻ": 11052,
  "åħ³æĢĢ": 11053,
  "åĪĨçļĦ": 11054,
  "çĲ³": 11055,
  "Ġfather": 11056,
  "names": 11057,
  "Ġsafety": 11058,
  "æĩĤå¾Ĺ": 11059,
  "Ġdistinct": 11060,
  "ç¿Ķ": 11061,
  "éĺ¿æ£®": 11062,
  "æĴ°": 11063,
  "æ¨¡åħ·": 11064,
  "å±ĢéĿ¢": 11065,
  "ä¸¤å¤§": 11066,
  "å½ĵä¸ĭ": 11067,
  "éħ°": 11068,
  "äº§åĢ¼": 11069,
  "ä¸ļçķĮ": 11070,
  "icate": 11071,
  "Ġsample": 11072,
  "mem": 11073,
  "ç§©åºı": 11074,
  "åĩĿèģļ": 11075,
  "çĻĮçĹĩ": 11076,
  "åĿĲèĲ½": 11077,
  "åħ¬åħ±åį«çĶŁ": 11078,
  "äº®çĽ¸": 11079,
  "å¹ħåº¦": 11080,
  "è´µçļĦ": 11081,
  "åĲ¬åĪ°": 11082,
  "æ½ĺ": 11083,
  "Ġequip": 11084,
  "èĳ±": 11085,
  "åıįé¦Ī": 11086,
  "Ġ[`": 11087,
  "å¢ĥå¤ĸ": 11088,
  "è·¯ä¸Ĭ": 11089,
  "çº§åĪ«": 11090,
  "çĪ½": 11091,
  "äº¤ä»ĺ": 11092,
  "ä¿¡å¿µ": 11093,
  "éľŀ": 11094,
  "å§ļ": 11095,
  "Ġtown": 11096,
  "æĬļ": 11097,
  "å·©": 11098,
  "åľ¨æĸ°": 11099,
  "çļĦå¤ĸ": 11100,
  "à¸": 11101,
  "writ": 11102,
  "macro": 11103,
  "ĠEducation": 11104,
  "ĠDepartment": 11105,
  "Ġsets": 11106,
  "ãĥĪ": 11107,
  "æ¼Ķè®²": 11108,
  "éĩĩéĽĨ": 11109,
  "æĸ¯åį¡": 11110,
  "éĩįç»Ħ": 11111,
  "igration": 11112,
  "ä¸Ńæłĩ": 11113,
  "ario": 11114,
  "åľ¨æĪĳ": 11115,
  "itation": 11116,
  "FC": 11117,
  "å¡«åĨĻ": 11118,
  "Ġpassed": 11119,
  "æĿ°åĩº": 11120,
  "éĵ¾æİ¥": 11121,
  "Ġspecified": 11122,
  "è¡ĮæĶ¿æľºåħ³": 11123,
  "axis": 11124,
  "åħħè¶³": 11125,
  "æ¹ĺ": 11126,
  "æ¸ħåįķ": 11127,
  "Ġsea": 11128,
  "etime": 11129,
  "å¯¨": 11130,
  "ä¸ºä¸Ńå¿ĥ": 11131,
  "å¼¦": 11132,
  "åľ¨åħ¨çĲĥ": 11133,
  "çļĦçĽ®çļĦ": 11134,
  "çļĦæīĢæľī": 11135,
  "çļĦç»Ħç»ĩ": 11136,
  "GE": 11137,
  "Ġdamage": 11138,
  "ĠHistory": 11139,
  "Ġsituation": 11140,
  "ç»ĺçĶ»": 11141,
  "æĭľä»ģ": 11142,
  "ç»ĵæĿŁåĲİ": 11143,
  "Ġemot": 11144,
  "å·¥ç¨ĭæĬĢæľ¯": 11145,
  "ĠGoogle": 11146,
  "ä¼łå¥ĩ": 11147,
  "åįķçĭ¬": 11148,
  "Ġ28": 11149,
  "åĪĽåĬŀ": 11150,
  "æį®æĬ¥éģĵ": 11151,
  "åīįä¸ī": 11152,
  "æŀļ": 11153,
  "âĢĿï¼Ľ": 11154,
  "ä¸įè®º": 11155,
  "road": 11156,
  "Ġbad": 11157,
  "æľīæľĽ": 11158,
  "Ġsal": 11159,
  "reme": 11160,
  "çļĦåħ¶ä»ĸ": 11161,
  "çļĦæľī": 11162,
  "iency": 11163,
  "Ġdenote": 11164,
  "èĪŀè¹Ī": 11165,
  "Ġreference": 11166,
  "Ġteaching": 11167,
  "æ½Ń": 11168,
  "ĠKing": 11169,
  "å±ĤéĿ¢": 11170,
  "åı¯èĥ½æĢ§": 11171,
  "ç¡®è¯Ĭ": 11172,
  "è¾ĥå¥½çļĦ": 11173,
  "ä¿¡ä»°": 11174,
  "éħ®": 11175,
  "åĲįåĪĹ": 11176,
  "æ¯Ķçī¹": 11177,
  "åĪ¶çļĦ": 11178,
  "äººäºĭ": 11179,
  "Ġcateg": 11180,
  "ãĢĤ(": 11181,
  "{-": 11182,
  "Vec": 11183,
  "PH": 11184,
  "Number": 11185,
  "Ġæľ¬": 11186,
  "Ġcomponents": 11187,
  "Ġprobably": 11188,
  "Ġbehind": 11189,
  "é½Ĳåħ¨": 11190,
  "æĭįåįĸ": 11191,
  "Ġ2018": 11192,
  "çĥŃçĪ±": 11193,
  "è¯¥é¡¹çĽ®": 11194,
  "è¯ģå®ŀ": 11195,
  "å°Ĩæĺ¯": 11196,
  "ä¹ĭæīĢä»¥": 11197,
  "Ġ$|": 11198,
  "ï¼ļãĢĬ": 11199,
  "Ġreve": 11200,
  "äººå¿ĥ": 11201,
  "Ġfoot": 11202,
  "Ġsus": 11203,
  "Mod": 11204,
  "Is": 11205,
  "Ġdefinition": 11206,
  "ĠError": 11207,
  "results": 11208,
  "åĭĩå£«": 11209,
  "ç»¿åĮĸ": 11210,
  "çĨĶ": 11211,
  "](../": 11212,
  "_{\\": 11213,
  "é¦ĸä¸ª": 11214,
  "ptions": 11215,
  "æķ°æİ§": 11216,
  "æĹ¬": 11217,
  "Ñĥ": 11218,
  "gn": 11219,
  ".;": 11220,
  "åįłåľ°éĿ¢ç§¯": 11221,
  "æįĲèµł": 11222,
  "floor": 11223,
  "Ġmonitor": 11224,
  "çĩĥæ°Ķ": 11225,
  "äºĨè§£åĪ°": 11226,
  "Ġcompared": 11227,
  "comes": 11228,
  "Ġseason": 11229,
  "ä»Ĭå¹´çļĦ": 11230,
  "åıĹæ¬¢è¿İ": 11231,
  "æĢ»æĬķèµĦ": 11232,
  "è§£éĻ¤": 11233,
  "Ġrules": 11234,
  "ĠMe": 11235,
  "å¥½åĥı": 11236,
  "çŃīå·¥ä½ľ": 11237,
  "Ġnor": 11238,
  "ä¸Ńåħ±": 11239,
  "åį¸": 11240,
  "mber": 11241,
  "bi": 11242,
  "WORD": 11243,
  "èĢģå¹´äºº": 11244,
  "Ġdrink": 11245,
  "Ġedge": 11246,
  "Ġemerg": 11247,
  "å³»": 11248,
  "echo": 11249,
  "åī¯ä¹¦è®°": 11250,
  "çªĦ": 11251,
  "Ġcompan": 11252,
  "åħĭæľį": 11253,
  "æİ¥çĿĢ": 11254,
  "Ġrain": 11255,
  "åħ³éĹŃ": 11256,
  "å¼Ģå¿ĥ": 11257,
  "ä¸İåħ¶ä»ĸ": 11258,
  "Ġlost": 11259,
  "eces": 11260,
  "çº±": 11261,
  "Ġtherefore": 11262,
  "rang": 11263,
  "haps": 11264,
  "TH": 11265,
  "éļ§éģĵ": 11266,
  "Ġfinancial": 11267,
  "Ġvariable": 11268,
  "Ġpolicy": 11269,
  "åľ£è¯ŀ": 11270,
  "æ¿ĢçĥĪ": 11271,
  "ĠUp": 11272,
  "ç§¯åĪĨ": 11273,
  "éĺ²çģ«": 11274,
  "Ġseem": 11275,
  "æĪ·å¤ĸ": 11276,
  "èĩªè§ī": 11277,
  "æ´Ĵ": 11278,
  "åħ¬ç§¯éĩĳ": 11279,
  "Ġmount": 11280,
  "Ġfields": 11281,
  "ä¸Ģåº¦": 11282,
  "xi": 11283,
  "My": 11284,
  "Ġum": 11285,
  "ĠAustral": 11286,
  "button": 11287,
  "Ġpredict": 11288,
  "éĶħçĤī": 11289,
  "flict": 11290,
  "Ġmeters": 11291,
  "settings": 11292,
  "åĳ½ä¸Ń": 11293,
  "çĶŁäº§ç»ıèĲ¥": 11294,
  "Ġheld": 11295,
  "ĠFin": 11296,
  "æĬ¥èŃ¦": 11297,
  "ãĢĭ(": 11298,
  "ä¸ĭä¸Ģ": 11299,
  "çĶ¨ä½ľ": 11300,
  "Ġpict": 11301,
  "åį§": 11302,
  "erve": 11303,
  "à¾": 11304,
  "mask": 11305,
  "FO": 11306,
  "Ġell": 11307,
  "å¥łå®ļ": 11308,
  "media": 11309,
  "ASA": 11310,
  "ä¹ĭä¸ĢçļĦ": 11311,
  "å¤§å®¶éĥ½": 11312,
  "acebook": 11313,
  "enses": 11314,
  "æĹłç¼Ŀ": 11315,
  "åĨħåľ¨": 11316,
  "ulated": 11317,
  "æ¬º": 11318,
  "åĩºèī²": 11319,
  "stack": 11320,
  "ä¸ºä½ķ": 11321,
  "iting": 11322,
  "Ġcand": 11323,
  "çļĦæĸĩåĮĸ": 11324,
  "çļĦå¤ļ": 11325,
  "ka": 11326,
  "Cç½Ĺ": 11327,
  "Ġcontrad": 11328,
  "éķĢéĶĮ": 11329,
  "å®īå¾½çľģ": 11330,
  "osphere": 11331,
  "åĽĽå·Ŀçľģ": 11332,
  "æļĤæĹ¶": 11333,
  "Ġprocessing": 11334,
  "Ġ2000": 11335,
  "æŃĮæīĭ": 11336,
  "çıŃåŃĲ": 11337,
  "ĠNet": 11338,
  "ĠDi": 11339,
  "Ġexcept": 11340,
  "æ¯Ķä¸Ĭå¹´": 11341,
  "åıĬåħ¶ä»ĸ": 11342,
  "çŃīéĹ®é¢ĺ": 11343,
  "çĶ¨åľ°": 11344,
  "åľ¨åĽ½åĨħ": 11345,
  "çļĦåĽ½å®¶": 11346,
  "vant": 11347,
  "Man": 11348,
  "Ġí": 11349,
  "æ²³åĮĹçľģ": 11350,
  "çĦ¦çĤ¹": 11351,
  "èĢĥèĻĳåĪ°": 11352,
  "Ġreflect": 11353,
  "èĭ¥å¹²": 11354,
  "ç»¼åĲĪæĢ§": 11355,
  "èģļåĲĪ": 11356,
  "åıĳçĶŁçļĦ": 11357,
  "æ¬§çĽŁ": 11358,
  "çļĦä¸ĢåĪĩ": 11359,
  "Ġwebs": 11360,
  "å¾ĹçŁ¥": 11361,
  "ä¸»æľº": 11362,
  "è¿ĩæķı": 11363,
  "Ġhyper": 11364,
  "åľ¨ä¸Ģä¸ª": 11365,
  "Ġsend": 11366,
  "Ġaware": 11367,
  "çļĦæĦŁè§ī": 11368,
  "Ġdigit": 11369,
  "Ġelectric": 11370,
  "éĵĿåĲĪéĩĳ": 11371,
  "æº¶åīĤ": 11372,
  "ATE": 11373,
  "Ġregions": 11374,
  "ç¼ĸçłģ": 11375,
  "çīĪæĿĥ": 11376,
  "Ġ&=": 11377,
  "160": 11378,
  "Ġresource": 11379,
  "åİĨç¨ĭ": 11380,
  "ĠBo": 11381,
  "å·¥ä½ľå®¤": 11382,
  "éĩĳçīĮ": 11383,
  "abs": 11384,
  "Ġprop": 11385,
  "åģ·": 11386,
  "å®¶ä¸Ń": 11387,
  "Ġlate": 11388,
  "Ġrepe": 11389,
  "è¿Ļå°±": 11390,
  "ä¸Ĭçº¿": 11391,
  "åıĳéħµ": 11392,
  "åľ¨æľ¬": 11393,
  "æĺ¯å¾Ī": 11394,
  "itness": 11395,
  "erred": 11396,
  "çļĦçĬ¶æĢģ": 11397,
  "water": 11398,
  "false": 11399,
  "bt": 11400,
  "DR": 11401,
  "Ġscientific": 11402,
  "Ġoperation": 11403,
  "åĵĪå°Ķ": 11404,
  "èĨı": 11405,
  "Ġaccur": 11406,
  "å°½åı¯èĥ½": 11407,
  "Ġperpend": 11408,
  "Ġneigh": 11409,
  "æ¸©å®¤": 11410,
  "Ġspir": 11411,
  "Ġplaces": 11412,
  "çİĩåħĪ": 11413,
  "éĻĲäºİ": 11414,
  "æĶ¯æı´": 11415,
  "æĦŁåĬ¨": 11416,
  "æĢ»è®¡": 11417,
  "éĩıåŃĲ": 11418,
  "éĢ¢": 11419,
  "items": 11420,
  "çļĦåŁİå¸Ĥ": 11421,
  "fin": 11422,
  "Right": 11423,
  ")}{": 11424,
  "ä¸ºå®¢æĪ·æıĲä¾Ľ": 11425,
  "å¹¼åĦ¿åĽŃ": 11426,
  "åĩ½æķ°": 11427,
  "å±ıå¹ķ": 11428,
  "çļĩå¸Ŀ": 11429,
  "ĠWeb": 11430,
  "Ġoffer": 11431,
  "Ġdetails": 11432,
  "çģµéŃĤ": 11433,
  "Ġarray": 11434,
  "åİĤæĪ¿": 11435,
  "çĻ½çĻľé£İåĮ»éĻ¢": 11436,
  "æŃ¥éª¤": 11437,
  "Ġshape": 11438,
  "å¦®": 11439,
  "éĥ¡": 11440,
  "åĲĪè®¡": 11441,
  "idents": 11442,
  "ilateral": 11443,
  "Ġdry": 11444,
  "}}$": 11445,
  "holder": 11446,
  "gor": 11447,
  "cache": 11448,
  "\\):": 11449,
  "ç³ĸå°¿çĹħ": 11450,
  "é©¬æĿ¥è¥¿äºļ": 11451,
  "ĠBritish": 11452,
  "ĠInternational": 11453,
  "è¾īçħĮ": 11454,
  "çĶĺèĤĥ": 11455,
  "Ġoperations": 11456,
  "çģ¾å®³": 11457,
  "ship": 11458,
  "äººåĳĺçļĦ": 11459,
  "æĪ¿éĹ´": 11460,
  "æĸ¯ç§ĳ": 11461,
  "æł¡åıĭ": 11462,
  "åŀĭåı·": 11463,
  "ç«ĭæĸ¹": 11464,
  "Ġalthough": 11465,
  "å®ŀåľ°": 11466,
  "æĥ¨": 11467,
  "åħ¬æĸ¤": 11468,
  "ä¸Ĭçº§": 11469,
  "zz": 11470,
  "ses": 11471,
  "pet": 11472,
  "mock": 11473,
  "fa": 11474,
  "KE": 11475,
  ":?": 11476,
  "ĠErr": 11477,
  "æĲºå¸¦": 11478,
  "Ġdirectory": 11479,
  "çĳŀå£«": 11480,
  "Ġcarry": 11481,
  "åĢŁåĬ©": 11482,
  "Err": 11483,
  "Ġemail": 11484,
  "çĶ·äºº": 11485,
  "åĿĩä¸º": 11486,
  "å¿«éĢĴ": 11487,
  "Ġtrig": 11488,
  "æĿ¡æ¬¾": 11489,
  "ç®¡çĲĨå·¥ä½ľ": 11490,
  "è§£çŃĶ": 11491,
  "ersion": 11492,
  "åº¦åĴĮ": 11493,
  "ĠCouncil": 11494,
  "Ġoil": 11495,
  "éĳ": 11496,
  "éĳ«": 11497,
  "âħ": 11498,
  "hist": 11499,
  "Box": 11500,
  "åħ¬åĬ¡åĳĺ": 11501,
  "Ġdescribed": 11502,
  "FIG": 11503,
  "æ¹ĸåįĹçľģ": 11504,
  "åĲĪçĲĨçļĦ": 11505,
  "ç»ĦæĪĲéĥ¨åĪĨ": 11506,
  "åĪĨåĪ«æĺ¯": 11507,
  "Ġtransport": 11508,
  "åĨ²çªģ": 11509,
  "Ġdecision": 11510,
  "Ġobt": 11511,
  "Ġroom": 11512,
  "æĹ©åľ¨": 11513,
  "åŁİå¸ĤçļĦ": 11514,
  "ĠJesus": 11515,
  "éĻ¤æŃ¤": 11516,
  "é©¬ä¸Ĭ": 11517,
  "èĬĤçĤ¹": 11518,
  "appro": 11519,
  "å¿ĥçģµ": 11520,
  "ç¬¬ä¹Ŀ": 11521,
  "åĲİæŀľ": 11522,
  "Ġdirection": 11523,
  "ä¸įåıĺ": 11524,
  "åħĶ": 11525,
  "vest": 11526,
  "la": 11527,
  "DS": 11528,
  "700": 11529,
  "/)": 11530,
  "ä¸įåĬ¨äº§": 11531,
  "Ġbeginning": 11532,
  "Ġolder": 11533,
  "Ġhighly": 11534,
  "èģĶåĲĪåĽ½": 11535,
  "åŃĺåľ¨çļĦ": 11536,
  "neq": 11537,
  "è´§è¿Ĳ": 11538,
  "ä»ĭè´¨": 11539,
  "ensions": 11540,
  "å®īåħ¨æĢ§": 11541,
  "ç±³çļĦ": 11542,
  "ç»ıæµİçļĦ": 11543,
  "è¥¿åħ°": 11544,
  "Ġconstruction": 11545,
  "Ġste": 11546,
  "ä¸»å¯¼": 11547,
  "é«ĺæ°´å¹³": 11548,
  "å¤ļè¾¾": 11549,
  "Ġhar": 11550,
  "çĶŁçĲĨ": 11551,
  "å¤§éģĵ": 11552,
  "ä¸įå¤ª": 11553,
  "ä¸Ģè¾¹": 11554,
  "ato": 11555,
  "git": 11556,
  "dom": 11557,
  "Att": 11558,
  "={": 11559,
  "APP": 11560,
  "Ġhumans": 11561,
  "Ġinfection": 11562,
  "åŁºæľ¬ä¸Ĭ": 11563,
  "æįŁåĿı": 11564,
  "å®Ŀå®Ŀ": 11565,
  "åĿĩåı¯": 11566,
  "çľŁè¯ļ": 11567,
  "æ¢¨": 11568,
  "2025": 11569,
  "125": 11570,
  "çľģå¸Ĥ": 11571,
  "æĦŁæģ©": 11572,
  "åħ³èģĶ": 11573,
  "æ´½": 11574,
  "æĸ°æĿĲæĸĻ": 11575,
  "åĪĨä¼ļ": 11576,
  "è¿Ļæĺ¯ä¸Ģ": 11577,
  "å¹´èĩ³": 11578,
  "Ġcivil": 11579,
  "Ġsrc": 11580,
  "çļĦè¡¨çİ°": 11581,
  "det": 11582,
  "Object": 11583,
  "æŁ´æ²¹": 11584,
  "Ġpairs": 11585,
  "ä¸Ģæ®µæĹ¶éĹ´": 11586,
  "éĻĦå±ŀ": 11587,
  "èģļéĽĨ": 11588,
  "åģ¥åº·çļĦ": 11589,
  "ä¾¿æį·": 11590,
  "åĽĽå¹´": 11591,
  "å¸¦ç»Ļ": 11592,
  "è§£è¯»": 11593,
  "æĺİå¹´": 11594,
  "åıĳå±ķåĴĮ": 11595,
  "çĸ¯": 11596,
  "æķ²": 11597,
  "æĸĮ": 11598,
  "rad": 11599,
  "pc": 11600,
  "Token": 11601,
  "Last": 11602,
  "æĺĨèĻ«": 11603,
  "éĨī": 11604,
  "è®²è¯Ŀ": 11605,
  "çĶ»å®¶": 11606,
  "Ġapplied": 11607,
  "åĩıæİĴ": 11608,
  "å¤§åŃ¦çļĦ": 11609,
  "ä¸ĸçķĮçļĦ": 11610,
  "Ġ35": 11611,
  "unch": 11612,
  "å®¶çĶµ": 11613,
  "ä½ľçī©": 11614,
  "130": 11615,
  "Ġgoal": 11616,
  "Ġdifferences": 11617,
  "å¤«å¦»": 11618,
  "åĲ¸éĻĦ": 11619,
  "åŁºç¡Ģä¸Ĭ": 11620,
  "msg": 11621,
  "éĺ²èĮĥ": 11622,
  "åĽĽå¤§": 11623,
  "allow": 11624,
  "ç®¡çĲĨåĬŀæ³ķ": 11625,
  "é£İçĶµ": 11626,
  "èµ·çĤ¹": 11627,
  "åĪ©çļĦ": 11628,
  "å¦¨": 11629,
  "äºĨå¾Īå¤ļ": 11630,
  "åľ¨ä½¿çĶ¨": 11631,
  "alog": 11632,
  "Ġsem": 11633,
  "eration": 11634,
  "ï¿": 11635,
  "ıãĥ¼ãĥĪ": 11636,
  "åĶ®åĲİæľįåĬ¡": 11637,
  "é«ĺæĸ°æĬĢæľ¯ä¼ģä¸ļ": 11638,
  "Ġestablished": 11639,
  "Ġpurch": 11640,
  "Ġoccurs": 11641,
  "Ġeverything": 11642,
  "Ġdecl": 11643,
  "ç¼ºå°ĳ": 11644,
  "é¢ĳéģĵ": 11645,
  "åĿļåĨ³": 11646,
  "20050": 11647,
  "åįĹåĮĹ": 11648,
  "è¿ĺéľĢè¦ģ": 11649,
  "åĬłå¯Ĩ": 11650,
  "éķĳ": 11651,
  "éĺĲ": 11652,
  "Ġ\\,": 11653,
  "elt": 11654,
  "ä¸Ńåľº": 11655,
  "isions": 11656,
  "Ġcup": 11657,
  "eks": 11658,
  "BD": 11659,
  "è¶ħå£°æ³¢": 11660,
  "Ġfriend": 11661,
  "Color": 11662,
  "ictionary": 11663,
  "ç»ĥä¹ł": 11664,
  "æĪıåī§": 11665,
  "Ġsynt": 11666,
  "éĺ¿æĭī": 11667,
  "Ġquite": 11668,
  "Ġjson": 11669,
  "éĺ²çĸ«": 11670,
  "è®©ä»ĸ": 11671,
  "æĢ»åĨ³èµĽ": 11672,
  "æĶ¶å½ķ": 11673,
  "ä½łä¼ļ": 11674,
  "Ġvit": 11675,
  "çķı": 11676,
  "æķĻç§ĳ": 11677,
  "Ġ('": 11678,
  "ä¸»å¸ħ": 11679,
  "å¯¹æĪĳ": 11680,
  "ä¸ºåŁºç¡Ģ": 11681,
  "Ġbillion": 11682,
  "sig": 11683,
  "PR": 11684,
  "Ġbacteria": 11685,
  "æī®æ¼Ķ": 11686,
  "Ġreceive": 11687,
  "éĶ¦èµĽ": 11688,
  "Ġsuff": 11689,
  "æİ¢æµĭ": 11690,
  "Ġago": 11691,
  "Ġobtain": 11692,
  "Ġplaced": 11693,
  "æ¸ħåįİ": 11694,
  "åĽŀæĿ¥": 11695,
  "ĠRoman": 11696,
  "Ġraw": 11697,
  "å¸¸æĢģ": 11698,
  "å¤ĸç§ĳ": 11699,
  "éĥ½å¾Ī": 11700,
  "ĠApr": 11701,
  "é¡½": 11702,
  "çŃīå¤ļ": 11703,
  "usr": 11704,
  "etch": 11705,
  "ä¸ºäºº": 11706,
  "Ġfront": 11707,
  "Ġwent": 11708,
  "åľ¨åĮĹäº¬": 11709,
  "Ġcop": 11710,
  "first": 11711,
  "EE": 11712,
  ")](": 11713,
  "Ġappropriate": 11714,
  "Ġexisting": 11715,
  "tee": 11716,
  "obpack": 11717,
  "åı¤èĢģ": 11718,
  "ĠJournal": 11719,
  "éĺ²å®Ī": 11720,
  "outhern": 11721,
  "éĤ£ç§į": 11722,
  "æĬ¥ä»·": 11723,
  "ç¾İè§Ĥ": 11724,
  "å½ĵä»Ĭ": 11725,
  "Ġaspect": 11726,
  "Ġstage": 11727,
  "ĠSec": 11728,
  "ä¸įèµ·": 11729,
  "Ġwide": 11730,
  "balance": 11731,
  ">(": 11732,
  "ç¾İä¸½çļĦ": 11733,
  "Ġtopic": 11734,
  "Ġcurrently": 11735,
  "Ġidentity": 11736,
  "ancy": 11737,
  "éĺ¿éĩĮ": 11738,
  "Ġrock": 11739,
  "çĮİ": 11740,
  "åİ»äºĨ": 11741,
  "ĠWork": 11742,
  "å¢ŀå¤§": 11743,
  "aby": 11744,
  "æ°´åĪĨ": 11745,
  "å¿ĥæĢģ": 11746,
  "æľīæĿĥ": 11747,
  "ä¸ĢæľŁ": 11748,
  "dim": 11749,
  "Net": 11750,
  "Ġvers": 11751,
  "å¼¹æĢ§": 11752,
  "åĢ¼å¾Ĺä¸Ģ": 11753,
  "Ġstarting": 11754,
  "ä¸¾åĬŀçļĦ": 11755,
  "Ġtesting": 11756,
  "testing": 11757,
  "Ġsolar": 11758,
  "ĠChinese": 11759,
  "è¦ģæ±ĤçļĦ": 11760,
  "æĤ£æľī": 11761,
  "åĪĹåħ¥": 11762,
  "æĢģåĬ¿": 11763,
  "é¦ĸéĥ½": 11764,
  "è½¬è½½": 11765,
  "Ġseems": 11766,
  "è¯ķåĽ¾": 11767,
  "erences": 11768,
  "force": 11769,
  "å®Įç»ĵ": 11770,
  "å¼ºçĥĪ": 11771,
  "aints": 11772,
  "æĽ´å®¹æĺĵ": 11773,
  "å§ĳ": 11774,
  "otes": 11775,
  "æĪĳåħ¬åı¸": 11776,
  "è¿Ļåľº": 11777,
  "omic": 11778,
  "èĩĤ": 11779,
  "Ġmo": 11780,
  "ä¸ºä¾ĭ": 11781,
  "Ġinstr": 11782,
  "Ġfa": 11783,
  "Ġwidth": 11784,
  "çļĦæĶ¯æĮģ": 11785,
  "}|": 11786,
  "SU": 11787,
  "éĺ¿æ£®çº³": 11788,
  "Ġmoving": 11789,
  "åħ¬ä¼Ĺåı·": 11790,
  "å®ıè§Ĥ": 11791,
  "Ġchanged": 11792,
  "å°¤æĸĩ": 11793,
  "Ġsupply": 11794,
  "ovember": 11795,
  "obile": 11796,
  "åĩłåįģ": 11797,
  "å»ºè®¾é¡¹çĽ®": 11798,
  "çĥŃéĹ¨": 11799,
  "Ġ26": 11800,
  "æĹ¥çĶµ": 11801,
  "åħ¬å¼Ģåıĳ": 11802,
  "Ġcred": 11803,
  "lor": 11804,
  "iuc": 11805,
  "åĪłéĻ¤": 11806,
  "dataset": 11807,
  "Ident": 11808,
  "Ġallowed": 11809,
  "Ġprocesses": 11810,
  "å¹¿æ³ĽçļĦ": 11811,
  "å¹²æī°": 11812,
  "åħļæĶ¯éĥ¨": 11813,
  "Ġadminist": 11814,
  "Ġship": 11815,
  "ĠEm": 11816,
  "ĠRed": 11817,
  "æķĻä¼ļ": 11818,
[...]
